{
  "version": "1.0",
  "truncation": null,
  "padding": null,
  "added_tokens": [
    {
      "id": 0,
      "content": "[PAD]",
      "single_word": false,
      "lstrip": false,
      "rstrip": false,
      "normalized": false,
      "special": true
    },
    {
      "id": 1,
      "content": "[SOS]",
      "single_word": false,
      "lstrip": false,
      "rstrip": false,
      "normalized": false,
      "special": true
    },
    {
      "id": 2,
      "content": "[EOS]",
      "single_word": false,
      "lstrip": false,
      "rstrip": false,
      "normalized": false,
      "special": true
    }
  ],
  "normalizer": null,
  "pre_tokenizer": {
    "type": "Whitespace"
  },
  "post_processor": null,
  "decoder": null,
  "model": {
    "type": "BPE",
    "dropout": null,
    "unk_token": null,
    "continuing_subword_prefix": null,
    "end_of_word_suffix": null,
    "fuse_unk": false,
    "byte_fallback": false,
    "ignore_merges": false,
    "vocab": {
      "[PAD]": 0,
      "[SOS]": 1,
      "[EOS]": 2,
      "!": 3,
      "\"": 4,
      "#": 5,
      "$": 6,
      "%": 7,
      "&": 8,
      "'": 9,
      "(": 10,
      ")": 11,
      "*": 12,
      "+": 13,
      ",": 14,
      "-": 15,
      ".": 16,
      "/": 17,
      "0": 18,
      "1": 19,
      "2": 20,
      "3": 21,
      "4": 22,
      "5": 23,
      "6": 24,
      "7": 25,
      "8": 26,
      "9": 27,
      ":": 28,
      ";": 29,
      "<": 30,
      "=": 31,
      ">": 32,
      "?": 33,
      "@": 34,
      "A": 35,
      "B": 36,
      "C": 37,
      "D": 38,
      "E": 39,
      "F": 40,
      "G": 41,
      "H": 42,
      "I": 43,
      "J": 44,
      "K": 45,
      "L": 46,
      "M": 47,
      "N": 48,
      "O": 49,
      "P": 50,
      "Q": 51,
      "R": 52,
      "S": 53,
      "T": 54,
      "U": 55,
      "V": 56,
      "W": 57,
      "X": 58,
      "Y": 59,
      "Z": 60,
      "[": 61,
      "\\": 62,
      "]": 63,
      "^": 64,
      "_": 65,
      "`": 66,
      "a": 67,
      "b": 68,
      "c": 69,
      "d": 70,
      "e": 71,
      "f": 72,
      "g": 73,
      "h": 74,
      "i": 75,
      "j": 76,
      "k": 77,
      "l": 78,
      "m": 79,
      "n": 80,
      "o": 81,
      "p": 82,
      "q": 83,
      "r": 84,
      "s": 85,
      "t": 86,
      "u": 87,
      "v": 88,
      "w": 89,
      "x": 90,
      "y": 91,
      "z": 92,
      "{": 93,
      "}": 94,
      "¡": 95,
      "¢": 96,
      "£": 97,
      "©": 98,
      "ª": 99,
      "«": 100,
      "­": 101,
      "°": 102,
      "±": 103,
      "²": 104,
      "´": 105,
      "µ": 106,
      "·": 107,
      "¸": 108,
      "¹": 109,
      "º": 110,
      "»": 111,
      "½": 112,
      "¾": 113,
      "À": 114,
      "Á": 115,
      "Â": 116,
      "Ä": 117,
      "Å": 118,
      "Ç": 119,
      "È": 120,
      "É": 121,
      "Ê": 122,
      "Ë": 123,
      "Ì": 124,
      "Í": 125,
      "Î": 126,
      "Ï": 127,
      "Ð": 128,
      "Ò": 129,
      "Ó": 130,
      "Ö": 131,
      "Ø": 132,
      "Ù": 133,
      "Ü": 134,
      "Ý": 135,
      "ß": 136,
      "à": 137,
      "á": 138,
      "â": 139,
      "ã": 140,
      "ä": 141,
      "å": 142,
      "æ": 143,
      "ç": 144,
      "è": 145,
      "é": 146,
      "ê": 147,
      "ë": 148,
      "ì": 149,
      "í": 150,
      "î": 151,
      "ï": 152,
      "ð": 153,
      "ñ": 154,
      "ò": 155,
      "ó": 156,
      "ô": 157,
      "õ": 158,
      "ö": 159,
      "÷": 160,
      "ø": 161,
      "ù": 162,
      "ú": 163,
      "û": 164,
      "ü": 165,
      "ý": 166,
      "ā": 167,
      "ă": 168,
      "ą": 169,
      "Ć": 170,
      "ć": 171,
      "Č": 172,
      "č": 173,
      "ď": 174,
      "Đ": 175,
      "đ": 176,
      "ē": 177,
      "ė": 178,
      "ę": 179,
      "ě": 180,
      "ğ": 181,
      "Ģ": 182,
      "ī": 183,
      "į": 184,
      "İ": 185,
      "ı": 186,
      "ķ": 187,
      "ĺ": 188,
      "Ľ": 189,
      "ľ": 190,
      "Ł": 191,
      "ł": 192,
      "ń": 193,
      "ņ": 194,
      "ň": 195,
      "ō": 196,
      "Ő": 197,
      "ő": 198,
      "œ": 199,
      "ŕ": 200,
      "Ř": 201,
      "ř": 202,
      "Ś": 203,
      "ś": 204,
      "Ş": 205,
      "ş": 206,
      "Š": 207,
      "š": 208,
      "Ţ": 209,
      "ţ": 210,
      "ť": 211,
      "ū": 212,
      "ů": 213,
      "ų": 214,
      "ŵ": 215,
      "ź": 216,
      "Ż": 217,
      "ż": 218,
      "Ž": 219,
      "ž": 220,
      "ǎ": 221,
      "ǐ": 222,
      "˗": 223,
      "˚": 224,
      "Α": 225,
      "Β": 226,
      "Ε": 227,
      "Ι": 228,
      "Κ": 229,
      "Μ": 230,
      "Ν": 231,
      "Ο": 232,
      "Π": 233,
      "Ρ": 234,
      "Τ": 235,
      "Υ": 236,
      "ά": 237,
      "έ": 238,
      "ή": 239,
      "ί": 240,
      "α": 241,
      "β": 242,
      "γ": 243,
      "δ": 244,
      "ε": 245,
      "ζ": 246,
      "η": 247,
      "ι": 248,
      "κ": 249,
      "λ": 250,
      "μ": 251,
      "ν": 252,
      "ξ": 253,
      "ο": 254,
      "π": 255,
      "ρ": 256,
      "ς": 257,
      "σ": 258,
      "τ": 259,
      "υ": 260,
      "φ": 261,
      "χ": 262,
      "ω": 263,
      "ό": 264,
      "ύ": 265,
      "ώ": 266,
      "Д": 267,
      "М": 268,
      "Н": 269,
      "О": 270,
      "П": 271,
      "Т": 272,
      "а": 273,
      "б": 274,
      "в": 275,
      "г": 276,
      "д": 277,
      "е": 278,
      "ж": 279,
      "з": 280,
      "и": 281,
      "й": 282,
      "к": 283,
      "л": 284,
      "м": 285,
      "н": 286,
      "о": 287,
      "п": 288,
      "р": 289,
      "с": 290,
      "т": 291,
      "у": 292,
      "ч": 293,
      "ш": 294,
      "ъ": 295,
      "ы": 296,
      "ь": 297,
      "я": 298,
      "ܧ": 299,
      "​": 300,
      "–": 301,
      "—": 302,
      "‘": 303,
      "’": 304,
      "“": 305,
      "”": 306,
      "•": 307,
      "…": 308,
      "€": 309,
      "−": 310,
      "≤": 311,
      "舃": 312,
      "�": 313,
      "on": 314,
      "re": 315,
      "en": 316,
      "di": 317,
      "to": 318,
      "ti": 319,
      "er": 320,
      "ta": 321,
      "la": 322,
      "de": 323,
      "ri": 324,
      "si": 325,
      "in": 326,
      "al": 327,
      "te": 328,
      "ra": 329,
      "ro": 330,
      "zi": 331,
      "ch": 332,
      "one": 333,
      "co": 334,
      "le": 335,
      "li": 336,
      "an": 337,
      "un": 338,
      "del": 339,
      "es": 340,
      "che": 341,
      "po": 342,
      "con": 343,
      "men": 344,
      "ci": 345,
      "per": 346,
      "so": 347,
      "ca": 348,
      "qu": 349,
      "mo": 350,
      "zione": 351,
      "no": 352,
      "mi": 353,
      "do": 354,
      "pa": 355,
      "il": 356,
      "se": 357,
      "vo": 358,
      "ma": 359,
      "pro": 360,
      "gi": 361,
      "bi": 362,
      "ne": 363,
      "tu": 364,
      "vi": 365,
      "su": 366,
      "lo": 367,
      "da": 368,
      "gli": 369,
      "pe": 370,
      "ssi": 371,
      "me": 372,
      "sa": 373,
      "za": 374,
      "tto": 375,
      "tti": 376,
      "tra": 377,
      "pi": 378,
      "pre": 379,
      "ono": 380,
      "sta": 381,
      "oni": 382,
      "tà": 383,
      "ter": 384,
      "ni": 385,
      "or": 386,
      "uro": 387,
      "della": 388,
      "va": 389,
      "ve": 390,
      "mento": 391,
      "ques": 392,
      "ale": 393,
      "non": 394,
      "com": 395,
      "ali": 396,
      "tta": 397,
      "ar": 398,
      "cu": 399,
      "ten": 400,
      "mente": 401,
      "ce": 402,
      "una": 403,
      "nel": 404,
      "amo": 405,
      "fi": 406,
      "euro": 407,
      "fa": 408,
      "europe": 409,
      "ente": 410,
      "go": 411,
      "dell": 412,
      "tro": 413,
      "dei": 414,
      "zioni": 415,
      "im": 416,
      "na": 417,
      "sti": 418,
      "ver": 419,
      "chi": 420,
      "Co": 421,
      "sid": 422,
      "por": 423,
      "alla": 424,
      "ssione": 425,
      "sul": 426,
      "pri": 427,
      "du": 428,
      "par": 429,
      "sen": 430,
      "gra": 431,
      "bb": 432,
      "ggi": 433,
      "gno": 434,
      "for": 435,
      "mmi": 436,
      "cor": 437,
      "tre": 438,
      "gu": 439,
      "delle": 440,
      "sono": 441,
      "ru": 442,
      "tri": 443,
      "ga": 444,
      "fin": 445,
      "Commi": 446,
      "zia": 447,
      "zza": 448,
      "uni": 449,
      "ano": 450,
      "lu": 451,
      "tan": 452,
      "ac": 453,
      "ere": 454,
      "ste": 455,
      "Uni": 456,
      "ha": 457,
      "mb": 458,
      "ani": 459,
      "dis": 460,
      "rela": 461,
      "all": 462,
      "min": 463,
      "eri": 464,
      "are": 465,
      "ven": 466,
      "questo": 467,
      "tati": 468,
      "bbi": 469,
      "glio": 470,
      "ces": 471,
      "più": 472,
      "pu": 473,
      "europea": 474,
      "azione": 475,
      "Pre": 476,
      "bili": 477,
      "nu": 478,
      "Presid": 479,
      "rio": 480,
      "col": 481,
      "Commissione": 482,
      "ap": 483,
      "ris": 484,
      "Unione": 485,
      "ssa": 486,
      "poli": 487,
      "ran": 488,
      "at": 489,
      "inter": 490,
      "esi": 491,
      "stra": 492,
      "anche": 493,
      "Si": 494,
      "el": 495,
      "tare": 496,
      "ff": 497,
      "tori": 498,
      "ad": 499,
      "menti": 500,
      "lamento": 501,
      "anno": 502,
      "esse": 503,
      "politi": 504,
      "Presidente": 505,
      "revo": 506,
      "Con": 507,
      "La": 508,
      "as": 509,
      "zion": 510,
      "ai": 511,
      "cono": 512,
      "mer": 513,
      "bbiamo": 514,
      "come": 515,
      "ché": 516,
      "vol": 517,
      "ppo": 518,
      "essere": 519,
      "am": 520,
      "quan": 521,
      "dere": 522,
      "fica": 523,
      "sia": 524,
      "Par": 525,
      "sto": 526,
      "alle": 527,
      "cen": 528,
      "gen": 529,
      "cre": 530,
      "tato": 531,
      "ba": 532,
      "sione": 533,
      "Parlamento": 534,
      "au": 535,
      "In": 536,
      "gnor": 537,
      "tale": 538,
      "av": 539,
      "cui": 540,
      "onorevo": 541,
      "Stati": 542,
      "bile": 543,
      "man": 544,
      "is": 545,
      "tere": 546,
      "ese": 547,
      "memb": 548,
      "questi": 549,
      "presen": 550,
      "dire": 551,
      "impor": 552,
      "tico": 553,
      "mol": 554,
      "ge": 555,
      "ero": 556,
      "propo": 557,
      "oc": 558,
      "bbe": 559,
      "diri": 560,
      "lavo": 561,
      "relazione": 562,
      "cri": 563,
      "degli": 564,
      "chia": 565,
      "00": 566,
      "cer": 567,
      "sso": 568,
      "siglio": 569,
      "questa": 570,
      "Consiglio": 571,
      "nci": 572,
      "enza": 573,
      "nella": 574,
      "rà": 575,
      "ggio": 576,
      "europeo": 577,
      "Il": 578,
      "pen": 579,
      "membri": 580,
      "via": 581,
      "stitu": 582,
      "bu": 583,
      "era": 584,
      "ron": 585,
      "importan": 586,
      "teri": 587,
      "tru": 588,
      "nos": 589,
      "parte": 590,
      "fon": 591,
      "loro": 592,
      "quanto": 593,
      "Euro": 594,
      "politica": 595,
      "sci": 596,
      "Signor": 597,
      "bilità": 598,
      "indi": 599,
      "possi": 600,
      "paesi": 601,
      "ttu": 602,
      "ria": 603,
      "ini": 604,
      "soci": 605,
      "uti": 606,
      "giu": 607,
      "quel": 608,
      "pli": 609,
      "dal": 610,
      "tali": 611,
      "lare": 612,
      "ze": 613,
      "dov": 614,
      "contro": 615,
      "sulla": 616,
      "ed": 617,
      "Europa": 618,
      "nuo": 619,
      "forma": 620,
      "onorevole": 621,
      "hanno": 622,
      "tiva": 623,
      "ser": 624,
      "nazion": 625,
      "stan": 626,
      "ori": 627,
      "posi": 628,
      "tutti": 629,
      "mani": 630,
      "guar": 631,
      "ora": 632,
      "neces": 633,
      "conomi": 634,
      "gh": 635,
      "sp": 636,
      "economi": 637,
      "fatto": 638,
      "alc": 639,
      "etti": 640,
      "ol": 641,
      "fici": 642,
      "sten": 643,
      "ene": 644,
      "uto": 645,
      "ul": 646,
      "rebbe": 647,
      "sse": 648,
      "enti": 649,
      "gni": 650,
      "llo": 651,
      "tte": 652,
      "ambi": 653,
      "sv": 654,
      "Per": 655,
      "segu": 656,
      "modo": 657,
      "ine": 658,
      "comuni": 659,
      "Qu": 660,
      "cato": 661,
      "ato": 662,
      "nell": 663,
      "propri": 664,
      "ilu": 665,
      "stru": 666,
      "svilu": 667,
      "bbli": 668,
      "rre": 669,
      "ble": 670,
      "ren": 671,
      "proble": 672,
      "tanto": 673,
      "ire": 674,
      "lib": 675,
      "stato": 676,
      "tras": 677,
      "fu": 678,
      "solu": 679,
      "cora": 680,
      "regi": 681,
      "molto": 682,
      "accor": 683,
      "lavoro": 684,
      "uno": 685,
      "attu": 686,
      "almente": 687,
      "tratta": 688,
      "dalla": 689,
      "finan": 690,
      "deci": 691,
      "tivo": 692,
      "riguar": 693,
      "cam": 694,
      "spe": 695,
      "vere": 696,
      "discu": 697,
      "cesso": 698,
      "tazione": 699,
      "ele": 700,
      "colle": 701,
      "sì": 702,
      "rie": 703,
      "oper": 704,
      "diritti": 705,
      "quali": 706,
      "nei": 707,
      "aff": 708,
      "pun": 709,
      "finanzia": 710,
      "pio": 711,
      "abbiamo": 712,
      "favo": 713,
      "qui": 714,
      "ando": 715,
      "zio": 716,
      "perché": 717,
      "deve": 718,
      "ttadi": 719,
      "cittadi": 720,
      "200": 721,
      "esti": 722,
      "tem": 723,
      "setto": 724,
      "suo": 725,
      "op": 726,
      "clu": 727,
      "sicu": 728,
      "proposta": 729,
      "rispe": 730,
      "fine": 731,
      "tutto": 732,
      "Non": 733,
      "ttiva": 734,
      "partico": 735,
      "pra": 736,
      "gru": 737,
      "rap": 738,
      "siste": 739,
      "une": 740,
      "occu": 741,
      "gia": 742,
      "commi": 743,
      "Commissa": 744,
      "gere": 745,
      "sviluppo": 746,
      "ghi": 747,
      "sem": 748,
      "cra": 749,
      "solo": 750,
      "necessa": 751,
      "peri": 752,
      "pubbli": 753,
      "anti": 754,
      "importante": 755,
      "cittadini": 756,
      "tura": 757,
      "obi": 758,
      "val": 759,
      "pren": 760,
      "ffici": 761,
      "tamente": 762,
      "rare": 763,
      "sol": 764,
      "gna": 765,
      "mini": 766,
      "cia": 767,
      "Commissario": 768,
      "sotto": 769,
      "tribu": 770,
      "appro": 771,
      "que": 772,
      "ancora": 773,
      "mio": 774,
      "gran": 775,
      "zzazione": 776,
      "rego": 777,
      "conti": 778,
      "tivi": 779,
      "live": 780,
      "sua": 781,
      "situ": 782,
      "anni": 783,
      "dall": 784,
      "può": 785,
      "princi": 786,
      "obietti": 787,
      "lanci": 788,
      "maggio": 789,
      "garan": 790,
      "uo": 791,
      "tica": 792,
      "ade": 793,
      "fron": 794,
      "accordo": 795,
      "questione": 796,
      "altri": 797,
      "rezza": 798,
      "fonda": 799,
      "gover": 800,
      "prima": 801,
      "miglio": 802,
      "sce": 803,
      "ona": 804,
      "ado": 805,
      "pers": 806,
      "emen": 807,
      "rin": 808,
      "esso": 809,
      "tive": 810,
      "commissione": 811,
      "mili": 812,
      "sicurezza": 813,
      "feri": 814,
      "emenda": 815,
      "misu": 816,
      "già": 817,
      "zo": 818,
      "ttavia": 819,
      "lazione": 820,
      "ciò": 821,
      "intere": 822,
      "mon": 823,
      "lan": 824,
      "condo": 825,
      "den": 826,
      "oltre": 827,
      "progra": 828,
      "dare": 829,
      "ho": 830,
      "af": 831,
      "cio": 832,
      "fare": 833,
      "Tu": 834,
      "occupa": 835,
      "impe": 836,
      "nor": 837,
      "condi": 838,
      "tempo": 839,
      "situazione": 840,
      "mercato": 841,
      "tire": 842,
      "sosten": 843,
      "assi": 844,
      "dobbiamo": 845,
      "tari": 846,
      "rappresen": 847,
      "diver": 848,
      "soluzione": 849,
      "livello": 850,
      "nazionale": 851,
      "corre": 852,
      "line": 853,
      "Ques": 854,
      "meno": 855,
      "ranno": 856,
      "senza": 857,
      "particolare": 858,
      "pare": 859,
      "ogo": 860,
      "Se": 861,
      "demo": 862,
      "materi": 863,
      "paese": 864,
      "mma": 865,
      "punto": 866,
      "ulti": 867,
      "nostro": 868,
      "ggiun": 869,
      "ov": 870,
      "medi": 871,
      "due": 872,
      "eren": 873,
      "chiara": 874,
      "settore": 875,
      "stri": 876,
      "gruppo": 877,
      "altro": 878,
      "tore": 879,
      "quindi": 880,
      "noi": 881,
      "atti": 882,
      "bilanci": 883,
      "resp": 884,
      "far": 885,
      "vono": 886,
      "ag": 887,
      "sioni": 888,
      "meri": 889,
      "plica": 890,
      "gnora": 891,
      "agli": 892,
      "posizione": 893,
      "altre": 894,
      "erma": 895,
      "amento": 896,
      "favore": 897,
      "nostra": 898,
      "democra": 899,
      "esa": 900,
      "problema": 901,
      "colleghi": 902,
      "stata": 903,
      "qual": 904,
      "gre": 905,
      "legi": 906,
      "corso": 907,
      "informa": 908,
      "consid": 909,
      "can": 910,
      "aspe": 911,
      "Le": 912,
      "atten": 913,
      "nazionali": 914,
      "eff": 915,
      "oggi": 916,
      "contra": 917,
      "pos": 918,
      "gono": 919,
      "svol": 920,
      "ordi": 921,
      "gani": 922,
      "servi": 923,
      "proce": 924,
      "azioni": 925,
      "cambi": 926,
      "sor": 927,
      "sull": 928,
      "vorre": 929,
      "speci": 930,
      "met": 931,
      "quale": 932,
      "possibile": 933,
      "istitu": 934,
      "fra": 935,
      "esem": 936,
      "tur": 937,
      "pon": 938,
      "caso": 939,
      "diritto": 940,
      "richi": 941,
      "direttiva": 942,
      "dato": 943,
      "bbero": 944,
      "fondamen": 945,
      "così": 946,
      "materia": 947,
      "inten": 948,
      "discussione": 949,
      "stati": 950,
      "Ci": 951,
      "ttare": 952,
      "nelle": 953,
      "riguarda": 954,
      "ener": 955,
      "europei": 956,
      "onsa": 957,
      "rispetto": 958,
      "inte": 959,
      "cco": 960,
      "volta": 961,
      "pes": 962,
      "compi": 963,
      "contribu": 964,
      "sistema": 965,
      "ben": 966,
      "liber": 967,
      "ore": 968,
      "risul": 969,
      "vorrei": 970,
      "futu": 971,
      "produ": 972,
      "os": 973,
      "ple": 974,
      "sarà": 975,
      "umani": 976,
      "olo": 977,
      "termin": 978,
      "sui": 979,
      "seri": 980,
      "parla": 981,
      "cin": 982,
      "organi": 983,
      "misure": 984,
      "bilancio": 985,
      "responsa": 986,
      "alcuni": 987,
      "acce": 988,
      "usa": 989,
      "Al": 990,
      "der": 991,
      "tata": 992,
      "allo": 993,
      "comune": 994,
      "siano": 995,
      "processo": 996,
      "sità": 997,
      "base": 998,
      "fini": 999,
      "devono": 1000,
      "esempio": 1001,
      "costitu": 1002,
      "impre": 1003,
      "onorevoli": 1004,
      "sulle": 1005,
      "poi": 1006,
      "compe": 1007,
      "applica": 1008,
      "evi": 1009,
      "siamo": 1010,
      "inizia": 1011,
      "agri": 1012,
      "quando": 1013,
      "potre": 1014,
      "para": 1015,
      "prom": 1016,
      "posta": 1017,
      "rei": 1018,
      "UE": 1019,
      "sopra": 1020,
      "unità": 1021,
      "cooper": 1022,
      "sco": 1023,
      "vero": 1024,
      "continu": 1025,
      "verso": 1026,
      "prote": 1027,
      "sociale": 1028,
      "anzi": 1029,
      "unque": 1030,
      "sempre": 1031,
      "secondo": 1032,
      "20": 1033,
      "ppi": 1034,
      "rsi": 1035,
      "problemi": 1036,
      "amente": 1037,
      "ogni": 1038,
      "interven": 1039,
      "programma": 1040,
      "gior": 1041,
      "proprio": 1042,
      "19": 1043,
      "vare": 1044,
      "cerca": 1045,
      "ttato": 1046,
      "strate": 1047,
      "mentare": 1048,
      "proge": 1049,
      "Nel": 1050,
      "nostri": 1051,
      "parti": 1052,
      "port": 1053,
      "don": 1054,
      "consegu": 1055,
      "tenere": 1056,
      "età": 1057,
      "ina": 1058,
      "anza": 1059,
      "gener": 1060,
      "quad": 1061,
      "momento": 1062,
      "spi": 1063,
      "dello": 1064,
      "consen": 1065,
      "testo": 1066,
      "comple": 1067,
      "indu": 1068,
      "affron": 1069,
      "ringra": 1070,
      "Mi": 1071,
      "cosa": 1072,
      "cooperazione": 1073,
      "signor": 1074,
      "consu": 1075,
      "io": 1076,
      "Do": 1077,
      "ur": 1078,
      "ante": 1079,
      "dif": 1080,
      "utili": 1081,
      "cento": 1082,
      "vità": 1083,
      "autori": 1084,
      "futuro": 1085,
      "mostra": 1086,
      "ssioni": 1087,
      "commer": 1088,
      "popo": 1089,
      "chie": 1090,
      "prodo": 1091,
      "sidero": 1092,
      "onale": 1093,
      "forza": 1094,
      "alizza": 1095,
      "gge": 1096,
      "quello": 1097,
      "lab": 1098,
      "queste": 1099,
      "luogo": 1100,
      "conclu": 1101,
      "legis": 1102,
      "colo": 1103,
      "necessario": 1104,
      "garantire": 1105,
      "ttutto": 1106,
      "tutte": 1107,
      "dente": 1108,
      "inoltre": 1109,
      "sca": 1110,
      "fatti": 1111,
      "persone": 1112,
      "tengo": 1113,
      "comunita": 1114,
      "opport": 1115,
      "tal": 1116,
      "soprattutto": 1117,
      "proposte": 1118,
      "limi": 1119,
      "ito": 1120,
      "quadro": 1121,
      "Stato": 1122,
      "governo": 1123,
      "Sono": 1124,
      "mero": 1125,
      "molti": 1126,
      "ata": 1127,
      "procedu": 1128,
      "interno": 1129,
      "dovre": 1130,
      "tano": 1131,
      "zie": 1132,
      "essi": 1133,
      "raggiun": 1134,
      "internazionale": 1135,
      "risoluzione": 1136,
      "dati": 1137,
      "forni": 1138,
      "ziale": 1139,
      "Ri": 1140,
      "diamo": 1141,
      "tec": 1142,
      "vin": 1143,
      "economica": 1144,
      "nego": 1145,
      "tran": 1146,
      "renza": 1147,
      "politiche": 1148,
      "valu": 1149,
      "labora": 1150,
      "ec": 1151,
      "mmo": 1152,
      "sin": 1153,
      "numero": 1154,
      "fun": 1155,
      "sal": 1156,
      "ambito": 1157,
      "dovrebbe": 1158,
      "fo": 1159,
      "lun": 1160,
      "grande": 1161,
      "ridu": 1162,
      "occupazione": 1163,
      "tiche": 1164,
      "cir": 1165,
      "struttu": 1166,
      "primo": 1167,
      "zzi": 1168,
      "soste": 1169,
      "Vor": 1170,
      "abbi": 1171,
      "sostegno": 1172,
      "emendamenti": 1173,
      "servizi": 1174,
      "concor": 1175,
      "depu": 1176,
      "mia": 1177,
      "quest": 1178,
      "denti": 1179,
      "vato": 1180,
      "De": 1181,
      "capi": 1182,
      "effetti": 1183,
      "Re": 1184,
      "ati": 1185,
      "obiettivo": 1186,
      "nome": 1187,
      "lavora": 1188,
      "essa": 1189,
      "soli": 1190,
      "sottoline": 1191,
      "mondo": 1192,
      "pubblica": 1193,
      "Vorrei": 1194,
      "ragi": 1195,
      "conf": 1196,
      "Signora": 1197,
      "rica": 1198,
      "avvi": 1199,
      "biso": 1200,
      "vista": 1201,
      "stesso": 1202,
      "afferma": 1203,
      "ffica": 1204,
      "veri": 1205,
      "signi": 1206,
      "rale": 1207,
      "lar": 1208,
      "fronti": 1209,
      "possibilità": 1210,
      "merito": 1211,
      "dai": 1212,
      "detto": 1213,
      "importanza": 1214,
      "Tra": 1215,
      "troppo": 1216,
      "traspor": 1217,
      "lei": 1218,
      "ruolo": 1219,
      "vita": 1220,
      "Ma": 1221,
      "bene": 1222,
      "ricor": 1223,
      "dimostra": 1224,
      "smo": 1225,
      "maggiore": 1226,
      "entra": 1227,
      "adegu": 1228,
      "ridi": 1229,
      "An": 1230,
      "effica": 1231,
      "conto": 1232,
      "crisi": 1233,
      "tuttavia": 1234,
      "obiettivi": 1235,
      "pres": 1236,
      "decisione": 1237,
      "imprese": 1238,
      "necessità": 1239,
      "alità": 1240,
      "possono": 1241,
      "attività": 1242,
      "erà": 1243,
      "ute": 1244,
      "presid": 1245,
      "possiamo": 1246,
      "negozia": 1247,
      "industri": 1248,
      "pertanto": 1249,
      "modi": 1250,
      "consuma": 1251,
      "Questo": 1252,
      "mettere": 1253,
      "prossi": 1254,
      "quella": 1255,
      "tono": 1256,
      "riferi": 1257,
      "off": 1258,
      "dichiara": 1259,
      "batti": 1260,
      "zzo": 1261,
      "ssia": 1262,
      "Tuttavia": 1263,
      "nuova": 1264,
      "car": 1265,
      "lli": 1266,
      "però": 1267,
      "condizioni": 1268,
      "significa": 1269,
      "ricono": 1270,
      "mu": 1271,
      "ricerca": 1272,
      "fondi": 1273,
      "nuovo": 1274,
      "ot": 1275,
      "donne": 1276,
      "dibatti": 1277,
      "ate": 1278,
      "endo": 1279,
      "giuridi": 1280,
      "giusti": 1281,
      "pari": 1282,
      "dopo": 1283,
      "ino": 1284,
      "sarebbe": 1285,
      "avere": 1286,
      "grado": 1287,
      "cità": 1288,
      "questioni": 1289,
      "responsabilità": 1290,
      "consider": 1291,
      "gio": 1292,
      "intro": 1293,
      "società": 1294,
      "defini": 1295,
      "prodotti": 1296,
      "libertà": 1297,
      "bre": 1298,
      "suc": 1299,
      "remo": 1300,
      "giun": 1301,
      "negli": 1302,
      "tici": 1303,
      "relatore": 1304,
      "scita": 1305,
      "sociali": 1306,
      "progre": 1307,
      "199": 1308,
      "tar": 1309,
      "sempli": 1310,
      "sie": 1311,
      "vano": 1312,
      "controllo": 1313,
      "raf": 1314,
      "regolamento": 1315,
      "bo": 1316,
      "dalle": 1317,
      "autorità": 1318,
      "richies": 1319,
      "moni": 1320,
      "possa": 1321,
      "alizzazione": 1322,
      "risor": 1323,
      "parteci": 1324,
      "artico": 1325,
      "grazione": 1326,
      "norme": 1327,
      "soltanto": 1328,
      "tito": 1329,
      "vogli": 1330,
      "attenzione": 1331,
      "dia": 1332,
      "vole": 1333,
      "cessi": 1334,
      "gesti": 1335,
      "pien": 1336,
      "prendere": 1337,
      "strategia": 1338,
      "Presidenza": 1339,
      "paro": 1340,
      "Come": 1341,
      "Au": 1342,
      "nostre": 1343,
      "vazione": 1344,
      "stabili": 1345,
      "mai": 1346,
      "emendamento": 1347,
      "mar": 1348,
      "pesca": 1349,
      "ester": 1350,
      "sc": 1351,
      "inv": 1352,
      "Dobbiamo": 1353,
      "lotta": 1354,
      "deputati": 1355,
      "fe": 1356,
      "dono": 1357,
      "rischi": 1358,
      "ambiente": 1359,
      "erenza": 1360,
      "nonché": 1361,
      "relazioni": 1362,
      "rali": 1363,
      "tazioni": 1364,
      "generale": 1365,
      "denza": 1366,
      "tute": 1367,
      "risorse": 1368,
      "essen": 1369,
      "pensa": 1370,
      "dibattito": 1371,
      "espre": 1372,
      "qualità": 1373,
      "pone": 1374,
      "doman": 1375,
      "competen": 1376,
      "nuovi": 1377,
      "ggior": 1378,
      "osser": 1379,
      "care": 1380,
      "causa": 1381,
      "finché": 1382,
      "mbra": 1383,
      "ordina": 1384,
      "costru": 1385,
      "estre": 1386,
      "giorno": 1387,
      "glo": 1388,
      "priori": 1389,
      "aiuti": 1390,
      "principio": 1391,
      "roga": 1392,
      "debb": 1393,
      "vece": 1394,
      "princip": 1395,
      "crimin": 1396,
      "state": 1397,
      "protezione": 1398,
      "viene": 1399,
      "investi": 1400,
      "cul": 1401,
      "fle": 1402,
      "erci": 1403,
      "sito": 1404,
      "milioni": 1405,
      "senso": 1406,
      "ll": 1407,
      "ess": 1408,
      "lea": 1409,
      "occa": 1410,
      "Vi": 1411,
      "lla": 1412,
      "attuale": 1413,
      "conten": 1414,
      "stante": 1415,
      "dio": 1416,
      "ide": 1417,
      "glob": 1418,
      "consumatori": 1419,
      "porre": 1420,
      "passa": 1421,
      "venzione": 1422,
      "rac": 1423,
      "stenza": 1424,
      "tor": 1425,
      "assicu": 1426,
      "rafforza": 1427,
      "diven": 1428,
      "equi": 1429,
      "posti": 1430,
      "ulteri": 1431,
      "lega": 1432,
      "ttamente": 1433,
      "gn": 1434,
      "cati": 1435,
      "diff": 1436,
      "riguardo": 1437,
      "parere": 1438,
      "desidero": 1439,
      "organizza": 1440,
      "mere": 1441,
      "ziare": 1442,
      "perio": 1443,
      "cazione": 1444,
      "affrontare": 1445,
      "ttura": 1446,
      "forme": 1447,
      "invece": 1448,
      "europee": 1449,
      "poiché": 1450,
      "né": 1451,
      "revole": 1452,
      "uso": 1453,
      "gano": 1454,
      "abbia": 1455,
      "mentari": 1456,
      "progetto": 1457,
      "articolo": 1458,
      "visione": 1459,
      "ddis": 1460,
      "posto": 1461,
      "sape": 1462,
      "politico": 1463,
      "terà": 1464,
      "visto": 1465,
      "nanzi": 1466,
      "motivo": 1467,
      "soddis": 1468,
      "funzion": 1469,
      "atto": 1470,
      "usci": 1471,
      "risposta": 1472,
      "logi": 1473,
      "collega": 1474,
      "ltre": 1475,
      "desti": 1476,
      "energia": 1477,
      "affinché": 1478,
      "bisogno": 1479,
      "vio": 1480,
      "ordine": 1481,
      "Ho": 1482,
      "regola": 1483,
      "fondamentali": 1484,
      "obbli": 1485,
      "potrebbe": 1486,
      "agricol": 1487,
      "fondamentale": 1488,
      "impegno": 1489,
      "alcune": 1490,
      "dice": 1491,
      "attra": 1492,
      "sosteni": 1493,
      "regioni": 1494,
      "tema": 1495,
      "ir": 1496,
      "stre": 1497,
      "Trattato": 1498,
      "presente": 1499,
      "Po": 1500,
      "anta": 1501,
      "cano": 1502,
      "credo": 1503,
      "introdu": 1504,
      "rispon": 1505,
      "espri": 1506,
      "picco": 1507,
      "ragione": 1508,
      "Un": 1509,
      "importanti": 1510,
      "nuove": 1511,
      "enze": 1512,
      "porta": 1513,
      "aspetti": 1514,
      "Di": 1515,
      "pia": 1516,
      "sano": 1517,
      "sfor": 1518,
      "asi": 1519,
      "vamente": 1520,
      "applicazione": 1521,
      "ecce": 1522,
      "opportunità": 1523,
      "stiamo": 1524,
      "Uniti": 1525,
      "suoi": 1526,
      "informazioni": 1527,
      "spa": 1528,
      "negoziati": 1529,
      "certo": 1530,
      "fiche": 1531,
      "stu": 1532,
      "ssemb": 1533,
      "ave": 1534,
      "lavoratori": 1535,
      "Abbiamo": 1536,
      "votato": 1537,
      "preve": 1538,
      "determin": 1539,
      "zionale": 1540,
      "commerci": 1541,
      "mondi": 1542,
      "legisla": 1543,
      "crescita": 1544,
      "rietà": 1545,
      "ficare": 1546,
      "politici": 1547,
      "ambien": 1548,
      "poni": 1549,
      "pena": 1550,
      "ccio": 1551,
      "democrazia": 1552,
      "procedura": 1553,
      "Ciò": 1554,
      "leg": 1555,
      "coli": 1556,
      "norma": 1557,
      "pazione": 1558,
      "termine": 1559,
      "confronti": 1560,
      "concre": 1561,
      "isce": 1562,
      "diversi": 1563,
      "settori": 1564,
      "aver": 1565,
      "mbre": 1566,
      "rismo": 1567,
      "iniziativa": 1568,
      "pace": 1569,
      "economia": 1570,
      "altà": 1571,
      "votazione": 1572,
      "saranno": 1573,
      "docu": 1574,
      "terro": 1575,
      "termini": 1576,
      "eserci": 1577,
      "suffici": 1578,
      "fico": 1579,
      "occorre": 1580,
      "promuo": 1581,
      "giudi": 1582,
      "critto": 1583,
      "rante": 1584,
      "interesse": 1585,
      "lato": 1586,
      "sieme": 1587,
      "segna": 1588,
      "dove": 1589,
      "taria": 1590,
      "sembra": 1591,
      "cli": 1592,
      "realtà": 1593,
      "orien": 1594,
      "volte": 1595,
      "risultati": 1596,
      "pure": 1597,
      "campo": 1598,
      "fru": 1599,
      "inci": 1600,
      "poter": 1601,
      "auto": 1602,
      "regione": 1603,
      "Ch": 1604,
      "periodo": 1605,
      "natur": 1606,
      "fronte": 1607,
      "occasione": 1608,
      "economico": 1609,
      "10": 1610,
      "mone": 1611,
      "dimenti": 1612,
      "argo": 1613,
      "attuazione": 1614,
      "loc": 1615,
      "sper": 1616,
      "cente": 1617,
      "Com": 1618,
      "aper": 1619,
      "priorità": 1620,
      "genza": 1621,
      "massi": 1622,
      "appo": 1623,
      "traspa": 1624,
      "diffici": 1625,
      "posizioni": 1626,
      "seguito": 1627,
      "aggiun": 1628,
      "Cre": 1629,
      "prece": 1630,
      "insieme": 1631,
      "tecno": 1632,
      "tate": 1633,
      "maggior": 1634,
      "estrema": 1635,
      "lin": 1636,
      "tando": 1637,
      "piano": 1638,
      "progressi": 1639,
      "mentre": 1640,
      "zz": 1641,
      "poten": 1642,
      "lasci": 1643,
      "solida": 1644,
      "cent": 1645,
      "accordi": 1646,
      "ranza": 1647,
      "cani": 1648,
      "lungo": 1649,
      "tutela": 1650,
      "riusci": 1651,
      "vengono": 1652,
      "accesso": 1653,
      "stessa": 1654,
      "utilizza": 1655,
      "Questa": 1656,
      "rice": 1657,
      "energe": 1658,
      "sue": 1659,
      "uta": 1660,
      "pur": 1661,
      "riforma": 1662,
      "accetta": 1663,
      "Ino": 1664,
      "Inoltre": 1665,
      "quo": 1666,
      "opini": 1667,
      "ttive": 1668,
      "sani": 1669,
      "programmi": 1670,
      "gestione": 1671,
      "setti": 1672,
      "assolu": 1673,
      "breve": 1674,
      "agi": 1675,
      "anda": 1676,
      "grandi": 1677,
      "fer": 1678,
      "adesione": 1679,
      "produzione": 1680,
      "circo": 1681,
      "propria": 1682,
      "rire": 1683,
      "rapi": 1684,
      "iamo": 1685,
      "stro": 1686,
      "risol": 1687,
      "migli": 1688,
      "ritengo": 1689,
      "terri": 1690,
      "punti": 1691,
      "mondiale": 1692,
      "conce": 1693,
      "membro": 1694,
      "unico": 1695,
      "efficace": 1696,
      "creare": 1697,
      "alogo": 1698,
      "destina": 1699,
      "concorrenza": 1700,
      "Gli": 1701,
      "scen": 1702,
      "civi": 1703,
      "sostan": 1704,
      "dan": 1705,
      "tanti": 1706,
      "chiaro": 1707,
      "aria": 1708,
      "convin": 1709,
      "Fon": 1710,
      "infatti": 1711,
      "opera": 1712,
      "gg": 1713,
      "lie": 1714,
      "san": 1715,
      "considera": 1716,
      "ministra": 1717,
      "migliorare": 1718,
      "Me": 1719,
      "adotta": 1720,
      "signora": 1721,
      "gine": 1722,
      "cal": 1723,
      "migliora": 1724,
      "aspetto": 1725,
      "concer": 1726,
      "vie": 1727,
      "attraverso": 1728,
      "conda": 1729,
      "capa": 1730,
      "volon": 1731,
      "EN": 1732,
      "industria": 1733,
      "forse": 1734,
      "dagli": 1735,
      "presidente": 1736,
      "comunitario": 1737,
      "Assemb": 1738,
      "ringraziare": 1739,
      "Assemblea": 1740,
      "ss": 1741,
      "parten": 1742,
      "effe": 1743,
      "clima": 1744,
      "quelli": 1745,
      "salute": 1746,
      "gratu": 1747,
      "assu": 1748,
      "interroga": 1749,
      "settiman": 1750,
      "ari": 1751,
      "giustizia": 1752,
      "Ver": 1753,
      "abb": 1754,
      "migliore": 1755,
      "trattato": 1756,
      "informazione": 1757,
      "tipo": 1758,
      "collabora": 1759,
      "costi": 1760,
      "ban": 1761,
      "domanda": 1762,
      "vogliamo": 1763,
      "Ru": 1764,
      "dialogo": 1765,
      "altra": 1766,
      "minis": 1767,
      "forte": 1768,
      "semplice": 1769,
      "isb": 1770,
      "eli": 1771,
      "quelle": 1772,
      "sostenere": 1773,
      "amministra": 1774,
      "vati": 1775,
      "spesso": 1776,
      "proposito": 1777,
      "gare": 1778,
      "preci": 1779,
      "voto": 1780,
      "coltà": 1781,
      "Lisb": 1782,
      "intervento": 1783,
      "Cor": 1784,
      "pie": 1785,
      "Lisbona": 1786,
      "coin": 1787,
      "disa": 1788,
      "gente": 1789,
      "invi": 1790,
      "gruppi": 1791,
      "contesto": 1792,
      "dav": 1793,
      "tutta": 1794,
      "interessi": 1795,
      "otti": 1796,
      "ness": 1797,
      "esclu": 1798,
      "passo": 1799,
      "maniera": 1800,
      "dipen": 1801,
      "cla": 1802,
      "Tur": 1803,
      "casi": 1804,
      "tenuto": 1805,
      "rappresenta": 1806,
      "Aula": 1807,
      "decisioni": 1808,
      "inf": 1809,
      "creazione": 1810,
      "super": 1811,
      "sfi": 1812,
      "atte": 1813,
      "inclu": 1814,
      "sottolineare": 1815,
      "immi": 1816,
      "approccio": 1817,
      "presentato": 1818,
      "formu": 1819,
      "truzione": 1820,
      "commercio": 1821,
      "strumento": 1822,
      "vale": 1823,
      "stabilità": 1824,
      "ultimi": 1825,
      "patto": 1826,
      "ficazione": 1827,
      "porti": 1828,
      "condivi": 1829,
      "strumenti": 1830,
      "disponi": 1831,
      "misura": 1832,
      "valutazione": 1833,
      "mano": 1834,
      "ttori": 1835,
      "cchi": 1836,
      "coordina": 1837,
      "trasporto": 1838,
      "inno": 1839,
      "seno": 1840,
      "elabora": 1841,
      "realizza": 1842,
      "riuni": 1843,
      "entro": 1844,
      "pron": 1845,
      "dar": 1846,
      "legislazione": 1847,
      "dano": 1848,
      "ei": 1849,
      "svilup": 1850,
      "tario": 1851,
      "mor": 1852,
      "popolazione": 1853,
      "comprom": 1854,
      "compa": 1855,
      "prov": 1856,
      "cara": 1857,
      "allar": 1858,
      "arri": 1859,
      "avanti": 1860,
      "onali": 1861,
      "scambi": 1862,
      "onostante": 1863,
      "dovrebbero": 1864,
      "seconda": 1865,
      "rico": 1866,
      "even": 1867,
      "coloro": 1868,
      "equilib": 1869,
      "stare": 1870,
      "Credo": 1871,
      "prospe": 1872,
      "cata": 1873,
      "avuto": 1874,
      "successo": 1875,
      "cci": 1876,
      "qualche": 1877,
      "unica": 1878,
      "molte": 1879,
      "alcun": 1880,
      "vanta": 1881,
      "congratu": 1882,
      "Pro": 1883,
      "debba": 1884,
      "maggioranza": 1885,
      "progetti": 1886,
      "capacità": 1887,
      "Li": 1888,
      "promuovere": 1889,
      "portare": 1890,
      "comunicazione": 1891,
      "richiesta": 1892,
      "dendo": 1893,
      "compren": 1894,
      "bil": 1895,
      "viamente": 1896,
      "Ritengo": 1897,
      "possano": 1898,
      "gliere": 1899,
      "assistenza": 1900,
      "Turchia": 1901,
      "meglio": 1902,
      "durante": 1903,
      "riferimento": 1904,
      "fari": 1905,
      "porto": 1906,
      "competi": 1907,
      "riconosci": 1908,
      "minare": 1909,
      "svolto": 1910,
      "formazione": 1911,
      "relativa": 1912,
      "siasi": 1913,
      "uomo": 1914,
      "acco": 1915,
      "diffi": 1916,
      "gui": 1917,
      "preso": 1918,
      "emi": 1919,
      "rischio": 1920,
      "venga": 1921,
      "interessa": 1922,
      "carat": 1923,
      "difficile": 1924,
      "parole": 1925,
      "sede": 1926,
      "aumento": 1927,
      "detta": 1928,
      "iscritto": 1929,
      "diverse": 1930,
      "trice": 1931,
      "Russia": 1932,
      "Pertanto": 1933,
      "cche": 1934,
      "sistemi": 1935,
      "rane": 1936,
      "tecni": 1937,
      "preoccupa": 1938,
      "larmente": 1939,
      "estremamente": 1940,
      "linea": 1941,
      "giuridica": 1942,
      "02": 1943,
      "principi": 1944,
      "pal": 1945,
      "lazioni": 1946,
      "messa": 1947,
      "adottare": 1948,
      "dunque": 1949,
      "bamb": 1950,
      "solle": 1951,
      "serie": 1952,
      "trovare": 1953,
      "centra": 1954,
      "istituzioni": 1955,
      "effici": 1956,
      "cendo": 1957,
      "dito": 1958,
      "pubblico": 1959,
      "rifi": 1960,
      "tiamo": 1961,
      "emer": 1962,
      "raggiungere": 1963,
      "sforzi": 1964,
      "positivo": 1965,
      "mania": 1966,
      "giov": 1967,
      "volu": 1968,
      "prof": 1969,
      "tice": 1970,
      "Anche": 1971,
      "stori": 1972,
      "rebbero": 1973,
      "gore": 1974,
      "vata": 1975,
      "indivi": 1976,
      "raccom": 1977,
      "presentata": 1978,
      "rile": 1979,
      "criteri": 1980,
      "fino": 1981,
      "risultato": 1982,
      "agen": 1983,
      "riti": 1984,
      "evitare": 1985,
      "sov": 1986,
      "messo": 1987,
      "indipen": 1988,
      "ottenere": 1989,
      "difficoltà": 1990,
      "consul": 1991,
      "erra": 1992,
      "carica": 1993,
      "dubbi": 1994,
      "Istitu": 1995,
      "giusta": 1996,
      "gamento": 1997,
      "modifica": 1998,
      "desid": 1999,
      "qualsiasi": 2000,
      "integrazione": 2001,
      "riduzione": 2002,
      "viol": 2003,
      "tuto": 2004,
      "individu": 2005,
      "mentazione": 2006,
      "riman": 2007,
      "essenziale": 2008,
      "internazionali": 2009,
      "esiste": 2010,
      "basa": 2011,
      "voli": 2012,
      "rati": 2013,
      "esprimere": 2014,
      "presa": 2015,
      "DE": 2016,
      "comunque": 2017,
      "seguire": 2018,
      "Ro": 2019,
      "conta": 2020,
      "assolutamente": 2021,
      "bilmente": 2022,
      "considerazione": 2023,
      "sensi": 2024,
      "cili": 2025,
      "cola": 2026,
      "globale": 2027,
      "mare": 2028,
      "ziali": 2029,
      "davvero": 2030,
      "Infine": 2031,
      "finanziaria": 2032,
      "pratica": 2033,
      "mesi": 2034,
      "chiaramente": 2035,
      "ggetto": 2036,
      "ana": 2037,
      "Corte": 2038,
      "conseguenze": 2039,
      "stanno": 2040,
      "solidarietà": 2041,
      "trasparenza": 2042,
      "necessaria": 2043,
      "opinione": 2044,
      "centi": 2045,
      "coinvol": 2046,
      "posso": 2047,
      "proprie": 2048,
      "Desidero": 2049,
      "sugli": 2050,
      "compromesso": 2051,
      "scel": 2052,
      "Lo": 2053,
      "BC": 2054,
      "istruzione": 2055,
      "coesi": 2056,
      "valori": 2057,
      "temi": 2058,
      "dovremmo": 2059,
      "economici": 2060,
      "benefici": 2061,
      "nuc": 2062,
      "altresì": 2063,
      "So": 2064,
      "attualmente": 2065,
      "mità": 2066,
      "vedere": 2067,
      "12": 2068,
      "ttan": 2069,
      "rifle": 2070,
      "mercati": 2071,
      "confli": 2072,
      "data": 2073,
      "ggeri": 2074,
      "innanzi": 2075,
      "scorso": 2076,
      "investimenti": 2077,
      "agricoltura": 2078,
      "iniziative": 2079,
      "vari": 2080,
      "revoli": 2081,
      "lari": 2082,
      "scri": 2083,
      "visi": 2084,
      "idea": 2085,
      "circa": 2086,
      "governi": 2087,
      "Af": 2088,
      "rci": 2089,
      "anali": 2090,
      "giovani": 2091,
      "Comunità": 2092,
      "libera": 2093,
      "venire": 2094,
      "sufficiente": 2095,
      "15": 2096,
      "dichiarazione": 2097,
      "scere": 2098,
      "rato": 2099,
      "note": 2100,
      "tecnologi": 2101,
      "fran": 2102,
      "chies": 2103,
      "paragra": 2104,
      "ie": 2105,
      "singo": 2106,
      "grazie": 2107,
      "Da": 2108,
      "ridurre": 2109,
      "veni": 2110,
      "tendo": 2111,
      "ultimo": 2112,
      "scono": 2113,
      "centrale": 2114,
      "disposizioni": 2115,
      "fidu": 2116,
      "poste": 2117,
      "comunità": 2118,
      "ultima": 2119,
      "Pa": 2120,
      "terrorismo": 2121,
      "dese": 2122,
      "vitti": 2123,
      "coraggi": 2124,
      "dovrà": 2125,
      "ing": 2126,
      "finanziamento": 2127,
      "unci": 2128,
      "nega": 2129,
      "conseguenza": 2130,
      "bambini": 2131,
      "ass": 2132,
      "associ": 2133,
      "contributo": 2134,
      "rendere": 2135,
      "recente": 2136,
      "trasporti": 2137,
      "anim": 2138,
      "len": 2139,
      "coesione": 2140,
      "avviso": 2141,
      "auspi": 2142,
      "continuare": 2143,
      "fisc": 2144,
      "rivol": 2145,
      "riser": 2146,
      "affari": 2147,
      "scopo": 2148,
      "vigore": 2149,
      "sostenibile": 2150,
      "candi": 2151,
      "acca": 2152,
      "inizio": 2153,
      "finanziario": 2154,
      "Pri": 2155,
      "comb": 2156,
      "riten": 2157,
      "genti": 2158,
      "vali": 2159,
      "tt": 2160,
      "terzi": 2161,
      "fornire": 2162,
      "erano": 2163,
      "pericolo": 2164,
      "No": 2165,
      "bito": 2166,
      "impatto": 2167,
      "fase": 2168,
      "aere": 2169,
      "vigi": 2170,
      "media": 2171,
      "soddisfa": 2172,
      "alcuna": 2173,
      "discrimin": 2174,
      "elezioni": 2175,
      "particolarmente": 2176,
      "arsi": 2177,
      "garanti": 2178,
      "zzare": 2179,
      "prezzi": 2180,
      "chiedere": 2181,
      "fiducia": 2182,
      "compito": 2183,
      "000": 2184,
      "affermato": 2185,
      "ner": 2186,
      "mec": 2187,
      "Siamo": 2188,
      "finanziari": 2189,
      "ringrazio": 2190,
      "esperi": 2191,
      "intende": 2192,
      "meccani": 2193,
      "genere": 2194,
      "fosse": 2195,
      "meto": 2196,
      "strada": 2197,
      "domani": 2198,
      "contempo": 2199,
      "zionali": 2200,
      "osserva": 2201,
      "soluzioni": 2202,
      "st": 2203,
      "prossimo": 2204,
      "cultur": 2205,
      "Convenzione": 2206,
      "fre": 2207,
      "previ": 2208,
      "Ono": 2209,
      "procedure": 2210,
      "agire": 2211,
      "Su": 2212,
      "strutture": 2213,
      "cambiamento": 2214,
      "soc": 2215,
      "poco": 2216,
      "volontà": 2217,
      "plo": 2218,
      "ambientale": 2219,
      "ampli": 2220,
      "colpi": 2221,
      "organizzazioni": 2222,
      "11": 2223,
      "documento": 2224,
      "mezzi": 2225,
      "esisten": 2226,
      "onia": 2227,
      "raccomanda": 2228,
      "vuo": 2229,
      "fissa": 2230,
      "mino": 2231,
      "principali": 2232,
      "samente": 2233,
      "ramente": 2234,
      "ricordare": 2235,
      "rata": 2236,
      "tante": 2237,
      "incoraggi": 2238,
      "2000": 2239,
      "prepara": 2240,
      "gravi": 2241,
      "utto": 2242,
      "regole": 2243,
      "cere": 2244,
      "piccole": 2245,
      "guerra": 2246,
      "Nazioni": 2247,
      "terzo": 2248,
      "sola": 2249,
      "defin": 2250,
      "relatrice": 2251,
      "strategi": 2252,
      "azi": 2253,
      "promo": 2254,
      "pover": 2255,
      "pubblici": 2256,
      "uttosto": 2257,
      "presentare": 2258,
      "armoni": 2259,
      "ses": 2260,
      "esame": 2261,
      "OM": 2262,
      "regime": 2263,
      "parlare": 2264,
      "potere": 2265,
      "quisi": 2266,
      "13": 2267,
      "cro": 2268,
      "evidente": 2269,
      "AC": 2270,
      "aiu": 2271,
      "Unite": 2272,
      "cose": 2273,
      "bri": 2274,
      "tività": 2275,
      "Una": 2276,
      "azien": 2277,
      "stica": 2278,
      "parlamentari": 2279,
      "stiche": 2280,
      "personale": 2281,
      "duta": 2282,
      "osta": 2283,
      "die": 2284,
      "chiare": 2285,
      "later": 2286,
      "sfru": 2287,
      "paragrafo": 2288,
      "ovviamente": 2289,
      "piuttosto": 2290,
      "smi": 2291,
      "disposizione": 2292,
      "appena": 2293,
      "parlamentare": 2294,
      "parola": 2295,
      "intra": 2296,
      "gua": 2297,
      "argomento": 2298,
      "boli": 2299,
      "mette": 2300,
      "oso": 2301,
      "assicurare": 2302,
      "aveva": 2303,
      "Min": 2304,
      "adozione": 2305,
      "contrario": 2306,
      "legge": 2307,
      "rafforzare": 2308,
      "regionale": 2309,
      "costituisce": 2310,
      "ssimo": 2311,
      "buon": 2312,
      "Oc": 2313,
      "collo": 2314,
      "finanziarie": 2315,
      "aiuto": 2316,
      "dimen": 2317,
      "”.": 2318,
      "Tale": 2319,
      "avrebbe": 2320,
      "ferenza": 2321,
      "grave": 2322,
      "provve": 2323,
      "partecipazione": 2324,
      "rispondere": 2325,
      "proposto": 2326,
      "buona": 2327,
      "bio": 2328,
      "pla": 2329,
      "strutturali": 2330,
      "enor": 2331,
      "quanti": 2332,
      "inseri": 2333,
      "mitato": 2334,
      "ane": 2335,
      "este": 2336,
      "prevede": 2337,
      "collaborazione": 2338,
      "relative": 2339,
      "credi": 2340,
      "comporta": 2341,
      "guro": 2342,
      "stessi": 2343,
      "integra": 2344,
      "Sch": 2345,
      "luce": 2346,
      "ger": 2347,
      "nare": 2348,
      "economiche": 2349,
      "fal": 2350,
      "soccu": 2351,
      "vittime": 2352,
      "&#": 2353,
      "disoccu": 2354,
      "necessarie": 2355,
      "x02": 2356,
      "x02BC": 2357,
      "mala": 2358,
      "revisione": 2359,
      "avanza": 2360,
      "difesa": 2361,
      "naturalmente": 2362,
      "povertà": 2363,
      "fondo": 2364,
      "amenti": 2365,
      "and": 2366,
      "mantenere": 2367,
      "qua": 2368,
      "allora": 2369,
      "riba": 2370,
      "Minis": 2371,
      "stono": 2372,
      "concentra": 2373,
      "flessi": 2374,
      "ON": 2375,
      "civile": 2376,
      "Istituzioni": 2377,
      "remmo": 2378,
      "settimana": 2379,
      "quasi": 2380,
      "mari": 2381,
      "rapida": 2382,
      "pot": 2383,
      "cate": 2384,
      "carico": 2385,
      "nulla": 2386,
      "valore": 2387,
      "cando": 2388,
      "comunitaria": 2389,
      "favorevole": 2390,
      "vengano": 2391,
      "Ne": 2392,
      "emissioni": 2393,
      "violenza": 2394,
      "mobili": 2395,
      "assun": 2396,
      "ggere": 2397,
      "passato": 2398,
      "ia": 2399,
      "sussi": 2400,
      "auguro": 2401,
      "stituzione": 2402,
      "accol": 2403,
      "dovuto": 2404,
      "desi": 2405,
      "bel": 2406,
      "torio": 2407,
      "immigrazione": 2408,
      "ripe": 2409,
      "animali": 2410,
      "sappi": 2411,
      "direzione": 2412,
      "elementi": 2413,
      "miliar": 2414,
      "deri": 2415,
      "CE": 2416,
      "commerciali": 2417,
      "risolvere": 2418,
      "pero": 2419,
      "eder": 2420,
      "servizio": 2421,
      "resto": 2422,
      "ture": 2423,
      "soff": 2424,
      "gimento": 2425,
      "conclusione": 2426,
      "appoggi": 2427,
      "pieno": 2428,
      "male": 2429,
      "Occorre": 2430,
      "deciso": 2431,
      "ossia": 2432,
      "genze": 2433,
      "Cina": 2434,
      "Fondo": 2435,
      "orienta": 2436,
      "eno": 2437,
      "landa": 2438,
      "Vo": 2439,
      "svolgere": 2440,
      "potrà": 2441,
      "condu": 2442,
      "motivi": 2443,
      "tezza": 2444,
      "oggetto": 2445,
      "opportuno": 2446,
      "costruzione": 2447,
      "normativa": 2448,
      "eccell": 2449,
      "Bar": 2450,
      "pacche": 2451,
      "almeno": 2452,
      "),": 2453,
      "parità": 2454,
      "ppure": 2455,
      "sizione": 2456,
      "popolo": 2457,
      "aro": 2458,
      "PE": 2459,
      "canza": 2460,
      "decisi": 2461,
      "coordinamento": 2462,
      "accettabile": 2463,
      "scambio": 2464,
      "alimentare": 2465,
      "stanza": 2466,
      "armi": 2467,
      "governa": 2468,
      "bbene": 2469,
      "discutere": 2470,
      "contribuire": 2471,
      "impie": 2472,
      "competenze": 2473,
      "raggiunto": 2474,
      "sino": 2475,
      "viamo": 2476,
      "pagna": 2477,
      "ccia": 2478,
      "rando": 2479,
      "potrebbero": 2480,
      "riforme": 2481,
      "introduzione": 2482,
      "zialmente": 2483,
      "terna": 2484,
      "pienamente": 2485,
      "partenaria": 2486,
      "segn": 2487,
      "ton": 2488,
      "giusto": 2489,
      "spazio": 2490,
      "consi": 2491,
      "infra": 2492,
      "Conferenza": 2493,
      "iscono": 2494,
      "analisi": 2495,
      "chiesto": 2496,
      "allargamento": 2497,
      "conoscen": 2498,
      "registra": 2499,
      "rinno": 2500,
      "nente": 2501,
      "miei": 2502,
      "zone": 2503,
      "mancanza": 2504,
      "famigli": 2505,
      "vuole": 2506,
      "adottato": 2507,
      "spie": 2508,
      "congiun": 2509,
      "quin": 2510,
      "dubbio": 2511,
      "maggiori": 2512,
      "cultura": 2513,
      "proba": 2514,
      "vicin": 2515,
      "Fran": 2516,
      "impegna": 2517,
      "definizione": 2518,
      "eventu": 2519,
      "pote": 2520,
      "attro": 2521,
      "pressione": 2522,
      "Regno": 2523,
      "effettu": 2524,
      "elemento": 2525,
      "ster": 2526,
      "cinque": 2527,
      "uman": 2528,
      "prezzo": 2529,
      "30": 2530,
      "pacchetto": 2531,
      "oppo": 2532,
      "rito": 2533,
      "consape": 2534,
      "tele": 2535,
      "landese": 2536,
      "stanzia": 2537,
      "14": 2538,
      "Oggi": 2539,
      "natura": 2540,
      "rente": 2541,
      "farlo": 2542,
      "assa": 2543,
      "ghe": 2544,
      "tempi": 2545,
      "lati": 2546,
      "preoccupazione": 2547,
      "vera": 2548,
      "minac": 2549,
      "rono": 2550,
      "sette": 2551,
      "mandato": 2552,
      "condan": 2553,
      "tradi": 2554,
      "principale": 2555,
      "reca": 2556,
      "quattro": 2557,
      "necessari": 2558,
      "miglioramento": 2559,
      "Ap": 2560,
      "origine": 2561,
      "chiedo": 2562,
      "espresso": 2563,
      "verifica": 2564,
      "be": 2565,
      "semplicemente": 2566,
      "Vertice": 2567,
      "purtroppo": 2568,
      "cazioni": 2569,
      "uffici": 2570,
      "bensì": 2571,
      "scon": 2572,
      "migliori": 2573,
      "accettare": 2574,
      "delega": 2575,
      "energetica": 2576,
      "manif": 2577,
      "ascol": 2578,
      "ovvero": 2579,
      "lettura": 2580,
      "utile": 2581,
      "prova": 2582,
      "competitività": 2583,
      "Pur": 2584,
      "Medi": 2585,
      "tanni": 2586,
      "offer": 2587,
      "affi": 2588,
      "ki": 2589,
      "concludere": 2590,
      "reali": 2591,
      "britanni": 2592,
      "perti": 2593,
      "chiede": 2594,
      "tera": 2595,
      "potuto": 2596,
      "nonostante": 2597,
      "veramente": 2598,
      "Unito": 2599,
      "50": 2600,
      "nello": 2601,
      "ddi": 2602,
      "influ": 2603,
      "produttori": 2604,
      "trova": 2605,
      "votare": 2606,
      "Nella": 2607,
      "richie": 2608,
      "intervenire": 2609,
      "rappresentanti": 2610,
      "presenti": 2611,
      "dimostrato": 2612,
      "lavorare": 2613,
      "consenso": 2614,
      "difen": 2615,
      "provo": 2616,
      "versa": 2617,
      "legitti": 2618,
      "spese": 2619,
      "logia": 2620,
      "derà": 2621,
      "impegni": 2622,
      "interrogazione": 2623,
      "verrà": 2624,
      "Noi": 2625,
      "modello": 2626,
      "sfide": 2627,
      "indis": 2628,
      "cioè": 2629,
      "abbiano": 2630,
      "scienti": 2631,
      "miliardi": 2632,
      "Ban": 2633,
      "attribu": 2634,
      "fir": 2635,
      "Pen": 2636,
      "democratico": 2637,
      "costo": 2638,
      "multi": 2639,
      "infine": 2640,
      "ambientali": 2641,
      "sappiamo": 2642,
      "concerne": 2643,
      "rete": 2644,
      "respin": 2645,
      "ulteriore": 2646,
      "cambiamenti": 2647,
      "equilibrio": 2648,
      "rispettare": 2649,
      "Repubblica": 2650,
      "seduta": 2651,
      "identi": 2652,
      "ameri": 2653,
      "agricola": 2654,
      "erenze": 2655,
      "aree": 2656,
      "disoccupazione": 2657,
      "manifes": 2658,
      "esecu": 2659,
      "eletto": 2660,
      "partenariato": 2661,
      "accu": 2662,
      "les": 2663,
      "duto": 2664,
      "Ir": 2665,
      "stico": 2666,
      "Gi": 2667,
      "aumentare": 2668,
      "ann": 2669,
      "Is": 2670,
      "part": 2671,
      "nucle": 2672,
      "ferro": 2673,
      "vantaggio": 2674,
      "trasferi": 2675,
      "ulteriori": 2676,
      "adesso": 2677,
      "relativi": 2678,
      "anch": 2679,
      "promozione": 2680,
      "incen": 2681,
      "Irlanda": 2682,
      "ex": 2683,
      "gas": 2684,
      "sapere": 2685,
      "procedere": 2686,
      "livelli": 2687,
      "aspetta": 2688,
      "voi": 2689,
      "prese": 2690,
      "candidati": 2691,
      "concili": 2692,
      "terrane": 2693,
      "ormai": 2694,
      "indispensa": 2695,
      "Agen": 2696,
      "definire": 2697,
      "apri": 2698,
      "ttivo": 2699,
      "realizzare": 2700,
      "effettivamente": 2701,
      "Na": 2702,
      "chiu": 2703,
      "discussioni": 2704,
      "dicembre": 2705,
      "locali": 2706,
      "radi": 2707,
      "manten": 2708,
      "alterna": 2709,
      "osservazioni": 2710,
      "rive": 2711,
      "sh": 2712,
      "gerà": 2713,
      "controlli": 2714,
      "Ministro": 2715,
      "Mar": 2716,
      "simi": 2717,
      "forze": 2718,
      "abi": 2719,
      "portato": 2720,
      "piani": 2721,
      "lavori": 2722,
      "competenza": 2723,
      "democratica": 2724,
      "reci": 2725,
      "ritar": 2726,
      "esistenti": 2727,
      "presenza": 2728,
      "qualcosa": 2729,
      "Car": 2730,
      "obbliga": 2731,
      "aziende": 2732,
      "bas": 2733,
      "positiva": 2734,
      "mod": 2735,
      "Lib": 2736,
      "agricoltori": 2737,
      "ler": 2738,
      "denaro": 2739,
      "assicura": 2740,
      "area": 2741,
      "attiva": 2742,
      "appoggio": 2743,
      "successi": 2744,
      "preoccupazioni": 2745,
      "lando": 2746,
      "illu": 2747,
      "scu": 2748,
      "passi": 2749,
      "trans": 2750,
      "cordo": 2751,
      "ES": 2752,
      "conser": 2753,
      "zona": 2754,
      "partner": 2755,
      "eccellente": 2756,
      "utilizzo": 2757,
      "Ger": 2758,
      "propone": 2759,
      "dra": 2760,
      "conferma": 2761,
      "circolazione": 2762,
      "annu": 2763,
      "orto": 2764,
      "istituzione": 2765,
      "interventi": 2766,
      "traf": 2767,
      "massima": 2768,
      "cosid": 2769,
      "attere": 2770,
      "sup": 2771,
      "esperienza": 2772,
      "caratteri": 2773,
      "ragioni": 2774,
      "cau": 2775,
      "Mol": 2776,
      "intera": 2777,
      "aumen": 2778,
      "eccessi": 2779,
      "mite": 2780,
      "anto": 2781,
      "moder": 2782,
      "scor": 2783,
      "esten": 2784,
      "Spero": 2785,
      "direttamente": 2786,
      "finanziamenti": 2787,
      "estera": 2788,
      "precedente": 2789,
      "frontiere": 2790,
      "Francia": 2791,
      "trattamento": 2792,
      "innovazione": 2793,
      "distribu": 2794,
      "appe": 2795,
      "territorio": 2796,
      "nucleare": 2797,
      "son": 2798,
      "introdurre": 2799,
      "..": 2800,
      "fuori": 2801,
      "ilo": 2802,
      "uomini": 2803,
      "stici": 2804,
      "efficienza": 2805,
      "alto": 2806,
      "comunitarie": 2807,
      "Gra": 2808,
      "culturale": 2809,
      "consenti": 2810,
      "asilo": 2811,
      "richieste": 2812,
      "25": 2813,
      "vanno": 2814,
      "conclusioni": 2815,
      "presidenza": 2816,
      "stabilire": 2817,
      "organizzazione": 2818,
      "tentati": 2819,
      "chiamo": 2820,
      "attuali": 2821,
      "consentire": 2822,
      "mal": 2823,
      "dita": 2824,
      "comunitari": 2825,
      "otto": 2826,
      "malatti": 2827,
      "erro": 2828,
      "segui": 2829,
      "penso": 2830,
      "reti": 2831,
      "numerosi": 2832,
      "varie": 2833,
      "parlato": 2834,
      "riunione": 2835,
      "certamente": 2836,
      "esigenze": 2837,
      "Ora": 2838,
      "previsto": 2839,
      "responsabili": 2840,
      "2007": 2841,
      "nata": 2842,
      "2001": 2843,
      "facendo": 2844,
      "prodotto": 2845,
      "nessuno": 2846,
      "salva": 2847,
      "ampio": 2848,
      "mici": 2849,
      "tecnologie": 2850,
      "Ca": 2851,
      "ampliamento": 2852,
      ").": 2853,
      "cchia": 2854,
      "spero": 2855,
      "Or": 2856,
      "approvato": 2857,
      "dichiarazioni": 2858,
      "Secondo": 2859,
      "istituzionale": 2860,
      "et": 2861,
      "verb": 2862,
      "gue": 2863,
      "palesti": 2864,
      "dovranno": 2865,
      "mezzo": 2866,
      "ritiene": 2867,
      "atteggi": 2868,
      "totale": 2869,
      "giorni": 2870,
      "valutare": 2871,
      "compiere": 2872,
      "lieto": 2873,
      "mpa": 2874,
      "tramite": 2875,
      "standar": 2876,
      "storia": 2877,
      "ricev": 2878,
      "espor": 2879,
      "mato": 2880,
      "conflitto": 2881,
      "effetto": 2882,
      "pensare": 2883,
      "paga": 2884,
      "reale": 2885,
      "iso": 2886,
      "consta": 2887,
      "responsabile": 2888,
      "mira": 2889,
      "sic": 2890,
      "avrà": 2891,
      "medie": 2892,
      "applicare": 2893,
      "SE": 2894,
      "considerare": 2895,
      "ttere": 2896,
      "singoli": 2897,
      "continua": 2898,
      "professi": 2899,
      "acqui": 2900,
      "provvedimenti": 2901,
      "sviluppare": 2902,
      "esclusi": 2903,
      "prevenzione": 2904,
      "dotto": 2905,
      "eviden": 2906,
      "quisiti": 2907,
      "giuridico": 2908,
      "scelta": 2909,
      "pato": 2910,
      "tener": 2911,
      "funzionamento": 2912,
      "glia": 2913,
      "liberalizzazione": 2914,
      "ministro": 2915,
      "congratular": 2916,
      "odi": 2917,
      "andare": 2918,
      "Ac": 2919,
      "legale": 2920,
      "dimento": 2921,
      "sanzioni": 2922,
      "vate": 2923,
      "venuto": 2924,
      "speri": 2925,
      "regolamentazione": 2926,
      "sei": 2927,
      "cercare": 2928,
      "rientra": 2929,
      "fiscale": 2930,
      "traffico": 2931,
      "approvazione": 2932,
      "libero": 2933,
      "reli": 2934,
      "faci": 2935,
      "tede": 2936,
      "Inter": 2937,
      "minaccia": 2938,
      "Costituzione": 2939,
      "senti": 2940,
      "metter": 2941,
      "rlo": 2942,
      "giugno": 2943,
      "obbligo": 2944,
      "cru": 2945,
      "specie": 2946,
      "efficacia": 2947,
      "Bru": 2948,
      "sanità": 2949,
      "recipro": 2950,
      "CO": 2951,
      "2006": 2952,
      "Banca": 2953,
      "bisogna": 2954,
      "nove": 2955,
      "intero": 2956,
      "stin": 2957,
      "Africa": 2958,
      "presto": 2959,
      "imma": 2960,
      "salvaguar": 2961,
      "interpre": 2962,
      "asc": 2963,
      "decidere": 2964,
      "simile": 2965,
      "dedi": 2966,
      "certa": 2967,
      "atta": 2968,
      "2004": 2969,
      "mbi": 2970,
      "comitato": 2971,
      "prossimi": 2972,
      "profi": 2973,
      "menzion": 2974,
      "attuare": 2975,
      "verbale": 2976,
      "prospettive": 2977,
      "enorme": 2978,
      "”,": 2979,
      "discriminazione": 2980,
      "morte": 2981,
      "fanno": 2982,
      "usi": 2983,
      "sicuramente": 2984,
      "gin": 2985,
      "xel": 2986,
      "requisiti": 2987,
      "Bruxel": 2988,
      "territori": 2989,
      "Bruxelles": 2990,
      "For": 2991,
      "commerciale": 2992,
      "coeren": 2993,
      "specifica": 2994,
      "rne": 2995,
      "titolo": 2996,
      "odier": 2997,
      "perfe": 2998,
      "apertura": 2999,
      "debbano": 3000,
      "atteggiamento": 3001,
      "Primo": 3002,
      "oli": 3003,
      "navi": 3004,
      "atore": 3005,
      "congratularmi": 3006,
      "elen": 3007,
      "frontali": 3008,
      "sottolineato": 3009,
      "offrire": 3010,
      "prospettiva": 3011,
      "affermare": 3012,
      "Penso": 3013,
      "sovra": 3014,
      "stanze": 3015,
      "Germania": 3016,
      "sostanze": 3017,
      "1999": 3018,
      "dimensione": 3019,
      "rispetta": 3020,
      "adeguata": 3021,
      "contenuto": 3022,
      "esistono": 3023,
      "esamin": 3024,
      "precisa": 3025,
      "chiusa": 3026,
      "rapporti": 3027,
      "riconoscimento": 3028,
      "conoscenza": 3029,
      "Isra": 3030,
      "rifiuti": 3031,
      "documenti": 3032,
      "dì": 3033,
      "OMC": 3034,
      "perman": 3035,
      "combattere": 3036,
      "chiari": 3037,
      "Israele": 3038,
      "ugu": 3039,
      "ck": 3040,
      "resta": 3041,
      "suggeri": 3042,
      "diversità": 3043,
      "2002": 3044,
      "complessi": 3045,
      "devo": 3046,
      "chiarezza": 3047,
      "divi": 3048,
      "univer": 3049,
      "carattere": 3050,
      "Du": 3051,
      "standard": 3052,
      "alimentari": 3053,
      "occi": 3054,
      "riguard": 3055,
      "altrettan": 3056,
      "passe": 3057,
      "certi": 3058,
      "rilev": 3059,
      "stria": 3060,
      "prossima": 3061,
      "aggiungere": 3062,
      "ministri": 3063,
      "democratici": 3064,
      "sero": 3065,
      "indispensabile": 3066,
      "Fin": 3067,
      "giudizia": 3068,
      "ciasc": 3069,
      "condizione": 3070,
      "compiuti": 3071,
      "spesa": 3072,
      "messaggio": 3073,
      "dieci": 3074,
      "naio": 3075,
      "ferma": 3076,
      "specifiche": 3077,
      "partito": 3078,
      "finora": 3079,
      "concetto": 3080,
      "riteniamo": 3081,
      "ambizio": 3082,
      "regionali": 3083,
      "rappresentano": 3084,
      "scar": 3085,
      "flu": 3086,
      "noti": 3087,
      "permettere": 3088,
      "danni": 3089,
      "avvia": 3090,
      "nità": 3091,
      "Quando": 3092,
      "giustamente": 3093,
      "spirito": 3094,
      "uncia": 3095,
      "svolgerà": 3096,
      "2009": 3097,
      "vendo": 3098,
      "18": 3099,
      "portata": 3100,
      "lmente": 3101,
      "dici": 3102,
      "unani": 3103,
      "incre": 3104,
      "dam": 3105,
      "alo": 3106,
      "relativo": 3107,
      "MI": 3108,
      "Gre": 3109,
      "mbe": 3110,
      "feno": 3111,
      "positivi": 3112,
      "metodo": 3113,
      "specifico": 3114,
      "modalità": 3115,
      "cca": 3116,
      "Sare": 3117,
      "climatico": 3118,
      "voce": 3119,
      "ieri": 3120,
      "pubbliche": 3121,
      "ampia": 3122,
      "sullo": 3123,
      "autono": 3124,
      "presso": 3125,
      "pongono": 3126,
      "domande": 3127,
      "missione": 3128,
      "aiutare": 3129,
      "17": 3130,
      "testi": 3131,
      "roso": 3132,
      "inquin": 3133,
      "glie": 3134,
      "lunga": 3135,
      "orientale": 3136,
      "polizia": 3137,
      "Koso": 3138,
      "Purtroppo": 3139,
      "maritti": 3140,
      "talmente": 3141,
      "Kosovo": 3142,
      "capito": 3143,
      "dovere": 3144,
      "cese": 3145,
      "gennaio": 3146,
      "appli": 3147,
      "2003": 3148,
      "cip": 3149,
      "terrori": 3150,
      "osservazione": 3151,
      "ada": 3152,
      "elimin": 3153,
      "studi": 3154,
      "appre": 3155,
      "avviare": 3156,
      "edono": 3157,
      "complesso": 3158,
      "orientamenti": 3159,
      "ttri": 3160,
      "dettagli": 3161,
      "falli": 3162,
      "II": 3163,
      "buro": 3164,
      "sogge": 3165,
      "sfrutta": 3166,
      "mediante": 3167,
      "gendo": 3168,
      "eranno": 3169,
      "burocra": 3170,
      "venzioni": 3171,
      "ricevuto": 3172,
      "messi": 3173,
      "giustifica": 3174,
      "utilizzare": 3175,
      "tenuti": 3176,
      "grati": 3177,
      "zzato": 3178,
      "Grazie": 3179,
      "proveni": 3180,
      "camente": 3181,
      "poteri": 3182,
      "militare": 3183,
      "struttura": 3184,
      "rinnova": 3185,
      "turismo": 3186,
      "occup": 3187,
      "voglio": 3188,
      "divie": 3189,
      "Perché": 3190,
      "riconoscere": 3191,
      "armonizzazione": 3192,
      "danno": 3193,
      "partire": 3194,
      "rmi": 3195,
      "limiti": 3196,
      "spetta": 3197,
      "appello": 3198,
      "intenzione": 3199,
      "adeguato": 3200,
      "ttivi": 3201,
      "ber": 3202,
      "roni": 3203,
      "dirittura": 3204,
      "AT": 3205,
      "eria": 3206,
      "ratifica": 3207,
      "riente": 3208,
      "Ha": 3209,
      "2008": 3210,
      "acqua": 3211,
      "imento": 3212,
      "vogliono": 3213,
      "merci": 3214,
      "2005": 3215,
      "amministrazione": 3216,
      "flessibilità": 3217,
      "finale": 3218,
      "Ni": 3219,
      "esercizio": 3220,
      "gazione": 3221,
      "cini": 3222,
      "llare": 3223,
      "popoli": 3224,
      "sfida": 3225,
      "Dopo": 3226,
      "spagno": 3227,
      "quei": 3228,
      "costante": 3229,
      "desideri": 3230,
      "lle": 3231,
      "francese": 3232,
      "specifici": 3233,
      "2010": 3234,
      "tarie": 3235,
      "presi": 3236,
      "rapporto": 3237,
      "influenza": 3238,
      "etiche": 3239,
      "disponibili": 3240,
      "restri": 3241,
      "quote": 3242,
      "richiede": 3243,
      "dità": 3244,
      "guida": 3245,
      "nuovamente": 3246,
      "rò": 3247,
      "Io": 3248,
      "vantaggi": 3249,
      "peggio": 3250,
      "civili": 3251,
      "transfrontali": 3252,
      "approfondi": 3253,
      "rafforzamento": 3254,
      "probabilmente": 3255,
      "sud": 3256,
      "rappresentante": 3257,
      "occiden": 3258,
      "addirittura": 3259,
      "espressione": 3260,
      "subito": 3261,
      "riamo": 3262,
      "rigo": 3263,
      "16": 3264,
      "direttive": 3265,
      "sura": 3266,
      "monetaria": 3267,
      "adottata": 3268,
      "diventare": 3269,
      "Ira": 3270,
      "partiti": 3271,
      "tranno": 3272,
      "vei": 3273,
      "partecipare": 3274,
      "realizzazione": 3275,
      "inaccettabile": 3276,
      "altrettanto": 3277,
      "infrastrutture": 3278,
      "sostitu": 3279,
      "ormente": 3280,
      "rapidamente": 3281,
      "mese": 3282,
      "meccanismo": 3283,
      "ttà": 3284,
      "monito": 3285,
      "Onorevoli": 3286,
      "bur": 3287,
      "minu": 3288,
      "piena": 3289,
      "potranno": 3290,
      "indipendente": 3291,
      "sé": 3292,
      "ferrovia": 3293,
      "modifiche": 3294,
      "ulteriormente": 3295,
      "percento": 3296,
      "net": 3297,
      "aia": 3298,
      "delegazione": 3299,
      "cepi": 3300,
      "Nor": 3301,
      "gro": 3302,
      "Ecco": 3303,
      "Chie": 3304,
      "Iraq": 3305,
      "cura": 3306,
      "imposta": 3307,
      "gioco": 3308,
      "persona": 3309,
      "FR": 3310,
      "tten": 3311,
      "massimo": 3312,
      "settimane": 3313,
      "impegn": 3314,
      "acque": 3315,
      "troviamo": 3316,
      "relatori": 3317,
      "urgente": 3318,
      "discip": 3319,
      "Sa": 3320,
      "coraggio": 3321,
      "Grecia": 3322,
      "marzo": 3323,
      "alta": 3324,
      "spen": 3325,
      "globalizzazione": 3326,
      "plici": 3327,
      "metta": 3328,
      "esaminare": 3329,
      "Am": 3330,
      "fro": 3331,
      "città": 3332,
      "studio": 3333,
      "lino": 3334,
      "conn": 3335,
      "stesse": 3336,
      "itali": 3337,
      "sviluppi": 3338,
      "conver": 3339,
      "sera": 3340,
      "gne": 3341,
      "Fondi": 3342,
      "rom": 3343,
      "fonti": 3344,
      "pratiche": 3345,
      "conces": 3346,
      "chiave": 3347,
      "inda": 3348,
      "augu": 3349,
      "conciliazione": 3350,
      "catego": 3351,
      "propor": 3352,
      "progresso": 3353,
      "situazioni": 3354,
      "centro": 3355,
      "sforzo": 3356,
      "cole": 3357,
      "tecnologia": 3358,
      "possibili": 3359,
      "schi": 3360,
      "mie": 3361,
      "Onorevole": 3362,
      "adottate": 3363,
      "finalmente": 3364,
      "cominci": 3365,
      "interni": 3366,
      "completamente": 3367,
      "Dov": 3368,
      "ricordato": 3369,
      "correre": 3370,
      "aboli": 3371,
      "capitale": 3372,
      "leggi": 3373,
      "superi": 3374,
      "sessu": 3375,
      "ndo": 3376,
      "rurale": 3377,
      "gliamo": 3378,
      "giungere": 3379,
      "laterali": 3380,
      "condanna": 3381,
      "distin": 3382,
      "minori": 3383,
      "concreti": 3384,
      "militari": 3385,
      "troli": 3386,
      "notevole": 3387,
      "operatori": 3388,
      "voluzione": 3389,
      "gato": 3390,
      "toll": 3391,
      "sarebbero": 3392,
      "talia": 3393,
      "divieto": 3394,
      "toria": 3395,
      "Agenzia": 3396,
      "settembre": 3397,
      "petroli": 3398,
      "legislativo": 3399,
      "cruci": 3400,
      "pazi": 3401,
      "proteggere": 3402,
      "critica": 3403,
      "ONU": 3404,
      "rispar": 3405,
      "bun": 3406,
      "piamo": 3407,
      "precedenti": 3408,
      "riusciti": 3409,
      "PPE": 3410,
      "opposizione": 3411,
      "ries": 3412,
      "poveri": 3413,
      "presentati": 3414,
      "muo": 3415,
      "tamento": 3416,
      "terraneo": 3417,
      "canto": 3418,
      "Carta": 3419,
      "medio": 3420,
      "Italia": 3421,
      "meccanismi": 3422,
      "alizzare": 3423,
      "deli": 3424,
      "vamo": 3425,
      "veste": 3426,
      "lon": 3427,
      "age": 3428,
      "profonda": 3429,
      "craina": 3430,
      "esercitare": 3431,
      "Questi": 3432,
      "Chi": 3433,
      "ka": 3434,
      "profu": 3435,
      "irre": 3436,
      "persino": 3437,
      "coerente": 3438,
      "bar": 3439,
      "ader": 3440,
      "plausi": 3441,
      "sente": 3442,
      "pressioni": 3443,
      "raccomandazioni": 3444,
      "nn": 3445,
      "interessati": 3446,
      "ritor": 3447,
      "invito": 3448,
      "let": 3449,
      "capire": 3450,
      "popolare": 3451,
      "simili": 3452,
      "figu": 3453,
      "anze": 3454,
      "pochi": 3455,
      "interess": 3456,
      "passeggeri": 3457,
      "incontro": 3458,
      "ita": 3459,
      "dog": 3460,
      "mati": 3461,
      "oppure": 3462,
      "done": 3463,
      "consumo": 3464,
      "costituiscono": 3465,
      "richia": 3466,
      "presenta": 3467,
      "inde": 3468,
      "confor": 3469,
      "nio": 3470,
      "rifu": 3471,
      "Tutti": 3472,
      "40": 3473,
      "garanzia": 3474,
      "merica": 3475,
      "ranze": 3476,
      "criminalità": 3477,
      "generali": 3478,
      "gini": 3479,
      "pati": 3480,
      "tentativo": 3481,
      "potremo": 3482,
      "Cer": 3483,
      "Spagna": 3484,
      "potenziale": 3485,
      "abu": 3486,
      "tocollo": 3487,
      "deputato": 3488,
      "Romania": 3489,
      "lingua": 3490,
      "pensi": 3491,
      "scente": 3492,
      "dando": 3493,
      "onamento": 3494,
      "risulta": 3495,
      "Libro": 3496,
      "Poi": 3497,
      "intergoverna": 3498,
      "sufficienti": 3499,
      "metodi": 3500,
      "esperti": 3501,
      "motiva": 3502,
      "minimo": 3503,
      "conflitti": 3504,
      "arci": 3505,
      "feren": 3506,
      "dum": 3507,
      "umana": 3508,
      "aderi": 3509,
      "nomin": 3510,
      "Sarebbe": 3511,
      "ania": 3512,
      "sostenuto": 3513,
      "compiuto": 3514,
      "efficaci": 3515,
      "stiene": 3516,
      "dichiarato": 3517,
      "elaborare": 3518,
      "assegna": 3519,
      "leader": 3520,
      "cologi": 3521,
      "riferisco": 3522,
      "nali": 3523,
      "Ucraina": 3524,
      "Nell": 3525,
      "esito": 3526,
      "visti": 3527,
      "numerose": 3528,
      "violazioni": 3529,
      "novembre": 3530,
      "migliaia": 3531,
      "dimostrare": 3532,
      "America": 3533,
      "aereo": 3534,
      "ricorso": 3535,
      "obblighi": 3536,
      "funzione": 3537,
      "catastro": 3538,
      "ologi": 3539,
      "sba": 3540,
      "convinto": 3541,
      "assai": 3542,
      "dev": 3543,
      "favorire": 3544,
      "Alc": 3545,
      "adeguate": 3546,
      "sostiene": 3547,
      "segnale": 3548,
      "consapevole": 3549,
      "he": 3550,
      "plu": 3551,
      "27": 3552,
      "Internet": 3553,
      "maggiormente": 3554,
      "tratti": 3555,
      "mpo": 3556,
      "cristi": 3557,
      "veicoli": 3558,
      "Tali": 3559,
      "esteri": 3560,
      "clauso": 3561,
      "minoranze": 3562,
      "discusso": 3563,
      "incoraggiare": 3564,
      "tradu": 3565,
      "affatto": 3566,
      "rima": 3567,
      "raccol": 3568,
      "Lu": 3569,
      "gina": 3570,
      "capitali": 3571,
      "eliminare": 3572,
      "Rego": 3573,
      "facci": 3574,
      "beni": 3575,
      "moneta": 3576,
      "ticamente": 3577,
      "assumere": 3578,
      "vertice": 3579,
      "nesi": 3580,
      "Alla": 3581,
      "locale": 3582,
      "anco": 3583,
      "elevato": 3584,
      "linee": 3585,
      "certezza": 3586,
      "basi": 3587,
      "vinco": 3588,
      "pere": 3589,
      "tasso": 3590,
      "rien": 3591,
      "Gu": 3592,
      "sebbene": 3593,
      "formula": 3594,
      "ottobre": 3595,
      "commissa": 3596,
      "concrete": 3597,
      "edi": 3598,
      "diminu": 3599,
      "sussidia": 3600,
      "segre": 3601,
      "indica": 3602,
      "Partito": 3603,
      "compagni": 3604,
      "indipendenza": 3605,
      "esser": 3606,
      "Regolamento": 3607,
      "Innanzi": 3608,
      "parlamenti": 3609,
      "riguardano": 3610,
      "teranno": 3611,
      "immedi": 3612,
      "definitiva": 3613,
      "dovremo": 3614,
      "implica": 3615,
      "contiene": 3616,
      "separa": 3617,
      "van": 3618,
      "imporre": 3619,
      "nenti": 3620,
      "interrogazioni": 3621,
      "scritto": 3622,
      "loru": 3623,
      "geo": 3624,
      "facile": 3625,
      "intensi": 3626,
      "conferenza": 3627,
      "approv": 3628,
      "Ber": 3629,
      "cch": 3630,
      "tuale": 3631,
      "idee": 3632,
      "crea": 3633,
      "sve": 3634,
      "privati": 3635,
      "verranno": 3636,
      "mica": 3637,
      "ttatura": 3638,
      "energetico": 3639,
      "rido": 3640,
      "agenzie": 3641,
      "trovano": 3642,
      "costruire": 3643,
      "riserve": 3644,
      "patri": 3645,
      "offre": 3646,
      "industriale": 3647,
      "esor": 3648,
      "esecuzione": 3649,
      "Ad": 3650,
      "consultazione": 3651,
      "person": 3652,
      "mmeno": 3653,
      "mono": 3654,
      "2020": 3655,
      "donna": 3656,
      "Che": 3657,
      "tassa": 3658,
      "dover": 3659,
      "rendo": 3660,
      "sicuro": 3661,
      "est": 3662,
      "consumatore": 3663,
      "giudizio": 3664,
      "destinati": 3665,
      "fenomeno": 3666,
      "speciale": 3667,
      "istituire": 3668,
      "piacere": 3669,
      "efficiente": 3670,
      "PMI": 3671,
      "illustra": 3672,
      "elett": 3673,
      "Lei": 3674,
      "constatare": 3675,
      "abba": 3676,
      "circostanze": 3677,
      "tù": 3678,
      "peraltro": 3679,
      "penale": 3680,
      "ottenuto": 3681,
      "elettroni": 3682,
      "ostacoli": 3683,
      "ingra": 3684,
      "trasforma": 3685,
      "opinioni": 3686,
      "funzionari": 3687,
      "metri": 3688,
      "abbastanza": 3689,
      "vostra": 3690,
      "assenza": 3691,
      "terra": 3692,
      "gene": 3693,
      "preferi": 3694,
      "sussidiarietà": 3695,
      "SA": 3696,
      "tuna": 3697,
      "PL": 3698,
      "red": 3699,
      "spin": 3700,
      "raccomandazione": 3701,
      "iti": 3702,
      "confini": 3703,
      "elenco": 3704,
      "stampa": 3705,
      "insi": 3706,
      "arre": 3707,
      "lenaria": 3708,
      "perciò": 3709,
      "modificare": 3710,
      "massa": 3711,
      "bia": 3712,
      "stanziamenti": 3713,
      "impedire": 3714,
      "consiste": 3715,
      "Paesi": 3716,
      "costre": 3717,
      "nessun": 3718,
      "accogliere": 3719,
      "pan": 3720,
      "violazione": 3721,
      "passare": 3722,
      "sterdam": 3723,
      "Amsterdam": 3724,
      "urgenza": 3725,
      "verde": 3726,
      "crescente": 3727,
      "Oriente": 3728,
      "incontra": 3729,
      "conseguire": 3730,
      "corrispon": 3731,
      "pila": 3732,
      "esterne": 3733,
      "ruzione": 3734,
      "digni": 3735,
      "compor": 3736,
      "desidera": 3737,
      "esau": 3738,
      "irlandese": 3739,
      "diretto": 3740,
      "associazione": 3741,
      "prevista": 3742,
      "laterale": 3743,
      "affida": 3744,
      "malattie": 3745,
      "subi": 3746,
      "faccia": 3747,
      "unciato": 3748,
      "ance": 3749,
      "rilasci": 3750,
      "conferi": 3751,
      "naturali": 3752,
      "innanzitutto": 3753,
      "parare": 3754,
      "pensioni": 3755,
      "Schen": 3756,
      "condotta": 3757,
      "Applausi": 3758,
      "professionale": 3759,
      "Schengen": 3760,
      "IV": 3761,
      "dersi": 3762,
      "annuale": 3763,
      "vincolan": 3764,
      "contenuti": 3765,
      "là": 3766,
      "primi": 3767,
      "leari": 3768,
      "nemmeno": 3769,
      "facili": 3770,
      "Pol": 3771,
      "aero": 3772,
      "Porto": 3773,
      "approvare": 3774,
      "debito": 3775,
      "mobilità": 3776,
      "AL": 3777,
      "fos": 3778,
      "teniamo": 3779,
      "rla": 3780,
      "neppure": 3781,
      "pira": 3782,
      "carne": 3783,
      "entrata": 3784,
      "vul": 3785,
      "Medio": 3786,
      "esigenza": 3787,
      "elettri": 3788,
      "ribadire": 3789,
      "piccoli": 3790,
      "messe": 3791,
      "bloc": 3792,
      "dale": 3793,
      "gallo": 3794,
      "significativo": 3795,
      "aperto": 3796,
      "Bu": 3797,
      "nucleari": 3798,
      "famiglie": 3799,
      "mali": 3800,
      "dine": 3801,
      "occhi": 3802,
      "lui": 3803,
      "determinazione": 3804,
      "esistenza": 3805,
      "prendi": 3806,
      "diplo": 3807,
      "terre": 3808,
      "consente": 3809,
      "entrare": 3810,
      "carb": 3811,
      "garanzie": 3812,
      "essenziali": 3813,
      "sf": 3814,
      "risposte": 3815,
      "dimenticare": 3816,
      "cittadino": 3817,
      "scuo": 3818,
      "ssima": 3819,
      "continente": 3820,
      "epi": 3821,
      "egli": 3822,
      "differenze": 3823,
      "trarre": 3824,
      "futura": 3825,
      "Nord": 3826,
      "tesi": 3827,
      "cuore": 3828,
      "movi": 3829,
      "benessere": 3830,
      "tutelare": 3831,
      "speranza": 3832,
      "vivere": 3833,
      "entrambe": 3834,
      "renti": 3835,
      "transa": 3836,
      "sentito": 3837,
      "impiego": 3838,
      "Sap": 3839,
      "prassi": 3840,
      "Dal": 3841,
      "disporre": 3842,
      "Quanto": 3843,
      "fonte": 3844,
      "venti": 3845,
      "chiediamo": 3846,
      "banca": 3847,
      "compli": 3848,
      "Ser": 3849,
      "genera": 3850,
      "soddisfazione": 3851,
      "ringrazia": 3852,
      "rigoro": 3853,
      "Allo": 3854,
      "disponibilità": 3855,
      "famiglia": 3856,
      "sale": 3857,
      "lettera": 3858,
      "alcuno": 3859,
      "Mediterraneo": 3860,
      "paci": 3861,
      "alcani": 3862,
      "Organi": 3863,
      "rle": 3864,
      "forti": 3865,
      "scorsa": 3866,
      "arti": 3867,
      "Prima": 3868,
      "prende": 3869,
      "Quindi": 3870,
      "proporre": 3871,
      "corretto": 3872,
      "difendere": 3873,
      "critiche": 3874,
      "interna": 3875,
      "distribuzione": 3876,
      "tiene": 3877,
      "chiarire": 3878,
      "agenda": 3879,
      "IL": 3880,
      "mpi": 3881,
      "comprendere": 3882,
      "operazioni": 3883,
      "cruciale": 3884,
      "elaborazione": 3885,
      "inquinamento": 3886,
      "banche": 3887,
      "impresa": 3888,
      "reddito": 3889,
      "famili": 3890,
      "mediatamente": 3891,
      "permanente": 3892,
      "stimo": 3893,
      "detti": 3894,
      "matti": 3895,
      "rende": 3896,
      "fore": 3897,
      "rvi": 3898,
      "immediatamente": 3899,
      "basso": 3900,
      "legislativa": 3901,
      "approvvigi": 3902,
      "metà": 3903,
      "costituzionale": 3904,
      "lingue": 3905,
      "sbagli": 3906,
      "prio": 3907,
      "Iran": 3908,
      "Queste": 3909,
      "terò": 3910,
      "compati": 3911,
      "vicini": 3912,
      "fiscali": 3913,
      "favorevoli": 3914,
      "diversa": 3915,
      "eventi": 3916,
      "Portogallo": 3917,
      "recenti": 3918,
      "occupar": 3919,
      "farma": 3920,
      "tlan": 3921,
      "comunicazioni": 3922,
      "economie": 3923,
      "esattamente": 3924,
      "privi": 3925,
      "ripresa": 3926,
      "nota": 3927,
      "poca": 3928,
      "ttati": 3929,
      "stito": 3930,
      "ragionevole": 3931,
      "ssero": 3932,
      "diverso": 3933,
      "appropri": 3934,
      "dina": 3935,
      "insta": 3936,
      "impu": 3937,
      "odierna": 3938,
      "presentate": 3939,
      "confron": 3940,
      "gresso": 3941,
      "turalmente": 3942,
      "luglio": 3943,
      "costituzione": 3944,
      "Sappiamo": 3945,
      "esseri": 3946,
      "nia": 3947,
      "Naturalmente": 3948,
      "Tutto": 3949,
      "ira": 3950,
      "tidi": 3951,
      "espressa": 3952,
      "previsti": 3953,
      "presta": 3954,
      "voluto": 3955,
      "usione": 3956,
      "rimane": 3957,
      "considerato": 3958,
      "tab": 3959,
      "evidenzia": 3960,
      "ffa": 3961,
      "Forse": 3962,
      "discarico": 3963,
      "inferi": 3964,
      "rinnovabili": 3965,
      "Organizzazione": 3966,
      "innova": 3967,
      "volto": 3968,
      "contraddi": 3969,
      "regolamenti": 3970,
      "gie": 3971,
      "limite": 3972,
      "mico": 3973,
      "deriv": 3974,
      "fossero": 3975,
      "proprietà": 3976,
      "impi": 3977,
      "cause": 3978,
      "distru": 3979,
      "costituire": 3980,
      "religio": 3981,
      "ambiti": 3982,
      "quotidi": 3983,
      "vivono": 3984,
      "fattori": 3985,
      "relativamente": 3986,
      "ACP": 3987,
      "sentire": 3988,
      "asse": 3989,
      "Polonia": 3990,
      "timo": 3991,
      "finanziare": 3992,
      "iniziare": 3993,
      "giornali": 3994,
      "imprendi": 3995,
      "automobili": 3996,
      "provenienti": 3997,
      "commissario": 3998,
      "campagna": 3999,
      "intergovernativa": 4000,
      "auspica": 4001,
      "congratulo": 4002,
      "eremo": 4003,
      "bor": 4004,
      "coerenza": 4005,
      "Mon": 4006,
      "preparazione": 4007,
      "centrali": 4008,
      "scienza": 4009,
      "unanimità": 4010,
      "reso": 4011,
      "plenaria": 4012,
      "condurre": 4013,
      "ancor": 4014,
      "ispe": 4015,
      "aggiunto": 4016,
      "superare": 4017,
      "80": 4018,
      "nera": 4019,
      "cambiare": 4020,
      "trattati": 4021,
      "ricevere": 4022,
      "Infatti": 4023,
      "anziché": 4024,
      "interessate": 4025,
      "sfruttamento": 4026,
      "avremo": 4027,
      "organismi": 4028,
      "straordina": 4029,
      "aglianza": 4030,
      "accompa": 4031,
      "versione": 4032,
      "afri": 4033,
      "prevedere": 4034,
      "basata": 4035,
      "Bul": 4036,
      "qualifica": 4037,
      "dura": 4038,
      "entrambi": 4039,
      "ppe": 4040,
      "zze": 4041,
      "terrà": 4042,
      "pagamenti": 4043,
      "vicino": 4044,
      "citare": 4045,
      "Poiché": 4046,
      "errore": 4047,
      "tecniche": 4048,
      "prime": 4049,
      "diploma": 4050,
      "Barroso": 4051,
      "resid": 4052,
      "accen": 4053,
      "raggio": 4054,
      "consentito": 4055,
      "assunto": 4056,
      "irà": 4057,
      "riper": 4058,
      "cepresidente": 4059,
      "qualora": 4060,
      "tipi": 4061,
      "ura": 4062,
      "quantità": 4063,
      "arma": 4064,
      "deplo": 4065,
      "nato": 4066,
      "Alcuni": 4067,
      "lanza": 4068,
      "abban": 4069,
      "Cipro": 4070,
      "credibilità": 4071,
      "Sve": 4072,
      "ecologi": 4073,
      "tarsi": 4074,
      "elettorale": 4075,
      "agricolo": 4076,
      "ara": 4077,
      "Ringra": 4078,
      "incidenti": 4079,
      "impossibile": 4080,
      "isca": 4081,
      "nese": 4082,
      "ampi": 4083,
      "prigi": 4084,
      "evoluzione": 4085,
      "realmente": 4086,
      "ringrazi": 4087,
      "alizzato": 4088,
      "rimanere": 4089,
      "burgo": 4090,
      "popolazioni": 4091,
      "vecchi": 4092,
      "».": 4093,
      "giati": 4094,
      "esclusivamente": 4095,
      "Ov": 4096,
      "approvata": 4097,
      "presu": 4098,
      "radic": 4099,
      "zzando": 4100,
      "serio": 4101,
      "isra": 4102,
      "dali": 4103,
      "aprile": 4104,
      "fattore": 4105,
      "Svezia": 4106,
      "eso": 4107,
      "consenta": 4108,
      "prescin": 4109,
      "ralle": 4110,
      "uscita": 4111,
      "dipende": 4112,
      "tenendo": 4113,
      "individuare": 4114,
      "denze": 4115,
      "conside": 4116,
      "mattina": 4117,
      "qualunque": 4118,
      "conforme": 4119,
      "teremo": 4120,
      "superiore": 4121,
      "ripercu": 4122,
      "cito": 4123,
      "chino": 4124,
      "Sar": 4125,
      "insiste": 4126,
      "1998": 4127,
      "previste": 4128,
      "future": 4129,
      "compiti": 4130,
      "permet": 4131,
      "stia": 4132,
      "differenza": 4133,
      "ottimo": 4134,
      "Bulga": 4135,
      "volti": 4136,
      "dite": 4137,
      "commissioni": 4138,
      "cercando": 4139,
      "verificare": 4140,
      "Bulgaria": 4141,
      "sottolinea": 4142,
      "senz": 4143,
      "Balcani": 4144,
      "avvicin": 4145,
      "antici": 4146,
      "puto": 4147,
      "ritardo": 4148,
      "unciare": 4149,
      "resi": 4150,
      "tagli": 4151,
      "continui": 4152,
      "impressione": 4153,
      "firma": 4154,
      "palestinese": 4155,
      "NAT": 4156,
      "sop": 4157,
      "riconosciuto": 4158,
      "soggetti": 4159,
      "buone": 4160,
      "60": 4161,
      "proposti": 4162,
      "apparten": 4163,
      "uten": 4164,
      "verità": 4165,
      "campi": 4166,
      "contribuito": 4167,
      "secolo": 4168,
      "atamente": 4169,
      "congiunta": 4170,
      "bunale": 4171,
      "dri": 4172,
      "concreto": 4173,
      "Qual": 4174,
      "parlamento": 4175,
      "noto": 4176,
      "senten": 4177,
      "NATO": 4178,
      "quota": 4179,
      "unicamente": 4180,
      "statu": 4181,
      "insegna": 4182,
      "agevo": 4183,
      "dero": 4184,
      "presentazione": 4185,
      "vigilanza": 4186,
      "stat": 4187,
      "permesso": 4188,
      "cana": 4189,
      "naturale": 4190,
      "immigrati": 4191,
      "perfettamente": 4192,
      "Ge": 4193,
      "limitare": 4194,
      "velo": 4195,
      "Ga": 4196,
      "colgo": 4197,
      "Ringrazio": 4198,
      "formulare": 4199,
      "richiesto": 4200,
      "avete": 4201,
      "permette": 4202,
      "adoper": 4203,
      "pol": 4204,
      "govern": 4205,
      "vor": 4206,
      "considerando": 4207,
      "Es": 4208,
      "compar": 4209,
      "ario": 4210,
      "ottima": 4211,
      "ghere": 4212,
      "sando": 4213,
      "recepi": 4214,
      "avrebbero": 4215,
      "culturali": 4216,
      "ovvio": 4217,
      "offerta": 4218,
      "essendo": 4219,
      "Pi": 4220,
      "sinda": 4221,
      "proseguire": 4222,
      "Commissari": 4223,
      "differen": 4224,
      "oratori": 4225,
      "dimensioni": 4226,
      "socialista": 4227,
      "pongo": 4228,
      "canti": 4229,
      "soddisfare": 4230,
      "riguardanti": 4231,
      "controllare": 4232,
      "rivela": 4233,
      "altrimenti": 4234,
      "operare": 4235,
      "comportamento": 4236,
      "talvolta": 4237,
      "prevenire": 4238,
      "figura": 4239,
      "incon": 4240,
      "sapete": 4241,
      "riflettere": 4242,
      "mantenimento": 4243,
      "israeli": 4244,
      "veda": 4245,
      "corretta": 4246,
      "sensibili": 4247,
      "Bie": 4248,
      "coinvolgimento": 4249,
      "acci": 4250,
      "visita": 4251,
      "illegale": 4252,
      "temporane": 4253,
      "dinanzi": 4254,
      "prescindere": 4255,
      "aggior": 4256,
      "avranno": 4257,
      "poniamo": 4258,
      "cercato": 4259,
      "avi": 4260,
      "consapevoli": 4261,
      "ammi": 4262,
      "turi": 4263,
      "interessante": 4264,
      "100": 4265,
      "Bieloru": 4266,
      "Ovviamente": 4267,
      "etni": 4268,
      "completa": 4269,
      "approvvigionamento": 4270,
      "ut": 4271,
      "agricoli": 4272,
      "umano": 4273,
      "percen": 4274,
      "parlando": 4275,
      "medicin": 4276,
      "enormi": 4277,
      "comprensi": 4278,
      "referen": 4279,
      "indicato": 4280,
      "concernente": 4281,
      "Cro": 4282,
      "larga": 4283,
      "alimenti": 4284,
      "conformità": 4285,
      "21": 4286,
      "23": 4287,
      "processi": 4288,
      "Bielorussia": 4289,
      "igno": 4290,
      "Comitato": 4291,
      "Stras": 4292,
      "versi": 4293,
      "legali": 4294,
      "sessione": 4295,
      "epoca": 4296,
      "considerazioni": 4297,
      "condivido": 4298,
      "compagnie": 4299,
      "Ben": 4300,
      "ranti": 4301,
      "accade": 4302,
      "Nonostante": 4303,
      "votazioni": 4304,
      "Strasburgo": 4305,
      "zu": 4306,
      "retribu": 4307,
      "Devo": 4308,
      "vegli": 4309,
      "elevati": 4310,
      "produrre": 4311,
      "nessuna": 4312,
      "ssembur": 4313,
      "taluni": 4314,
      "scala": 4315,
      "corruzione": 4316,
      "PAC": 4317,
      "esplici": 4318,
      "Posso": 4319,
      "verà": 4320,
      "lievo": 4321,
      "razzi": 4322,
      "compreso": 4323,
      "cari": 4324,
      "centri": 4325,
      "normative": 4326,
      "appal": 4327,
      "feder": 4328,
      "apprezza": 4329,
      "trasparente": 4330,
      "orale": 4331,
      "fornito": 4332,
      "piace": 4333,
      "codecisione": 4334,
      "Riteniamo": 4335,
      "farà": 4336,
      "ristru": 4337,
      "cel": 4338,
      "mersi": 4339,
      "trasferimento": 4340,
      "scano": 4341,
      "petrolio": 4342,
      "Solo": 4343,
      "protocollo": 4344,
      "dipendenti": 4345,
      "Demo": 4346,
      "liamo": 4347,
      "sostanza": 4348,
      "rdo": 4349,
      "concedere": 4350,
      "appoggiare": 4351,
      "RO": 4352,
      "quar": 4353,
      "EL": 4354,
      "Sul": 4355,
      "intendo": 4356,
      "monio": 4357,
      "importo": 4358,
      "affer": 4359,
      "notevoli": 4360,
      "Te": 4361,
      "date": 4362,
      "ultime": 4363,
      "carbu": 4364,
      "lasciare": 4365,
      "decisionale": 4366,
      "toller": 4367,
      "Bel": 4368,
      "peti": 4369,
      "geni": 4370,
      "occor": 4371,
      "indubbi": 4372,
      "ko": 4373,
      "PT": 4374,
      "legati": 4375,
      "competente": 4376,
      "specialmente": 4377,
      "pescatori": 4378,
      "Democra": 4379,
      "pagare": 4380,
      "clan": 4381,
      "stabilito": 4382,
      "rifugiati": 4383,
      "soprav": 4384,
      "...": 4385,
      "Patto": 4386,
      "argomenti": 4387,
      "pagamento": 4388,
      "accompagna": 4389,
      "citato": 4390,
      "sovvenzioni": 4391,
      "vostro": 4392,
      "preoccup": 4393,
      "nazioni": 4394,
      "ghese": 4395,
      "tabacco": 4396,
      "chieder": 4397,
      "risoluzioni": 4398,
      "supple": 4399,
      "Uffici": 4400,
      "utilizzati": 4401,
      "statuto": 4402,
      "sanitaria": 4403,
      "svanta": 4404,
      "imprenditori": 4405,
      "febb": 4406,
      "volmente": 4407,
      "personalmente": 4408,
      "render": 4409,
      "Ti": 4410,
      "meni": 4411,
      "attivo": 4412,
      "tarci": 4413,
      "we": 4414,
      "britannico": 4415,
      "definito": 4416,
      "lina": 4417,
      "intraprendere": 4418,
      "Stiamo": 4419,
      "ng": 4420,
      "cherà": 4421,
      "1997": 4422,
      "analo": 4423,
      "eventuali": 4424,
      "gradu": 4425,
      "palestinesi": 4426,
      "24": 4427,
      "geogra": 4428,
      "codice": 4429,
      "ttiamo": 4430,
      "esportazioni": 4431,
      "Mediatore": 4432,
      "usare": 4433,
      "decen": 4434,
      "privato": 4435,
      "classi": 4436,
      "organizzata": 4437,
      "molta": 4438,
      "clausola": 4439,
      "venis": 4440,
      "continuano": 4441,
      "affrontato": 4442,
      "tecnica": 4443,
      "dramma": 4444,
      "ricostruzione": 4445,
      "esterno": 4446,
      "accolto": 4447,
      "disastro": 4448,
      "alternative": 4449,
      "americani": 4450,
      "Va": 4451,
      "emergenza": 4452,
      "transizione": 4453,
      "seguenti": 4454,
      "miche": 4455,
      "vino": 4456,
      "giunto": 4457,
      "difficili": 4458,
      "stretta": 4459,
      "puli": 4460,
      "profughi": 4461,
      "bianco": 4462,
      "funzioni": 4463,
      "uguaglianza": 4464,
      "corsi": 4465,
      "gri": 4466,
      "2013": 4467,
      "97": 4468,
      "permetta": 4469,
      "landia": 4470,
      "partecip": 4471,
      "rifiu": 4472,
      "alleva": 4473,
      "saremo": 4474,
      "benché": 4475,
      "riflessione": 4476,
      "status": 4477,
      "dico": 4478,
      "ucci": 4479,
      "monitoraggio": 4480,
      "dignità": 4481,
      "invia": 4482,
      "ttuale": 4483,
      "intendiamo": 4484,
      "contributi": 4485,
      "riserva": 4486,
      "svolta": 4487,
      "soddisfacente": 4488,
      "basta": 4489,
      "merita": 4490,
      "Oltre": 4491,
      "98": 4492,
      "Chiedo": 4493,
      "nale": 4494,
      "fallimento": 4495,
      "etichettatura": 4496,
      "principalmente": 4497,
      "coltiva": 4498,
      "ponendo": 4499,
      "vra": 4500,
      "talità": 4501,
      "recentemente": 4502,
      "sport": 4503,
      "acquisi": 4504,
      "ciascuno": 4505,
      "vedasi": 4506,
      "importazioni": 4507,
      "ghani": 4508,
      "varia": 4509,
      "avviato": 4510,
      "formale": 4511,
      "periferi": 4512,
      "unione": 4513,
      "democratiche": 4514,
      "Bassi": 4515,
      "appare": 4516,
      "peso": 4517,
      "continuerà": 4518,
      "kistan": 4519,
      "derivanti": 4520,
      "prire": 4521,
      "accessi": 4522,
      "appieno": 4523,
      "adeguamento": 4524,
      "Biso": 4525,
      "durata": 4526,
      "scan": 4527,
      "identità": 4528,
      "lieta": 4529,
      "ombra": 4530,
      "toc": 4531,
      "fortuna": 4532,
      "entre": 4533,
      "meridi": 4534,
      "ristruttura": 4535,
      "landesi": 4536,
      "edu": 4537,
      "sorta": 4538,
      "significato": 4539,
      "esterna": 4540,
      "consolida": 4541,
      "investimento": 4542,
      "rurali": 4543,
      "attesa": 4544,
      "Ufficio": 4545,
      "credito": 4546,
      "tardi": 4547,
      "compensa": 4548,
      "lova": 4549,
      "RE": 4550,
      "seguente": 4551,
      "seriamente": 4552,
      "acceler": 4553,
      "zzata": 4554,
      "ersi": 4555,
      "Accolgo": 4556,
      "accre": 4557,
      "India": 4558,
      "ONG": 4559,
      "competenti": 4560,
      "Bo": 4561,
      "sfruttare": 4562,
      "alizzati": 4563,
      "licen": 4564,
      "esistente": 4565,
      "lad": 4566,
      "raio": 4567,
      "potremmo": 4568,
      "Vogliamo": 4569,
      "esclusione": 4570,
      "recu": 4571,
      "gestire": 4572,
      "pera": 4573,
      "strategie": 4574,
      "referendum": 4575,
      "febbraio": 4576,
      "NL": 4577,
      "pilastro": 4578,
      "lancio": 4579,
      "negoziato": 4580,
      "22": 4581,
      "solamente": 4582,
      "vulnera": 4583,
      "adatta": 4584,
      "somma": 4585,
      "imposte": 4586,
      "Trattati": 4587,
      "personali": 4588,
      "perdere": 4589,
      "salvaguardia": 4590,
      "convenzione": 4591,
      "chied": 4592,
      "richiamare": 4593,
      "operato": 4594,
      "diffusione": 4595,
      "pazienti": 4596,
      "ramma": 4597,
      "diretta": 4598,
      "agricole": 4599,
      "rli": 4600,
      "rea": 4601,
      "taglio": 4602,
      "giuridici": 4603,
      "orientamento": 4604,
      "sanitari": 4605,
      "svedese": 4606,
      "beneficio": 4607,
      "governance": 4608,
      "Alto": 4609,
      "ottimi": 4610,
      "errori": 4611,
      "terza": 4612,
      "mando": 4613,
      "dà": 4614,
      "yo": 4615,
      "dipendenza": 4616,
      "accento": 4617,
      "discorso": 4618,
      "richied": 4619,
      "sla": 4620,
      "Austria": 4621,
      "viaggi": 4622,
      "convergenza": 4623,
      "includere": 4624,
      "coinvolti": 4625,
      "sofferma": 4626,
      "perdita": 4627,
      "facciamo": 4628,
      "aspettative": 4629,
      "Quel": 4630,
      "erò": 4631,
      "umane": 4632,
      "pola": 4633,
      "dispone": 4634,
      "logica": 4635,
      "1996": 4636,
      "vir": 4637,
      "guardo": 4638,
      "climatici": 4639,
      "cominciare": 4640,
      "auten": 4641,
      "avviene": 4642,
      "avremmo": 4643,
      "tudine": 4644,
      "ssiamo": 4645,
      "Molti": 4646,
      "miglioramenti": 4647,
      "unghere": 4648,
      "trattare": 4649,
      "tino": 4650,
      "dimeno": 4651,
      "aperta": 4652,
      "raggiungimento": 4653,
      "condizion": 4654,
      "segue": 4655,
      "eliminazione": 4656,
      "lano": 4657,
      "busti": 4658,
      "arrivare": 4659,
      "disciplina": 4660,
      "secu": 4661,
      "Geor": 4662,
      "collaborare": 4663,
      "sovranità": 4664,
      "investire": 4665,
      "concreta": 4666,
      "ts": 4667,
      "figli": 4668,
      "gati": 4669,
      "avevano": 4670,
      "occidentale": 4671,
      "frequ": 4672,
      "energetiche": 4673,
      "sostenibilità": 4674,
      "dro": 4675,
      "sospen": 4676,
      "preven": 4677,
      "debi": 4678,
      "semplificazione": 4679,
      "profes": 4680,
      "consoli": 4681,
      "Afghani": 4682,
      "desiderio": 4683,
      "Afghanistan": 4684,
      "cogliere": 4685,
      "occasioni": 4686,
      "omo": 4687,
      "interne": 4688,
      "EC": 4689,
      "vada": 4690,
      "esempi": 4691,
      "comprende": 4692,
      "capo": 4693,
      "valida": 4694,
      "ugo": 4695,
      "tecnico": 4696,
      "tasse": 4697,
      "rigi": 4698,
      "clo": 4699,
      "90": 4700,
      "casa": 4701,
      "sub": 4702,
      "umanitari": 4703,
      "industriali": 4704,
      "notare": 4705,
      "fissare": 4706,
      "sorvegli": 4707,
      "cine": 4708,
      "radio": 4709,
      "regimi": 4710,
      "necessi": 4711,
      "contribuenti": 4712,
      "concessione": 4713,
      "conosci": 4714,
      "prestare": 4715,
      "rappresentato": 4716,
      "futuri": 4717,
      "USA": 4718,
      "laddove": 4719,
      "strategico": 4720,
      "strade": 4721,
      "enda": 4722,
      "succe": 4723,
      "contare": 4724,
      "Essa": 4725,
      "bole": 4726,
      "Possiamo": 4727,
      "ripri": 4728,
      "Concordo": 4729,
      "abbandon": 4730,
      "Senza": 4731,
      "accaduto": 4732,
      "eco": 4733,
      "tendenza": 4734,
      "alternativa": 4735,
      "ab": 4736,
      "debole": 4737,
      "eriamo": 4738,
      "appone": 4739,
      "terebbe": 4740,
      "Van": 4741,
      "effettuare": 4742,
      "CI": 4743,
      "spor": 4744,
      "istituzionali": 4745,
      "presidenti": 4746,
      "Dichiara": 4747,
      "sini": 4748,
      "dt": 4749,
      "isola": 4750,
      "qualcuno": 4751,
      "renze": 4752,
      "Dovremmo": 4753,
      "particolari": 4754,
      "sedi": 4755,
      "combusti": 4756,
      "contatto": 4757,
      "doppi": 4758,
      "IN": 4759,
      "creato": 4760,
      "attori": 4761,
      "determinati": 4762,
      "inclusione": 4763,
      "adeguatamente": 4764,
      "70": 4765,
      "intelli": 4766,
      "bal": 4767,
      "prove": 4768,
      "contrastare": 4769,
      "materie": 4770,
      "impianti": 4771,
      "voti": 4772,
      "riamente": 4773,
      "percentuale": 4774,
      "legislative": 4775,
      "monetari": 4776,
      "riusciremo": 4777,
      "controver": 4778,
      "adeguati": 4779,
      "sate": 4780,
      "Prodi": 4781,
      "amici": 4782,
      "oratore": 4783,
      "Uno": 4784,
      "fatta": 4785,
      "mbo": 4786,
      "dimostrano": 4787,
      "contenute": 4788,
      "diretti": 4789,
      "totalmente": 4790,
      "bilaterali": 4791,
      "statistiche": 4792,
      "OL": 4793,
      "avvio": 4794,
      "aprire": 4795,
      "ssimi": 4796,
      "conservazione": 4797,
      "dallo": 4798,
      "formulazione": 4799,
      "intesa": 4800,
      "limitato": 4801,
      "iniziale": 4802,
      "distor": 4803,
      "ash": 4804,
      "negativo": 4805,
      "tanza": 4806,
      "seria": 4807,
      "Bisogna": 4808,
      "zzati": 4809,
      "restrizioni": 4810,
      "patrimonio": 4811,
      "descri": 4812,
      "rappresentare": 4813,
      "espresse": 4814,
      "tassi": 4815,
      "rilievo": 4816,
      "costruttivo": 4817,
      "sollevato": 4818,
      "indipendenti": 4819,
      "96": 4820,
      "provvi": 4821,
      "ampiamente": 4822,
      "avven": 4823,
      "energie": 4824,
      "Ness": 4825,
      "pru": 4826,
      "torie": 4827,
      "ghen": 4828,
      "entità": 4829,
      "sche": 4830,
      "Condivi": 4831,
      "A5": 4832,
      "Attu": 4833,
      "vitale": 4834,
      "scegliere": 4835,
      "prezio": 4836,
      "periodi": 4837,
      "Ter": 4838,
      "pubblicità": 4839,
      "arlo": 4840,
      "tivamente": 4841,
      "estero": 4842,
      "vicen": 4843,
      "stanti": 4844,
      "sessuale": 4845,
      "speciali": 4846,
      "confu": 4847,
      "lavorato": 4848,
      "impostazione": 4849,
      "vil": 4850,
      "penaghen": 4851,
      "interpretazione": 4852,
      "viare": 4853,
      "vasta": 4854,
      "Copenaghen": 4855,
      "onati": 4856,
      "zzano": 4857,
      "precedenza": 4858,
      "rapido": 4859,
      "ugosla": 4860,
      "ripristi": 4861,
      "dibattiti": 4862,
      "utilizzato": 4863,
      "ripercussioni": 4864,
      "racco": 4865,
      "Tri": 4866,
      "oneri": 4867,
      "tuttora": 4868,
      "niente": 4869,
      "fil": 4870,
      "quell": 4871,
      "eventuale": 4872,
      "ssu": 4873,
      "Alle": 4874,
      "intenzioni": 4875,
      "fia": 4876,
      "strani": 4877,
      "contratti": 4878,
      "effettiva": 4879,
      "carboni": 4880,
      "partecipato": 4881,
      "esportazione": 4882,
      "arla": 4883,
      "mozione": 4884,
      "raffor": 4885,
      "territoriale": 4886,
      "sufficientemente": 4887,
      "serve": 4888,
      "inserire": 4889,
      "cambio": 4890,
      "Ba": 4891,
      "attivamente": 4892,
      "introdo": 4893,
      "abolizione": 4894,
      "azia": 4895,
      "All": 4896,
      "discutendo": 4897,
      "lista": 4898,
      "gione": 4899,
      "nutri": 4900,
      "equo": 4901,
      "Croazia": 4902,
      "tenuta": 4903,
      "th": 4904,
      "valido": 4905,
      "corpo": 4906,
      "perseguire": 4907,
      "naia": 4908,
      "lanciare": 4909,
      "Asia": 4910,
      "ttando": 4911,
      "tecnici": 4912,
      "verifi": 4913,
      "accusa": 4914,
      "presti": 4915,
      "determinato": 4916,
      "malattia": 4917,
      "presuppo": 4918,
      "comprensione": 4919,
      "accettato": 4920,
      "scientifica": 4921,
      "riuscire": 4922,
      "elettori": 4923,
      "accogli": 4924,
      "calenda": 4925,
      "voler": 4926,
      "fermamente": 4927,
      "insistere": 4928,
      "esen": 4929,
      "Cion": 4930,
      "incremento": 4931,
      "austria": 4932,
      "Fra": 4933,
      "Gran": 4934,
      "transito": 4935,
      "fasi": 4936,
      "giuridiche": 4937,
      "consentirà": 4938,
      "AF": 4939,
      "compon": 4940,
      "bov": 4941,
      "ritardi": 4942,
      "ricorrere": 4943,
      "trovato": 4944,
      "spiegare": 4945,
      "Bal": 4946,
      "aerei": 4947,
      "autore": 4948,
      "Mo": 4949,
      "ascoltato": 4950,
      "burocrazia": 4951,
      "cifre": 4952,
      "reddi": 4953,
      "vac": 4954,
      "frodi": 4955,
      "reda": 4956,
      "controlla": 4957,
      "iscri": 4958,
      "Attualmente": 4959,
      "dizione": 4960,
      "dovesse": 4961,
      "autorizzazione": 4962,
      "origina": 4963,
      "esperienze": 4964,
      "tenga": 4965,
      "inevita": 4966,
      "contrari": 4967,
      "prigioni": 4968,
      "mante": 4969,
      "sot": 4970,
      "stano": 4971,
      "medesi": 4972,
      "approva": 4973,
      "avvenuto": 4974,
      "setten": 4975,
      "calo": 4976,
      "CO2": 4977,
      "medicinali": 4978,
      "simb": 4979,
      "emb": 4980,
      "categoria": 4981,
      "dicendo": 4982,
      "ricche": 4983,
      "perso": 4984,
      "lac": 4985,
      "giamo": 4986,
      "basato": 4987,
      "tempes": 4988,
      "carta": 4989,
      "riunioni": 4990,
      "occidentali": 4991,
      "abusi": 4992,
      "volo": 4993,
      "inferiore": 4994,
      "tuali": 4995,
      "ricordo": 4996,
      "missioni": 4997,
      "case": 4998,
      "alquanto": 4999,
      "trage": 5000,
      "sfera": 5001,
      "riguardante": 5002,
      "anziani": 5003,
      "concluso": 5004,
      "ves": 5005,
      "abitanti": 5006,
      "indeboli": 5007,
      "indubbiamente": 5008,
      "Potre": 5009,
      "centinaia": 5010,
      "Democratici": 5011,
      "rici": 5012,
      "ttempo": 5013,
      "minima": 5014,
      "davanti": 5015,
      "San": 5016,
      "digi": 5017,
      "destinato": 5018,
      "interistituzionale": 5019,
      "reati": 5020,
      "frattempo": 5021,
      "sch": 5022,
      "sesso": 5023,
      "vecchia": 5024,
      "crimini": 5025,
      "Sebbene": 5026,
      "equilibrata": 5027,
      "stere": 5028,
      "generi": 5029,
      "alizzata": 5030,
      "Vicepresidente": 5031,
      "impegnati": 5032,
      "tture": 5033,
      "risparmi": 5034,
      "droga": 5035,
      "meridionale": 5036,
      "Mc": 5037,
      "riuscita": 5038,
      "Europe": 5039,
      "IVA": 5040,
      "disposti": 5041,
      "contatti": 5042,
      "Cu": 5043,
      "Georgia": 5044,
      "uniten": 5045,
      "26": 5046,
      "intelle": 5047,
      "brevemente": 5048,
      "frode": 5049,
      "bru": 5050,
      "permetter": 5051,
      "concordo": 5052,
      "statuniten": 5053,
      "test": 5054,
      "estensione": 5055,
      "fortemente": 5056,
      "sole": 5057,
      "legate": 5058,
      "inchies": 5059,
      "articoli": 5060,
      "cesi": 5061,
      "capitolo": 5062,
      "liberali": 5063,
      "considerata": 5064,
      "Negli": 5065,
      "settentri": 5066,
      "conge": 5067,
      "conqui": 5068,
      "ceca": 5069,
      "guardare": 5070,
      "svolge": 5071,
      "Serbia": 5072,
      "accio": 5073,
      "PIL": 5074,
      "tterà": 5075,
      "elaborato": 5076,
      "Proprio": 5077,
      "accolgo": 5078,
      "tradizione": 5079,
      "Bre": 5080,
      "fisi": 5081,
      "aggra": 5082,
      "Ar": 5083,
      "riveste": 5084,
      "condotto": 5085,
      "venza": 5086,
      "osnia": 5087,
      "riconosce": 5088,
      "disabili": 5089,
      "barri": 5090,
      "puni": 5091,
      "reazione": 5092,
      "monopoli": 5093,
      "poche": 5094,
      "dimo": 5095,
      "impedis": 5096,
      "guada": 5097,
      "rivedere": 5098,
      "stabilisce": 5099,
      "Pu": 5100,
      "isla": 5101,
      "sensa": 5102,
      "estendere": 5103,
      "impegnarsi": 5104,
      "dute": 5105,
      "Voglio": 5106,
      "profondamente": 5107,
      "Sta": 5108,
      "calendario": 5109,
      "deten": 5110,
      "distruzione": 5111,
      "OC": 5112,
      "essero": 5113,
      "tedesco": 5114,
      "disposto": 5115,
      "moderni": 5116,
      "utenti": 5117,
      "gimi": 5118,
      "persegui": 5119,
      "organizzare": 5120,
      "03": 5121,
      "determinate": 5122,
      "avvenire": 5123,
      "strutturale": 5124,
      "movimento": 5125,
      "prossime": 5126,
      "tagna": 5127,
      "alti": 5128,
      "mentazioni": 5129,
      "dolla": 5130,
      "essenzialmente": 5131,
      "dini": 5132,
      "arco": 5133,
      "eme": 5134,
      "198": 5135,
      "fede": 5136,
      "erre": 5137,
      "vedì": 5138,
      "sottoscri": 5139,
      "evidentemente": 5140,
      "compresi": 5141,
      "generazione": 5142,
      "Relazione": 5143,
      "yoto": 5144,
      "demogra": 5145,
      "rilevare": 5146,
      "nord": 5147,
      "ponga": 5148,
      "cristiani": 5149,
      "Lussembur": 5150,
      "scuole": 5151,
      "preli": 5152,
      "impone": 5153,
      "IS": 5154,
      "decisamente": 5155,
      "prosperi": 5156,
      "Lussemburgo": 5157,
      "indiri": 5158,
      "tragi": 5159,
      "etro": 5160,
      "manca": 5161,
      "convinzione": 5162,
      "500": 5163,
      "Ogni": 5164,
      "incidente": 5165,
      "chiusura": 5166,
      "nanza": 5167,
      "dette": 5168,
      "attiene": 5169,
      "ficato": 5170,
      "feli": 5171,
      "edifici": 5172,
      "ges": 5173,
      "sostanziale": 5174,
      "raccolta": 5175,
      "imba": 5176,
      "apportare": 5177,
      "mettendo": 5178,
      "caratteristiche": 5179,
      "orario": 5180,
      "passaggio": 5181,
      "materiale": 5182,
      "rivolgere": 5183,
      "destra": 5184,
      "tessi": 5185,
      "Quest": 5186,
      "danne": 5187,
      "dietro": 5188,
      "compresa": 5189,
      "estra": 5190,
      "commenti": 5191,
      "rifiuto": 5192,
      "sanno": 5193,
      "tonnella": 5194,
      "vendita": 5195,
      "disponiamo": 5196,
      "petizioni": 5197,
      "svantaggi": 5198,
      "ipote": 5199,
      "portoghese": 5200,
      "sostanzialmente": 5201,
      "ignora": 5202,
      "francesi": 5203,
      "vincolante": 5204,
      "-,": 5205,
      "Av": 5206,
      "invita": 5207,
      "voca": 5208,
      "fornisce": 5209,
      "dica": 5210,
      "ottica": 5211,
      "affermazione": 5212,
      "industrie": 5213,
      "quarto": 5214,
      "restare": 5215,
      "scelte": 5216,
      "turco": 5217,
      "susci": 5218,
      "quilib": 5219,
      "strin": 5220,
      "sorveglianza": 5221,
      "eccezione": 5222,
      "minoranza": 5223,
      "certe": 5224,
      "assoluta": 5225,
      "tedesca": 5226,
      "COM": 5227,
      "conte": 5228,
      "contem": 5229,
      "sele": 5230,
      "1995": 5231,
      "privilegi": 5232,
      "chè": 5233,
      "Conclu": 5234,
      "Fi": 5235,
      "spre": 5236,
      "Nei": 5237,
      "coper": 5238,
      "gata": 5239,
      "colloqui": 5240,
      "disco": 5241,
      "sicuri": 5242,
      "colpito": 5243,
      "pito": 5244,
      "periferiche": 5245,
      "cht": 5246,
      "marchi": 5247,
      "disponibile": 5248,
      "dona": 5249,
      "29": 5250,
      "Kyoto": 5251,
      "tossi": 5252,
      "tornare": 5253,
      "Cana": 5254,
      "operazione": 5255,
      "criminali": 5256,
      "universale": 5257,
      "materiali": 5258,
      "vario": 5259,
      "costituito": 5260,
      "conserva": 5261,
      "prosperità": 5262,
      "28": 5263,
      "piccolo": 5264,
      "onore": 5265,
      "aeree": 5266,
      "PSE": 5267,
      "tena": 5268,
      "attacchi": 5269,
      "latte": 5270,
      "ammettere": 5271,
      "necessariamente": 5272,
      "Finlandia": 5273,
      "proporzion": 5274,
      "costantemente": 5275,
      "sinistra": 5276,
      "ipo": 5277,
      "concernenti": 5278,
      "appren": 5279,
      "marca": 5280,
      "menzionato": 5281,
      "conoscere": 5282,
      "ingresso": 5283,
      "parliamo": 5284,
      "memo": 5285,
      "som": 5286,
      "rafforz": 5287,
      "integrare": 5288,
      "Nizza": 5289,
      "interrom": 5290,
      "valutazioni": 5291,
      "deva": 5292,
      "giovedì": 5293,
      "razzismo": 5294,
      "lottare": 5295,
      "tornata": 5296,
      "us": 5297,
      "attentamente": 5298,
      "sembrano": 5299,
      "volontaria": 5300,
      "salari": 5301,
      "coltura": 5302,
      "cosiddetto": 5303,
      "vicinato": 5304,
      "correttamente": 5305,
      "Ten": 5306,
      "biologi": 5307,
      "equilibrato": 5308,
      "aderire": 5309,
      "»,": 5310,
      "trovo": 5311,
      "informare": 5312,
      "pronti": 5313,
      "Sosten": 5314,
      "concesso": 5315,
      "deline": 5316,
      "facoltà": 5317,
      "brevi": 5318,
      "cosiddetta": 5319,
      "familiare": 5320,
      "cell": 5321,
      "coinvolgere": 5322,
      "ite": 5323,
      "chiedono": 5324,
      "Est": 5325,
      "eccetera": 5326,
      "Corea": 5327,
      "avver": 5328,
      "scelto": 5329,
      "transatlan": 5330,
      "ufficiale": 5331,
      "Alleanza": 5332,
      "Ce": 5333,
      "positivamente": 5334,
      "ambizioso": 5335,
      "AI": 5336,
      "deranno": 5337,
      "consultazioni": 5338,
      "auguriamo": 5339,
      "ritorno": 5340,
      "31": 5341,
      "cittadinanza": 5342,
      "moderna": 5343,
      "cidi": 5344,
      "pareri": 5345,
      "adempi": 5346,
      "riuscito": 5347,
      "DA": 5348,
      "organo": 5349,
      "partenza": 5350,
      "flessibile": 5351,
      "ong": 5352,
      "strettamente": 5353,
      "tene": 5354,
      "valere": 5355,
      "minimi": 5356,
      "margine": 5357,
      "2011": 5358,
      "lingui": 5359,
      "indietro": 5360,
      "defici": 5361,
      "applicato": 5362,
      "onde": 5363,
      "olandese": 5364,
      "Invi": 5365,
      "inviare": 5366,
      "morale": 5367,
      "minacce": 5368,
      "precisare": 5369,
      "Bosnia": 5370,
      "ferroviario": 5371,
      "occuparsi": 5372,
      "um": 5373,
      "obie": 5374,
      "trici": 5375,
      "associazioni": 5376,
      "preme": 5377,
      "scetti": 5378,
      "introdotto": 5379,
      "tun": 5380,
      "specu": 5381,
      "pronta": 5382,
      "rilevanza": 5383,
      "coscienza": 5384,
      "sposta": 5385,
      "inizi": 5386,
      "accelerare": 5387,
      "EU": 5388,
      "giuris": 5389,
      "curare": 5390,
      "interro": 5391,
      "rilevante": 5392,
      "ristrutturazione": 5393,
      "scadenza": 5394,
      "amministrative": 5395,
      "completo": 5396,
      "annunciato": 5397,
      "colpiti": 5398,
      "rischia": 5399,
      "disparità": 5400,
      "rappresentanza": 5401,
      "vicenda": 5402,
      "ascoltare": 5403,
      "stabile": 5404,
      "limitata": 5405,
      "carenze": 5406,
      "accettabili": 5407,
      "provvedimento": 5408,
      "Lan": 5409,
      "cur": 5410,
      "instau": 5411,
      "compro": 5412,
      "Ciononostante": 5413,
      "onda": 5414,
      "vite": 5415,
      "categorie": 5416,
      "Agenda": 5417,
      "salvaguardare": 5418,
      "scandal": 5419,
      "pomeri": 5420,
      "semplici": 5421,
      "reciproco": 5422,
      "assieme": 5423,
      "impul": 5424,
      "ppa": 5425,
      "pregiudi": 5426,
      "gari": 5427,
      "normativo": 5428,
      "chiama": 5429,
      "pomeriggio": 5430,
      "deno": 5431,
      "ER": 5432,
      "indicazioni": 5433,
      "vulnerabili": 5434,
      "elo": 5435,
      "rrà": 5436,
      "terremo": 5437,
      "testimoni": 5438,
      "domin": 5439,
      "neanche": 5440,
      "revolmente": 5441,
      "A4": 5442,
      "socio": 5443,
      "gheria": 5444,
      "comprensibile": 5445,
      "aggre": 5446,
      "praticamente": 5447,
      "Ungheria": 5448,
      "anale": 5449,
      "voglia": 5450,
      "Belgio": 5451,
      "DS": 5452,
      "indagini": 5453,
      "richiedono": 5454,
      "programmazione": 5455,
      "funzionare": 5456,
      "zucch": 5457,
      "soffermarmi": 5458,
      "avveni": 5459,
      "prendo": 5460,
      "Quali": 5461,
      "esercito": 5462,
      "deplorevole": 5463,
      "spagnola": 5464,
      "vando": 5465,
      "accedere": 5466,
      "settentrionale": 5467,
      "onere": 5468,
      "ungherese": 5469,
      "ricicla": 5470,
      "risparmio": 5471,
      "entu": 5472,
      "agenzia": 5473,
      "farmaci": 5474,
      "Del": 5475,
      "vive": 5476,
      "venisse": 5477,
      "avendo": 5478,
      "profilo": 5479,
      "rivolgo": 5480,
      "discriminazioni": 5481,
      "sentenza": 5482,
      "stradale": 5483,
      "\".": 5484,
      "studenti": 5485,
      "Giappone": 5486,
      "danneggi": 5487,
      "esprime": 5488,
      "buoni": 5489,
      "legittima": 5490,
      "perpe": 5491,
      "liberale": 5492,
      "preser": 5493,
      "zzate": 5494,
      "fissati": 5495,
      "avevamo": 5496,
      "geria": 5497,
      "inteso": 5498,
      "negativi": 5499,
      "35": 5500,
      "conoscenze": 5501,
      "credibile": 5502,
      "globali": 5503,
      "Ancora": 5504,
      "vergo": 5505,
      "inserimento": 5506,
      "inden": 5507,
      "Segre": 5508,
      "piccola": 5509,
      "ingle": 5510,
      "auspicabile": 5511,
      "anzitutto": 5512,
      "avval": 5513,
      "serra": 5514,
      "esterni": 5515,
      "assunti": 5516,
      "costretti": 5517,
      "pacifica": 5518,
      "nomina": 5519,
      "tutt": 5520,
      "ssime": 5521,
      "fem": 5522,
      "notevolmente": 5523,
      "intellettuale": 5524,
      "inchiesta": 5525,
      "inn": 5526,
      "Barcell": 5527,
      "britannica": 5528,
      "Barcellona": 5529,
      "lavorando": 5530,
      "siva": 5531,
      "mettono": 5532,
      "foresta": 5533,
      "rientrano": 5534,
      "Autori": 5535,
      "irrego": 5536,
      "segno": 5537,
      "entemente": 5538,
      "appunto": 5539,
      "elevata": 5540,
      "risa": 5541,
      "vedo": 5542,
      "urope": 5543,
      "Dani": 5544,
      "tero": 5545,
      "larità": 5546,
      "ribadito": 5547,
      "catastrofe": 5548,
      "barriere": 5549,
      "ritenuto": 5550,
      "britannici": 5551,
      "imposizione": 5552,
      "riscontra": 5553,
      "riparti": 5554,
      "contribuirà": 5555,
      "tizzazione": 5556,
      "campa": 5557,
      "conformemente": 5558,
      "virtù": 5559,
      "equa": 5560,
      "sanci": 5561,
      "adottati": 5562,
      "Condivido": 5563,
      "indicare": 5564,
      "rammarico": 5565,
      "avanzata": 5566,
      "appalti": 5567,
      "granti": 5568,
      "minuti": 5569,
      "singolo": 5570,
      "giudiziario": 5571,
      "Jo": 5572,
      "speso": 5573,
      "disciplin": 5574,
      "Eppure": 5575,
      "soddisfatti": 5576,
      "consolidamento": 5577,
      "Col": 5578,
      "applicate": 5579,
      "eletti": 5580,
      "rimb": 5581,
      "umanità": 5582,
      "lavorano": 5583,
      "incentivi": 5584,
      "assistito": 5585,
      "cce": 5586,
      "evidenziato": 5587,
      "bra": 5588,
      "alizzate": 5589,
      "Ade": 5590,
      "credere": 5591,
      "stando": 5592,
      "contribuisce": 5593,
      "telecomunicazioni": 5594,
      "respingere": 5595,
      "vorremmo": 5596,
      "cinese": 5597,
      "Pakistan": 5598,
      "marittima": 5599,
      "evidenza": 5600,
      "Autorità": 5601,
      "Perciò": 5602,
      "apprezzamento": 5603,
      "macro": 5604,
      "viaggio": 5605,
      "terreno": 5606,
      "tolleranza": 5607,
      "sali": 5608,
      "capace": 5609,
      "confermato": 5610,
      "transfrontaliera": 5611,
      "indagine": 5612,
      "irach": 5613,
      "convinta": 5614,
      "realizzato": 5615,
      "Baltico": 5616,
      "finanze": 5617,
      "frontiera": 5618,
      "morti": 5619,
      "BCE": 5620,
      "applicata": 5621,
      "deboli": 5622,
      "terroristi": 5623,
      "Man": 5624,
      "risposto": 5625,
      "tradizionali": 5626,
      "ciclo": 5627,
      "avanzate": 5628,
      "pesanti": 5629,
      "miamo": 5630,
      "Cuba": 5631,
      "chiunque": 5632,
      "positive": 5633,
      "avevo": 5634,
      "prego": 5635,
      "mann": 5636,
      "minuto": 5637,
      "transe": 5638,
      "coinvolte": 5639,
      "lata": 5640,
      "pericolose": 5641,
      "avesse": 5642,
      "iniziato": 5643,
      "concordato": 5644,
      "ammon": 5645,
      "Europol": 5646,
      "femmini": 5647,
      "contemporane": 5648,
      "transeurope": 5649,
      "ggono": 5650,
      "preparare": 5651,
      "dovuta": 5652,
      "fissato": 5653,
      "tonnellate": 5654,
      "soddisfatto": 5655,
      "connessi": 5656,
      "grato": 5657,
      "operano": 5658,
      "immagine": 5659,
      "deficit": 5660,
      "mendo": 5661,
      "condivide": 5662,
      "Può": 5663,
      "ttività": 5664,
      "astri": 5665,
      "automa": 5666,
      "normale": 5667,
      "dichia": 5668,
      "attivi": 5669,
      "assumersi": 5670,
      "speriamo": 5671,
      "integrato": 5672,
      "vivenza": 5673,
      "considerevole": 5674,
      "contrasto": 5675,
      "segnatamente": 5676,
      "dettaglio": 5677,
      "storico": 5678,
      "tragedia": 5679,
      "hn": 5680,
      "strategica": 5681,
      "raccogliere": 5682,
      "FE": 5683,
      "sospe": 5684,
      "):": 5685,
      "blo": 5686,
      "esplo": 5687,
      "arresto": 5688,
      "Così": 5689,
      "campagne": 5690,
      "ced": 5691,
      "sviluppati": 5692,
      "legittimità": 5693,
      "catastrofi": 5694,
      "Pe": 5695,
      "distanza": 5696,
      "americano": 5697,
      "ace": 5698,
      "profitti": 5699,
      "sare": 5700,
      "ficati": 5701,
      "cammino": 5702,
      "negoziale": 5703,
      "bandi": 5704,
      "sostengo": 5705,
      "svolgono": 5706,
      "respinto": 5707,
      "guardia": 5708,
      "tecnologico": 5709,
      "offerto": 5710,
      "giudiziaria": 5711,
      "OG": 5712,
      "estremi": 5713,
      "timori": 5714,
      "miglior": 5715,
      "itti": 5716,
      "divario": 5717,
      "opportuna": 5718,
      "negoziare": 5719,
      "biodiversità": 5720,
      "integrata": 5721,
      "trasmettere": 5722,
      "animale": 5723,
      "scarsa": 5724,
      "organismo": 5725,
      "religione": 5726,
      "voci": 5727,
      "reciproca": 5728,
      "mentato": 5729,
      "origin": 5730,
      "redditi": 5731,
      "considerati": 5732,
      "scritte": 5733,
      "sfu": 5734,
      "imb": 5735,
      "lia": 5736,
      "contin": 5737,
      "veranno": 5738,
      "trasformazione": 5739,
      "professioni": 5740,
      "rappresentati": 5741,
      "micro": 5742,
      "permetterà": 5743,
      "comi": 5744,
      "quis": 5745,
      "ttino": 5746,
      "problematica": 5747,
      "osservare": 5748,
      "giunti": 5749,
      "garantisce": 5750,
      "cali": 5751,
      "dre": 5752,
      "causato": 5753,
      "Istituzione": 5754,
      "firmato": 5755,
      "Oggetto": 5756,
      "Sarà": 5757,
      "farsi": 5758,
      "impulso": 5759,
      "signo": 5760,
      "vede": 5761,
      "autonomia": 5762,
      "sessuali": 5763,
      "Adesso": 5764,
      "significativa": 5765,
      "disu": 5766,
      "uncio": 5767,
      "decisivo": 5768,
      "batta": 5769,
      "Go": 5770,
      "Terzo": 5771,
      "percorso": 5772,
      "scer": 5773,
      "orgo": 5774,
      "professionali": 5775,
      "spagnolo": 5776,
      "osservato": 5777,
      "avanzare": 5778,
      "destinate": 5779,
      "preciso": 5780,
      "migra": 5781,
      "parziale": 5782,
      "ultra": 5783,
      "zucchero": 5784,
      "imm": 5785,
      "prigionieri": 5786,
      "carbonio": 5787,
      "ringraziamenti": 5788,
      "sbagliato": 5789,
      "ttore": 5790,
      "agito": 5791,
      "Maastri": 5792,
      "gersi": 5793,
      "complessa": 5794,
      "calda": 5795,
      "45": 5796,
      "Sol": 5797,
      "criterio": 5798,
      "Danimarca": 5799,
      "Tro": 5800,
      "approvati": 5801,
      "cante": 5802,
      "tentativi": 5803,
      "ricordar": 5804,
      "leggere": 5805,
      "storica": 5806,
      "intensificare": 5807,
      "Maastricht": 5808,
      "cerche": 5809,
      "affermazioni": 5810,
      "leale": 5811,
      "sser": 5812,
      "continuo": 5813,
      "chiudere": 5814,
      "disper": 5815,
      "collegamento": 5816,
      "ammissi": 5817,
      "rivolta": 5818,
      "composizione": 5819,
      "erato": 5820,
      "flussi": 5821,
      "pesti": 5822,
      "lonta": 5823,
      "fasci": 5824,
      "incrementare": 5825,
      "mancato": 5826,
      "protezioni": 5827,
      "aggi": 5828,
      "Person": 5829,
      "rocco": 5830,
      "soglia": 5831,
      "proroga": 5832,
      "geno": 5833,
      "lascia": 5834,
      "tassazione": 5835,
      "fabb": 5836,
      "Tribunale": 5837,
      "insufficiente": 5838,
      "eva": 5839,
      "aspira": 5840,
      "generazioni": 5841,
      "denomin": 5842,
      "facilmente": 5843,
      "destinata": 5844,
      "impegnata": 5845,
      "assassi": 5846,
      "governative": 5847,
      "consapevolezza": 5848,
      "Personalmente": 5849,
      "Bro": 5850,
      "mondiali": 5851,
      "perlo": 5852,
      "privata": 5853,
      "quindici": 5854,
      "sollevare": 5855,
      "Bir": 5856,
      "pronuncia": 5857,
      "candidato": 5858,
      "semplificare": 5859,
      "decenni": 5860,
      "sori": 5861,
      "riprendere": 5862,
      "espan": 5863,
      "stabilizzazione": 5864,
      "agevolare": 5865,
      "riciclaggio": 5866,
      "confermare": 5867,
      "benvenuto": 5868,
      "colpe": 5869,
      "Molte": 5870,
      "aeroporti": 5871,
      "penali": 5872,
      "condividere": 5873,
      "immagin": 5874,
      "Consid": 5875,
      "ccato": 5876,
      "gioca": 5877,
      "rivolto": 5878,
      "Appo": 5879,
      "metto": 5880,
      "Marocco": 5881,
      "colpite": 5882,
      "paralle": 5883,
      "turno": 5884,
      "Certo": 5885,
      "convinti": 5886,
      "unanime": 5887,
      "cure": 5888,
      "definiti": 5889,
      "amministrativi": 5890,
      "formulate": 5891,
      "Berlino": 5892,
      "consolidare": 5893,
      "Ko": 5894,
      "rö": 5895,
      "Maced": 5896,
      "emerge": 5897,
      "consiglio": 5898,
      "Anzi": 5899,
      "75": 5900,
      "rivolte": 5901,
      "Macedonia": 5902,
      "sosteniamo": 5903,
      "pretesto": 5904,
      "convincere": 5905,
      "ui": 5906,
      "fatte": 5907,
      "99": 5908,
      "efficacemente": 5909,
      "corrente": 5910,
      "foreste": 5911,
      "Mu": 5912,
      "attacco": 5913,
      "preoccupante": 5914,
      "desiderano": 5915,
      "poc": 5916,
      "evidenziare": 5917,
      "Ai": 5918,
      "shi": 5919,
      "vincolanti": 5920,
      "diventa": 5921,
      "acquis": 5922,
      "faccio": 5923,
      "ridotto": 5924,
      "nascon": 5925,
      "avrei": 5926,
      "silen": 5927,
      "form": 5928,
      "diventi": 5929,
      "sviluppa": 5930,
      "repen": 5931,
      "vengo": 5932,
      "malgrado": 5933,
      "ospi": 5934,
      "organizzato": 5935,
      "eccessivo": 5936,
      "delli": 5937,
      "formi": 5938,
      "immediato": 5939,
      "mezza": 5940,
      "vendi": 5941,
      "neo": 5942,
      "russa": 5943,
      "legislativi": 5944,
      "genitori": 5945,
      "funziona": 5946,
      "Era": 5947,
      "ricchi": 5948,
      "Auspi": 5949,
      "plurien": 5950,
      "ripartizione": 5951,
      "squilib": 5952,
      "notizia": 5953,
      "cos": 5954,
      "liberi": 5955,
      "stretto": 5956,
      "retti": 5957,
      "discutiamo": 5958,
      "affronta": 5959,
      "gola": 5960,
      "quegli": 5961,
      "fornitura": 5962,
      "quisito": 5963,
      "blocco": 5964,
      "designa": 5965,
      "En": 5966,
      "università": 5967,
      "approfondita": 5968,
      "lacune": 5969,
      "osa": 5970,
      "ecu": 5971,
      "nazione": 5972,
      "istituito": 5973,
      "richiedere": 5974,
      "eccessiva": 5975,
      "italiano": 5976,
      "carburanti": 5977,
      "ipotesi": 5978,
      "sk": 5979,
      "inflazione": 5980,
      "pilo": 5981,
      "rad": 5982,
      "ffe": 5983,
      "informato": 5984,
      "danese": 5985,
      "registrato": 5986,
      "spiega": 5987,
      "rispettivi": 5988,
      "ove": 5989,
      "ignorare": 5990,
      "assistere": 5991,
      "trattative": 5992,
      "competitiva": 5993,
      "belga": 5994,
      "apprendimento": 5995,
      "Sotto": 5996,
      "esserci": 5997,
      "qualificata": 5998,
      "piane": 5999,
      "transi": 6000,
      "lovacchia": 6001,
      "Hu": 6002,
      "gando": 6003,
      "ping": 6004,
      "mera": 6005,
      "marittimo": 6006,
      "lamente": 6007,
      "osservatori": 6008,
      "Dichiarazioni": 6009,
      "reagire": 6010,
      "requisito": 6011,
      "crimine": 6012,
      "svolgimento": 6013,
      "ESB": 6014,
      "velocità": 6015,
      "bassi": 6016,
      "effettivo": 6017,
      "ciascun": 6018,
      "AIDS": 6019,
      "datori": 6020,
      "ufficiali": 6021,
      "gnuno": 6022,
      "doganali": 6023,
      "giornalisti": 6024,
      "repu": 6025,
      "social": 6026,
      "beneficiari": 6027,
      "fobi": 6028,
      "zzon": 6029,
      "silenzio": 6030,
      "intendono": 6031,
      "allegato": 6032,
      "rilevato": 6033,
      "italiana": 6034,
      "rate": 6035,
      "ob": 6036,
      "analizzare": 6037,
      "colare": 6038,
      "primavera": 6039,
      "promesse": 6040,
      "Mil": 6041,
      "ibi": 6042,
      "appa": 6043,
      "rinvio": 6044,
      "favoris": 6045,
      "Sulla": 6046,
      "dimostrazione": 6047,
      "archi": 6048,
      "cance": 6049,
      "doganale": 6050,
      "potenza": 6051,
      "pianificazione": 6052,
      "ditta": 6053,
      "fame": 6054,
      "Durante": 6055,
      "ringraziamento": 6056,
      "pianeta": 6057,
      "OS": 6058,
      "modelli": 6059,
      "preval": 6060,
      "ziati": 6061,
      "lasciato": 6062,
      "utilizzate": 6063,
      "congratulazioni": 6064,
      "Zimba": 6065,
      "creando": 6066,
      "coni": 6067,
      "richiamo": 6068,
      "sostituire": 6069,
      "sperare": 6070,
      "Sud": 6071,
      "bella": 6072,
      "notizie": 6073,
      "mediterrane": 6074,
      "irlandesi": 6075,
      "rimbor": 6076,
      "bwe": 6077,
      "Zimbabwe": 6078,
      "orizzon": 6079,
      "incendi": 6080,
      "repressione": 6081,
      "greco": 6082,
      "informati": 6083,
      "talune": 6084,
      "graduale": 6085,
      "raggiunti": 6086,
      "private": 6087,
      "minore": 6088,
      "ttoli": 6089,
      "entrate": 6090,
      "liberamente": 6091,
      "uniforme": 6092,
      "ripetu": 6093,
      "ostacolo": 6094,
      "scientifico": 6095,
      "umanitario": 6096,
      "giunta": 6097,
      "ugoslavia": 6098,
      "geneticamente": 6099,
      "garantendo": 6100,
      "carte": 6101,
      "diffon": 6102,
      "allen": 6103,
      "emerso": 6104,
      "porsi": 6105,
      "sostengono": 6106,
      "esistere": 6107,
      "acquisto": 6108,
      "indipendentemente": 6109,
      "Gaza": 6110,
      "atmo": 6111,
      "rassi": 6112,
      "ambiziosi": 6113,
      "crediamo": 6114,
      "soggior": 6115,
      "ficata": 6116,
      "dollari": 6117,
      "inutile": 6118,
      "argomentazioni": 6119,
      "XX": 6120,
      "definita": 6121,
      "familiari": 6122,
      "confi": 6123,
      "dotazione": 6124,
      "ille": 6125,
      "severe": 6126,
      "porterà": 6127,
      "urban": 6128,
      "inviato": 6129,
      "Segretario": 6130,
      "inglese": 6131,
      "vina": 6132,
      "aggiorna": 6133,
      "determinare": 6134,
      "Gine": 6135,
      "addi": 6136,
      "Ginevra": 6137,
      "vizz": 6138,
      "garantito": 6139,
      "socialisti": 6140,
      "potenziali": 6141,
      "attribuire": 6142,
      "percepi": 6143,
      "importazione": 6144,
      "fondata": 6145,
      "offerte": 6146,
      "luo": 6147,
      "soldi": 6148,
      "provocato": 6149,
      "segnalare": 6150,
      "Slovacchia": 6151,
      "flotta": 6152,
      "convenzioni": 6153,
      "imbar": 6154,
      "slo": 6155,
      "ritengono": 6156,
      "crediti": 6157,
      "arbi": 6158,
      "ufficio": 6159,
      "integri": 6160,
      "intervenuti": 6161,
      "clandestina": 6162,
      "commercializzazione": 6163,
      "iono": 6164,
      "istituti": 6165,
      "lieti": 6166,
      "intento": 6167,
      "cinesi": 6168,
      "limita": 6169,
      "invitare": 6170,
      "ripetere": 6171,
      "SV": 6172,
      "latina": 6173,
      "incontri": 6174,
      "avvenimenti": 6175,
      "emissione": 6176,
      "confine": 6177,
      "rafforzata": 6178,
      "regolari": 6179,
      "OGM": 6180,
      "mancata": 6181,
      "logico": 6182,
      "spo": 6183,
      "altamente": 6184,
      "Invito": 6185,
      "stente": 6186,
      "C5": 6187,
      "Ministri": 6188,
      "ricchezza": 6189,
      "repentaglio": 6190,
      "legislatura": 6191,
      "sanitario": 6192,
      "pericolosi": 6193,
      "espressi": 6194,
      "indicatori": 6195,
      "Hel": 6196,
      "concentrarsi": 6197,
      "vivamente": 6198,
      "Cosa": 6199,
      "Nelle": 6200,
      "disoccupati": 6201,
      "Nessuno": 6202,
      "Bretagna": 6203,
      "faremo": 6204,
      "compiaccio": 6205,
      "Chiediamo": 6206,
      "consideriamo": 6207,
      "Altri": 6208,
      "significativi": 6209,
      "Res": 6210,
      "traccia": 6211,
      "legalmente": 6212,
      "cellu": 6213,
      "lità": 6214,
      "perare": 6215,
      "attirare": 6216,
      "sincer": 6217,
      "diminuzione": 6218,
      "Canada": 6219,
      "95": 6220,
      "ek": 6221,
      "fuo": 6222,
      "vittima": 6223,
      "AR": 6224,
      "presenterà": 6225,
      "plice": 6226,
      "superfici": 6227,
      "incertezza": 6228,
      "grante": 6229,
      "portati": 6230,
      ")]": 6231,
      "costrin": 6232,
      "Fis": 6233,
      "orgoglio": 6234,
      "Sco": 6235,
      "problematiche": 6236,
      "costituzionali": 6237,
      "assume": 6238,
      "palese": 6239,
      "modificato": 6240,
      "elettricità": 6241,
      "scompar": 6242,
      "scopi": 6243,
      "monetario": 6244,
      "luoghi": 6245,
      "Er": 6246,
      "inclusi": 6247,
      "iscano": 6248,
      "ovunque": 6249,
      "pronunci": 6250,
      "radicale": 6251,
      "raga": 6252,
      "trasformare": 6253,
      "sicura": 6254,
      "odierno": 6255,
      "Alb": 6256,
      "Birmania": 6257,
      "accrescere": 6258,
      "CS": 6259,
      "stenti": 6260,
      "immin": 6261,
      "amb": 6262,
      "perdite": 6263,
      "cele": 6264,
      "mine": 6265,
      "direi": 6266,
      "politicamente": 6267,
      "legato": 6268,
      "federale": 6269,
      "Pal": 6270,
      "har": 6271,
      "chere": 6272,
      "potesse": 6273,
      "B5": 6274,
      "preten": 6275,
      "concepi": 6276,
      "B4": 6277,
      "Mal": 6278,
      "ottenuti": 6279,
      "prestiti": 6280,
      "alza": 6281,
      "considero": 6282,
      "Albania": 6283,
      "umanitaria": 6284,
      "Deve": 6285,
      "uscire": 6286,
      "concretamente": 6287,
      "dichiarare": 6288,
      "menta": 6289,
      "sostenibili": 6290,
      "brevetti": 6291,
      "formulato": 6292,
      "costruttiva": 6293,
      "attre": 6294,
      "sistono": 6295,
      "risarci": 6296,
      "Mer": 6297,
      "rappresenti": 6298,
      "ricorda": 6299,
      "confusione": 6300,
      "legami": 6301,
      "incentra": 6302,
      "altrove": 6303,
      "Bra": 6304,
      "ski": 6305,
      "ty": 6306,
      "beneficiare": 6307,
      "deroga": 6308,
      "perpetra": 6309,
      "ry": 6310,
      "negative": 6311,
      "Essi": 6312,
      "Esiste": 6313,
      "cifra": 6314,
      "attendere": 6315,
      "multinazionali": 6316,
      "implicazioni": 6317,
      "risolto": 6318,
      "amministrativa": 6319,
      "disposta": 6320,
      "stock": 6321,
      "Litu": 6322,
      "accoglie": 6323,
      "Roma": 6324,
      "regolarmente": 6325,
      "immunità": 6326,
      "UN": 6327,
      "ventù": 6328,
      "presentano": 6329,
      "smante": 6330,
      "frutto": 6331,
      "illegali": 6332,
      "scientifici": 6333,
      "capaci": 6334,
      "marchio": 6335,
      "Lituania": 6336,
      "?.": 6337,
      "riferisce": 6338,
      "motivazione": 6339,
      "africani": 6340,
      "isole": 6341,
      "paura": 6342,
      "navigazione": 6343,
      "complica": 6344,
      "tarmi": 6345,
      "án": 6346,
      "rallegro": 6347,
      "dirlo": 6348,
      "margin": 6349,
      "trasparenti": 6350,
      "solleci": 6351,
      "profitto": 6352,
      "rispettati": 6353,
      "sile": 6354,
      "banane": 6355,
      "abbandonare": 6356,
      "tribunale": 6357,
      "stabiliti": 6358,
      "espressamente": 6359,
      "voteremo": 6360,
      "chiamati": 6361,
      "sogno": 6362,
      "approfi": 6363,
      "more": 6364,
      "prema": 6365,
      "arne": 6366,
      "ritiro": 6367,
      "transazioni": 6368,
      "stimolare": 6369,
      "condividiamo": 6370,
      "CEE": 6371,
      "supplementari": 6372,
      "rigore": 6373,
      "ggia": 6374,
      "indicazione": 6375,
      "ambizione": 6376,
      "scendo": 6377,
      "coordinare": 6378,
      "siti": 6379,
      "meritano": 6380,
      "consigli": 6381,
      "sias": 6382,
      "approfon": 6383,
      "cosiddetti": 6384,
      "segnali": 6385,
      "donatori": 6386,
      "immediata": 6387,
      "compensazione": 6388,
      "duti": 6389,
      "progredire": 6390,
      "distinzione": 6391,
      "escludere": 6392,
      "incentiva": 6393,
      "corrette": 6394,
      "aspettiamo": 6395,
      "combin": 6396,
      "controversie": 6397,
      "entusias": 6398,
      "sponsa": 6399,
      "fornitori": 6400,
      "successivamente": 6401,
      "bani": 6402,
      "acché": 6403,
      "equival": 6404,
      "complessivo": 6405,
      "pul": 6406,
      "democratizzazione": 6407,
      "probabile": 6408,
      "eccessivamente": 6409,
      "alimentazione": 6410,
      "deriva": 6411,
      "Fisch": 6412,
      "prevedono": 6413,
      "andrebbe": 6414,
      "telef": 6415,
      "Fa": 6416,
      "1994": 6417,
      "ppio": 6418,
      "presupposto": 6419,
      "delibera": 6420,
      "proli": 6421,
      "presun": 6422,
      "peschere": 6423,
      "individui": 6424,
      "armonizzare": 6425,
      "quantitati": 6426,
      "preliminare": 6427,
      "rimedio": 6428,
      "importi": 6429,
      "comunicare": 6430,
      "giornata": 6431,
      "debbono": 6432,
      "preoccupati": 6433,
      "obbligatoria": 6434,
      "restano": 6435,
      "compatibile": 6436,
      "confronto": 6437,
      "OLAF": 6438,
      "ambizioni": 6439,
      "contraria": 6440,
      "Riguardo": 6441,
      "veremo": 6442,
      "ridotta": 6443,
      "prestazioni": 6444,
      "ipocri": 6445,
      "rendono": 6446,
      "scena": 6447,
      "erebbe": 6448,
      "conosce": 6449,
      "cooperare": 6450,
      "richiedenti": 6451,
      "coloni": 6452,
      "stipu": 6453,
      "simboli": 6454,
      "insedi": 6455,
      "conosciamo": 6456,
      "compromessi": 6457,
      "comunista": 6458,
      "onta": 6459,
      "restitu": 6460,
      "tortura": 6461,
      "urgenti": 6462,
      "tematiche": 6463,
      "Capi": 6464,
      "48": 6465,
      "seguendo": 6466,
      "fuoco": 6467,
      "pensiamo": 6468,
      "collettiva": 6469,
      "pensiero": 6470,
      "dedicato": 6471,
      "educazione": 6472,
      "Quello": 6473,
      "sinc": 6474,
      "lunghi": 6475,
      "combustibili": 6476,
      "fobia": 6477,
      "Dis": 6478,
      "tabile": 6479,
      "daf": 6480,
      "genero": 6481,
      "concittadini": 6482,
      "ggiare": 6483,
      "unita": 6484,
      "ango": 6485,
      "minime": 6486,
      "mediterranea": 6487,
      "ognuno": 6488,
      "alline": 6489,
      "battaglia": 6490,
      "BE": 6491,
      "arli": 6492,
      "sacri": 6493,
      "statali": 6494,
      "investitori": 6495,
      "pesante": 6496,
      "Accordo": 6497,
      "drà": 6498,
      "pensione": 6499,
      "pericoloso": 6500,
      "estate": 6501,
      "comin": 6502,
      "modificati": 6503,
      "ago": 6504,
      "ley": 6505,
      "pesce": 6506,
      "speranze": 6507,
      "tradizioni": 6508,
      "mas": 6509,
      "torno": 6510,
      "chiedendo": 6511,
      "invo": 6512,
      "periamo": 6513,
      "azienda": 6514,
      "prudenza": 6515,
      "attor": 6516,
      "potenziare": 6517,
      "viltà": 6518,
      "contemporaneamente": 6519,
      "ultraperiferiche": 6520,
      "2012": 6521,
      "desideriamo": 6522,
      "facciano": 6523,
      "ondra": 6524,
      "Dire": 6525,
      "tensioni": 6526,
      "gravità": 6527,
      "redi": 6528,
      "vostre": 6529,
      "stima": 6530,
      "finire": 6531,
      "teria": 6532,
      "rilascio": 6533,
      "goni": 6534,
      "altezza": 6535,
      "giustificare": 6536,
      "riflette": 6537,
      "congiuntamente": 6538,
      "rub": 6539,
      "multilaterale": 6540,
      "temporanea": 6541,
      "approfondito": 6542,
      "attuate": 6543,
      "sostenuta": 6544,
      "servono": 6545,
      "ferrovie": 6546,
      "xeno": 6547,
      "catena": 6548,
      "scru": 6549,
      "ampliare": 6550,
      "Ed": 6551,
      "dom": 6552,
      "ttem": 6553,
      "promesso": 6554,
      "ssuto": 6555,
      "ship": 6556,
      "chimiche": 6557,
      "aspettare": 6558,
      "essimo": 6559,
      "ME": 6560,
      "qualifiche": 6561,
      "norm": 6562,
      "autonoma": 6563,
      "deroghe": 6564,
      "solito": 6565,
      "aviazione": 6566,
      "tatori": 6567,
      "tese": 6568,
      "rispettato": 6569,
      "istituisce": 6570,
      "offrono": 6571,
      "assicurazione": 6572,
      "interessato": 6573,
      "accoglienza": 6574,
      "felice": 6575,
      "servire": 6576,
      "provviso": 6577,
      "originale": 6578,
      "dipendono": 6579,
      "americana": 6580,
      "esenzione": 6581,
      "soster": 6582,
      "esaminato": 6583,
      "Protocollo": 6584,
      "prendendo": 6585,
      "rapidità": 6586,
      "irani": 6587,
      "irregolarità": 6588,
      "Invece": 6589,
      "incluso": 6590,
      "appoggiato": 6591,
      "facilitare": 6592,
      "anzia": 6593,
      "sottoscritto": 6594,
      "sussidi": 6595,
      "letto": 6596,
      "porte": 6597,
      "scuola": 6598,
      "Esso": 6599,
      "bat": 6600,
      "FI": 6601,
      "rimangono": 6602,
      "cessione": 6603,
      "minacci": 6604,
      "curio": 6605,
      "dispiace": 6606,
      "limitazione": 6607,
      "civiltà": 6608,
      "ottem": 6609,
      "fornite": 6610,
      "transeuropee": 6611,
      "Palesti": 6612,
      "\",": 6613,
      "ogge": 6614,
      "presie": 6615,
      "cuo": 6616,
      "Cecen": 6617,
      "bol": 6618,
      "tollera": 6619,
      "vostri": 6620,
      "Cecenia": 6621,
      "dazione": 6622,
      "semestre": 6623,
      "integrità": 6624,
      "prolifer": 6625,
      "divisione": 6626,
      "recupero": 6627,
      "liqui": 6628,
      "pubblicato": 6629,
      "rendendo": 6630,
      "tariffe": 6631,
      "utilità": 6632,
      "Ann": 6633,
      "carri": 6634,
      "Egi": 6635,
      "tersi": 6636,
      "triste": 6637,
      "dimostrata": 6638,
      "destino": 6639,
      "lau": 6640,
      "dispongono": 6641,
      "consentono": 6642,
      "rimar": 6643,
      "sospensione": 6644,
      "individuali": 6645,
      "Mentre": 6646,
      "delu": 6647,
      "contamin": 6648,
      "Egitto": 6649,
      "battu": 6650,
      "risponde": 6651,
      "precise": 6652,
      "registrati": 6653,
      "giacché": 6654,
      "godere": 6655,
      "appoggia": 6656,
      "epide": 6657,
      "aggiunta": 6658,
      "auspicio": 6659,
      "PES": 6660,
      "televisi": 6661,
      "milione": 6662,
      "ministeri": 6663,
      "esplicitamente": 6664,
      "ciprio": 6665,
      "condannare": 6666,
      "signori": 6667,
      "37": 6668,
      "priva": 6669,
      "tentare": 6670,
      "pilota": 6671,
      "reato": 6672,
      "cane": 6673,
      "rilevanti": 6674,
      "statunitense": 6675,
      "coinci": 6676,
      "contribuiscono": 6677,
      "stranieri": 6678,
      "detenuti": 6679,
      "consegna": 6680,
      "regolamentare": 6681,
      "elettronica": 6682,
      "tetto": 6683,
      "attentati": 6684,
      "Ash": 6685,
      "HU": 6686,
      "occorrono": 6687,
      "critico": 6688,
      "zialità": 6689,
      "metro": 6690,
      "lanciato": 6691,
      "Dub": 6692,
      "accennato": 6693,
      "ico": 6694,
      "prosegui": 6695,
      "prenda": 6696,
      "enna": 6697,
      "portate": 6698,
      "suggerimenti": 6699,
      "Tuni": 6700,
      "accer": 6701,
      "quie": 6702,
      "Detto": 6703,
      "sindacati": 6704,
      "vigenti": 6705,
      "imposto": 6706,
      "occupazionale": 6707,
      "GUE": 6708,
      "ricerche": 6709,
      "espon": 6710,
      "sufficienza": 6711,
      "rit": 6712,
      "tratto": 6713,
      "trasmissione": 6714,
      "rinunciare": 6715,
      "ideologi": 6716,
      "bloccare": 6717,
      "vini": 6718,
      "infanzia": 6719,
      "efficienti": 6720,
      "lana": 6721,
      "flo": 6722,
      "imparare": 6723,
      "belli": 6724,
      "razione": 6725,
      "darà": 6726,
      "delicato": 6727,
      "Tutte": 6728,
      "scoper": 6729,
      "peggiore": 6730,
      "ALE": 6731,
      "300": 6732,
      "Londra": 6733,
      "comprese": 6734,
      "ismo": 6735,
      "diventato": 6736,
      "ij": 6737,
      "pressi": 6738,
      "merà": 6739,
      "tarlo": 6740,
      "attive": 6741,
      "clausole": 6742,
      "squad": 6743,
      "rivendi": 6744,
      "operativo": 6745,
      "Giu": 6746,
      "Palestina": 6747,
      "opere": 6748,
      "cattura": 6749,
      "scia": 6750,
      "sottoposto": 6751,
      "intorno": 6752,
      "garantita": 6753,
      "sopravvivenza": 6754,
      "Malta": 6755,
      "timento": 6756,
      "avvenga": 6757,
      "favorevolmente": 6758,
      "modificata": 6759,
      "quotidiana": 6760,
      "occorra": 6761,
      "digitale": 6762,
      "preca": 6763,
      "finlandese": 6764,
      "regolare": 6765,
      "derò": 6766,
      "fermezza": 6767,
      "idone": 6768,
      "concentrazione": 6769,
      "vento": 6770,
      "legata": 6771,
      "frutti": 6772,
      "pensionistici": 6773,
      "Consenti": 6774,
      "versario": 6775,
      "magari": 6776,
      "vediamo": 6777,
      "realizzati": 6778,
      "sanitarie": 6779,
      "dul": 6780,
      "favori": 6781,
      "Verde": 6782,
      "amministrazioni": 6783,
      "resistenza": 6784,
      "Tempo": 6785,
      "costa": 6786,
      "dor": 6787,
      "bie": 6788,
      "decisa": 6789,
      "crede": 6790,
      "centr": 6791,
      "strategici": 6792,
      "contraddizione": 6793,
      "consentano": 6794,
      "Benché": 6795,
      "geografica": 6796,
      "colpa": 6797,
      "tarli": 6798,
      "Memb": 6799,
      "gamente": 6800,
      "bovina": 6801,
      "IC": 6802,
      "otten": 6803,
      "culture": 6804,
      "tessile": 6805,
      "quil": 6806,
      "impegnato": 6807,
      "ssano": 6808,
      "risolu": 6809,
      "tren": 6810,
      "ack": 6811,
      "extra": 6812,
      "legittimo": 6813,
      "missi": 6814,
      "valide": 6815,
      "Brasile": 6816,
      "aumenti": 6817,
      "applicabile": 6818,
      "sensibile": 6819,
      "fenomeni": 6820,
      "ferenze": 6821,
      "inequi": 6822,
      "sensibilità": 6823,
      "sostanziali": 6824,
      "interessanti": 6825,
      "ET": 6826,
      "osti": 6827,
      "movimenti": 6828,
      "vorrebbe": 6829,
      "Dublino": 6830,
      "GL": 6831,
      "Sostengo": 6832,
      "totali": 6833,
      "facenti": 6834,
      "attuato": 6835,
      "pericoli": 6836,
      "erenti": 6837,
      "successivo": 6838,
      "cercano": 6839,
      "edì": 6840,
      "specificamente": 6841,
      "colma": 6842,
      "Conti": 6843,
      "mangimi": 6844,
      "copertura": 6845,
      "inequivoca": 6846,
      "definitivo": 6847,
      "terribile": 6848,
      "farmace": 6849,
      "migrazione": 6850,
      "sangue": 6851,
      "delegazioni": 6852,
      "scientifiche": 6853,
      "incontrato": 6854,
      "precau": 6855,
      "libere": 6856,
      "plurali": 6857,
      "potenzia": 6858,
      "singole": 6859,
      "ripeto": 6860,
      "approfondire": 6861,
      "profondo": 6862,
      "assor": 6863,
      "partecipanti": 6864,
      "offri": 6865,
      "ingenti": 6866,
      "erata": 6867,
      "inserito": 6868,
      "Speriamo": 6869,
      "vu": 6870,
      "neut": 6871,
      "parato": 6872,
      "ragionevoli": 6873,
      "superflu": 6874,
      "abuso": 6875,
      "ratificato": 6876,
      "bunali": 6877,
      "Pari": 6878,
      "lio": 6879,
      "giro": 6880,
      "russo": 6881,
      "attuata": 6882,
      "straordinario": 6883,
      "verte": 6884,
      "asso": 6885,
      "decisionali": 6886,
      "adul": 6887,
      "conciliare": 6888,
      "riesce": 6889,
      "colpo": 6890,
      "televisione": 6891,
      "Ebbene": 6892,
      "ispira": 6893,
      "valuta": 6894,
      "registrazione": 6895,
      "Rot": 6896,
      "vadano": 6897,
      "land": 6898,
      "scola": 6899,
      "lontano": 6900,
      "Affari": 6901,
      "Più": 6902,
      "legame": 6903,
      "spera": 6904,
      "salvare": 6905,
      "tarne": 6906,
      "indispensabili": 6907,
      "pluriennale": 6908,
      "respi": 6909,
      "coledì": 6910,
      "proliferazione": 6911,
      "informale": 6912,
      "tribunali": 6913,
      "confer": 6914,
      "dinamica": 6915,
      "Consentitemi": 6916,
      "Esistono": 6917,
      "riscalda": 6918,
      "Doha": 6919,
      "accumu": 6920,
      "timore": 6921,
      "sante": 6922,
      "notato": 6923,
      "sinora": 6924,
      "cchie": 6925,
      "allevamento": 6926,
      "negare": 6927,
      "integrante": 6928,
      "conclusi": 6929,
      "volume": 6930,
      "scritta": 6931,
      "validi": 6932,
      "filoso": 6933,
      "finalità": 6934,
      "scadenze": 6935,
      "Ave": 6936,
      "determinante": 6937,
      "paragrafi": 6938,
      "vizzera": 6939,
      "04": 6940,
      "transfrontalieri": 6941,
      "NGL": 6942,
      "prioritario": 6943,
      "considerate": 6944,
      "preservare": 6945,
      "temo": 6946,
      "fram": 6947,
      "rimasto": 6948,
      "farci": 6949,
      "sintesi": 6950,
      "Verts": 6951,
      "rigorosa": 6952,
      "compatibili": 6953,
      "36": 6954,
      "late": 6955,
      "costituisca": 6956,
      "prescri": 6957,
      "diffusa": 6958,
      "violenze": 6959,
      "Mad": 6960,
      "coste": 6961,
      "Egli": 6962,
      "saputo": 6963,
      "stesura": 6964,
      "evento": 6965,
      "abitu": 6966,
      "Har": 6967,
      "eppure": 6968,
      "sur": 6969,
      "PH": 6970,
      "Permette": 6971,
      "perlomeno": 6972,
      "gode": 6973,
      "ripristinare": 6974,
      "entusiasmo": 6975,
      "gan": 6976,
      "ttoria": 6977,
      "primere": 6978,
      "qualitati": 6979,
      "musul": 6980,
      "rives": 6981,
      "amministrativo": 6982,
      "AS": 6983,
      "commessi": 6984,
      "marcia": 6985,
      "precisione": 6986,
      "riscaldamento": 6987,
      "Verdi": 6988,
      "comportano": 6989,
      "rubrica": 6990,
      "nero": 6991,
      "elezione": 6992,
      "CIG": 6993,
      "satelli": 6994,
      "BEI": 6995,
      "invitato": 6996,
      "previsioni": 6997,
      "episo": 6998,
      "insegnamento": 6999,
      "paio": 7000,
      "pubblicazione": 7001,
      "piatta": 7002,
      "dimentichiamo": 7003,
      "psi": 7004,
      "sene": 7005,
      "ambiziosa": 7006,
      "terroristici": 7007,
      "Innanzitutto": 7008,
      "contempla": 7009,
      "fragi": 7010,
      "Sudan": 7011,
      "tangi": 7012,
      "determinata": 7013,
      "ritenere": 7014,
      "locu": 7015,
      "discre": 7016,
      "Tunisia": 7017,
      "New": 7018,
      "Sin": 7019,
      "macch": 7020,
      "componenti": 7021,
      "interrompe": 7022,
      "rimpa": 7023,
      "ternità": 7024,
      "denuncia": 7025,
      "verificati": 7026,
      "corrisponde": 7027,
      "riconciliazione": 7028,
      "dossi": 7029,
      "premio": 7030,
      "diventata": 7031,
      "attraver": 7032,
      "stupe": 7033,
      "assoluto": 7034,
      "rimasti": 7035,
      "stasera": 7036,
      "commento": 7037,
      "godono": 7038,
      "irresponsa": 7039,
      "ripetutamente": 7040,
      "criti": 7041,
      "pronto": 7042,
      "verificato": 7043,
      "ALDE": 7044,
      "correla": 7045,
      "garantisca": 7046,
      "mode": 7047,
      "fur": 7048,
      "55": 7049,
      "inquie": 7050,
      "carenza": 7051,
      "detenzione": 7052,
      "wan": 7053,
      "fondamento": 7054,
      "elaborata": 7055,
      "sentenze": 7056,
      "Quale": 7057,
      "sottoposti": 7058,
      "rapidi": 7059,
      "appropriato": 7060,
      "impron": 7061,
      "sento": 7062,
      "carbone": 7063,
      "arbitra": 7064,
      "procla": 7065,
      "bus": 7066,
      "usato": 7067,
      "multilaterali": 7068,
      "scien": 7069,
      "medici": 7070,
      "signifi": 7071,
      "eventualmente": 7072,
      "assegnazione": 7073,
      "dicono": 7074,
      "sarei": 7075,
      "tenore": 7076,
      "manifestato": 7077,
      "Allora": 7078,
      "droghe": 7079,
      "audio": 7080,
      "avvo": 7081,
      "motivazioni": 7082,
      "sorpren": 7083,
      "AN": 7084,
      "ampie": 7085,
      "auspichiamo": 7086,
      "intelligente": 7087,
      "compara": 7088,
      "particolar": 7089,
      "contratto": 7090,
      "Sal": 7091,
      "tin": 7092,
      "agosto": 7093,
      "omaggio": 7094,
      "asia": 7095,
      "muni": 7096,
      "continueremo": 7097,
      "apertamente": 7098,
      "röm": 7099,
      "tavolo": 7100,
      "ström": 7101,
      "rallegra": 7102,
      "accessibili": 7103,
      "sinceramente": 7104,
      "Permettetemi": 7105,
      "inizialmente": 7106,
      "Schul": 7107,
      "Libano": 7108,
      "massimi": 7109,
      "coinvolto": 7110,
      "austriaca": 7111,
      "femminile": 7112,
      "vigente": 7113,
      "At": 7114,
      "Patten": 7115,
      "interlocu": 7116,
      "Congo": 7117,
      "tariffa": 7118,
      "mirano": 7119,
      "stupi": 7120,
      "Comunque": 7121,
      "llamento": 7122,
      "onato": 7123,
      "suolo": 7124,
      "concentrare": 7125,
      "To": 7126,
      "profon": 7127,
      "discussa": 7128,
      "Ricordo": 7129,
      "preceduto": 7130,
      "tina": 7131,
      "turo": 7132,
      "capisco": 7133,
      "doppio": 7134,
      "peccato": 7135,
      "assol": 7136,
      "post": 7137,
      "rafforzato": 7138,
      "conservatori": 7139,
      "rimpatri": 7140,
      "Esor": 7141,
      "lezione": 7142,
      "inferiori": 7143,
      "socialdemocratici": 7144,
      "tesa": 7145,
      "definisce": 7146,
      "complessità": 7147,
      "heu": 7148,
      "dittatura": 7149,
      "unce": 7150,
      "mina": 7151,
      "povere": 7152,
      "sap": 7153,
      "tensione": 7154,
      "truppe": 7155,
      "opzione": 7156,
      "anniversario": 7157,
      "applicabili": 7158,
      "dumping": 7159,
      "eman": 7160,
      "invecchia": 7161,
      "persecu": 7162,
      "complementari": 7163,
      "opzioni": 7164,
      "spiace": 7165,
      "rotta": 7166,
      "tradizionale": 7167,
      "complimen": 7168,
      "rappresentata": 7169,
      "bambino": 7170,
      "modernizzazione": 7171,
      "avanzato": 7172,
      "limitazioni": 7173,
      "ram": 7174,
      "parametri": 7175,
      "completare": 7176,
      "colpisce": 7177,
      "rientrare": 7178,
      "sostituzione": 7179,
      "effettuati": 7180,
      "accuse": 7181,
      "Cau": 7182,
      "possesso": 7183,
      "limitarsi": 7184,
      "attraversa": 7185,
      "poteva": 7186,
      "immaginare": 7187,
      "clandesti": 7188,
      "Siria": 7189,
      "disar": 7190,
      "giustificata": 7191,
      "Quar": 7192,
      "fumo": 7193,
      "cancro": 7194,
      "procedimenti": 7195,
      "steri": 7196,
      "alban": 7197,
      "vener": 7198,
      "mercoledì": 7199,
      "produttività": 7200,
      "differenti": 7201,
      "allu": 7202,
      "portando": 7203,
      "scapito": 7204,
      "Spe": 7205,
      "continueranno": 7206,
      "Bush": 7207,
      "Ta": 7208,
      "portuali": 7209,
      "elettorali": 7210,
      "instaurare": 7211,
      "PC": 7212,
      "commesso": 7213,
      "rano": 7214,
      "soggetto": 7215,
      "zzazioni": 7216,
      "interrogativi": 7217,
      "prezioso": 7218,
      "audiovisi": 7219,
      "38": 7220,
      "ke": 7221,
      "soffer": 7222,
      "ritornare": 7223,
      "inonda": 7224,
      "UEM": 7225,
      "benissimo": 7226,
      "inqu": 7227,
      "Nondimeno": 7228,
      "precisi": 7229,
      "Esteri": 7230,
      "rav": 7231,
      "utilizzata": 7232,
      "assunzione": 7233,
      "annuncia": 7234,
      "coerenti": 7235,
      "giustificato": 7236,
      "Sembra": 7237,
      "subordina": 7238,
      "vaccin": 7239,
      "comitati": 7240,
      "resa": 7241,
      "avan": 7242,
      "elettronico": 7243,
      "distorsioni": 7244,
      "spalle": 7245,
      "completamento": 7246,
      "comunicato": 7247,
      "occupati": 7248,
      "svolte": 7249,
      "tranquil": 7250,
      "costitui": 7251,
      "spendere": 7252,
      "esauriente": 7253,
      "ficando": 7254,
      "manifestazioni": 7255,
      "espansione": 7256,
      "Lam": 7257,
      "arricchi": 7258,
      "mentale": 7259,
      "mobile": 7260,
      "giuste": 7261,
      "sana": 7262,
      "negativa": 7263,
      "differenzia": 7264,
      "presup": 7265,
      "produttiva": 7266,
      "redigere": 7267,
      "cattiva": 7268,
      "ard": 7269,
      "conservare": 7270,
      "obiezioni": 7271,
      "Dall": 7272,
      "esu": 7273,
      "duplice": 7274,
      "complementare": 7275,
      "attribuisce": 7276,
      "dimostri": 7277,
      "imminente": 7278,
      "infor": 7279,
      "gamma": 7280,
      "dimenticato": 7281,
      "assemb": 7282,
      "resti": 7283,
      "zionare": 7284,
      "parire": 7285,
      "pertinenti": 7286,
      "recepimento": 7287,
      "somme": 7288,
      "conseguimento": 7289,
      "allargata": 7290,
      "dizioni": 7291,
      "Schulz": 7292,
      "zero": 7293,
      "economicamente": 7294,
      "belle": 7295,
      "venerdì": 7296,
      "deposi": 7297,
      "nati": 7298,
      "34": 7299,
      "wo": 7300,
      "incarico": 7301,
      "chilo": 7302,
      "lunghe": 7303,
      "passati": 7304,
      "individuale": 7305,
      "slancio": 7306,
      "condannato": 7307,
      "oro": 7308,
      "incondizion": 7309,
      "mora": 7310,
      "dovuti": 7311,
      "Anno": 7312,
      "geranno": 7313,
      "Bla": 7314,
      "Fron": 7315,
      "rrebbe": 7316,
      "divergenze": 7317,
      "allevatori": 7318,
      "tende": 7319,
      "Slo": 7320,
      "Stoc": 7321,
      "ello": 7322,
      "assur": 7323,
      "superiori": 7324,
      "Eri": 7325,
      "Appoggio": 7326,
      "Sì": 7327,
      "prag": 7328,
      "promessa": 7329,
      "pescherecci": 7330,
      "ttro": 7331,
      "ennesi": 7332,
      "cibo": 7333,
      "Libia": 7334,
      "risie": 7335,
      "sovie": 7336,
      "cala": 7337,
      "proponiamo": 7338,
      "bilaterale": 7339,
      "sollevate": 7340,
      "Wal": 7341,
      "nano": 7342,
      "schia": 7343,
      "miti": 7344,
      "1992": 7345,
      "Già": 7346,
      "illustrato": 7347,
      "religiose": 7348,
      "vuol": 7349,
      "dossier": 7350,
      "Bur": 7351,
      "approvate": 7352,
      "eccezionale": 7353,
      "crescere": 7354,
      "frase": 7355,
      "LT": 7356,
      "Ashton": 7357,
      "rivoluzione": 7358,
      "motore": 7359,
      "gravemente": 7360,
      "eni": 7361,
      "lunedì": 7362,
      "bos": 7363,
      "destinare": 7364,
      "vietare": 7365,
      "Solana": 7366,
      "hi": 7367,
      "vesti": 7368,
      "sel": 7369,
      "portano": 7370,
      "esprimo": 7371,
      "integ": 7372,
      "esorto": 7373,
      "tentato": 7374,
      "autentica": 7375,
      "componente": 7376,
      "egi": 7377,
      "citati": 7378,
      "prendiamo": 7379,
      "caratterizzato": 7380,
      "occupano": 7381,
      "cidio": 7382,
      "caute": 7383,
      "eccezioni": 7384,
      "aperti": 7385,
      "automobilistica": 7386,
      "pin": 7387,
      "persua": 7388,
      "mantenuto": 7389,
      "affrontata": 7390,
      "risolti": 7391,
      "straordinaria": 7392,
      "pervenire": 7393,
      "pratico": 7394,
      "diversamente": 7395,
      "attende": 7396,
      "concetti": 7397,
      "flessibili": 7398,
      "stanziati": 7399,
      "wi": 7400,
      "attenti": 7401,
      "smal": 7402,
      "darsi": 7403,
      "ideale": 7404,
      "legislazioni": 7405,
      "sconfi": 7406,
      "subire": 7407,
      "inutili": 7408,
      "necessita": 7409,
      "attrezza": 7410,
      "zego": 7411,
      "punta": 7412,
      "produce": 7413,
      "concessi": 7414,
      "vasto": 7415,
      "autun": 7416,
      "ricercatori": 7417,
      "aerea": 7418,
      "aumentato": 7419,
      "tedeschi": 7420,
      "Svizzera": 7421,
      "fianco": 7422,
      "vigilare": 7423,
      "scettici": 7424,
      "Fischler": 7425,
      "zegovina": 7426,
      "El": 7427,
      "sterà": 7428,
      "usu": 7429,
      "sottoporre": 7430,
      "superato": 7431,
      "arvi": 7432,
      "ficate": 7433,
      "ambas": 7434,
      "Tam": 7435,
      "amico": 7436,
      "plare": 7437,
      "coprire": 7438,
      "intrapreso": 7439,
      "scandalo": 7440,
      "unilaterale": 7441,
      "discorsi": 7442,
      "Verheu": 7443,
      "intraprese": 7444,
      "Erzegovina": 7445,
      "pilastri": 7446,
      "conferire": 7447,
      "tron": 7448,
      "Colo": 7449,
      "attendono": 7450,
      "evitando": 7451,
      "distingu": 7452,
      "Verheugen": 7453,
      "comportare": 7454,
      "mmissi": 7455,
      "miliardo": 7456,
      "32": 7457,
      "Gol": 7458,
      "timi": 7459,
      "insegn": 7460,
      "colato": 7461,
      "vendite": 7462,
      "attendo": 7463,
      "consentendo": 7464,
      "stanziamento": 7465,
      "Finora": 7466,
      "connesse": 7467,
      "cantieri": 7468,
      "Concludo": 7469,
      "Nu": 7470,
      "gioventù": 7471,
      "tematica": 7472,
      "sson": 7473,
      "aumenta": 7474,
      "marittimi": 7475,
      "OSCE": 7476,
      "ritmo": 7477,
      "andato": 7478,
      "adottando": 7479,
      "venia": 7480,
      "urgentemente": 7481,
      "israeliani": 7482,
      "dodici": 7483,
      "registro": 7484,
      "inammissi": 7485,
      "quinto": 7486,
      "bano": 7487,
      "han": 7488,
      "perchè": 7489,
      "definite": 7490,
      "Certamente": 7491,
      "continuità": 7492,
      "vicepresidente": 7493,
      "xenofobia": 7494,
      "Messi": 7495,
      "correggere": 7496,
      "riducendo": 7497,
      "scindi": 7498,
      "precisamente": 7499,
      "assunta": 7500,
      "farmaceuti": 7501,
      "serietà": 7502,
      "acquistare": 7503,
      "abolire": 7504,
      "ECU": 7505,
      "rispettive": 7506,
      "competitivo": 7507,
      "manifestare": 7508,
      "annuali": 7509,
      "monitorare": 7510,
      "Her": 7511,
      "sollevata": 7512,
      "veter": 7513,
      "risorsa": 7514,
      "diciamo": 7515,
      "manovra": 7516,
      "disugu": 7517,
      "imbarcazioni": 7518,
      "stupefacenti": 7519,
      "sospesa": 7520,
      "sostenendo": 7521,
      "attendiamo": 7522,
      "rating": 7523,
      "sofferenze": 7524,
      "cherò": 7525,
      "viva": 7526,
      "fermo": 7527,
      "studiare": 7528,
      "israeliano": 7529,
      "IT": 7530,
      "etica": 7531,
      "rinviare": 7532,
      "parag": 7533,
      "autunno": 7534,
      "Dato": 7535,
      "trovi": 7536,
      "zoo": 7537,
      "agenti": 7538,
      "censura": 7539,
      "equivale": 7540,
      "legalità": 7541,
      "Millen": 7542,
      "inaccettabili": 7543,
      "migranti": 7544,
      "utilizzando": 7545,
      "diventando": 7546,
      "preparativi": 7547,
      "SK": 7548,
      "conven": 7549,
      "applicano": 7550,
      "illustrare": 7551,
      "Tampere": 7552,
      "ecco": 7553,
      "insor": 7554,
      "colmare": 7555,
      "circoscri": 7556,
      "accolta": 7557,
      "esecutivo": 7558,
      "affidabilità": 7559,
      "Slovenia": 7560,
      "Val": 7561,
      "ripo": 7562,
      "ork": 7563,
      "esigere": 7564,
      "giuridicamente": 7565,
      "semb": 7566,
      "gnare": 7567,
      "gante": 7568,
      "slova": 7569,
      "tz": 7570,
      "preferito": 7571,
      "tion": 7572,
      "mancano": 7573,
      "constatato": 7574,
      "retribuzione": 7575,
      "teso": 7576,
      "tendenze": 7577,
      "imperi": 7578,
      "supervisione": 7579,
      "artifici": 7580,
      "latti": 7581,
      "classe": 7582,
      "allarme": 7583,
      "ostacola": 7584,
      "Santer": 7585,
      "tocca": 7586,
      "Brok": 7587,
      "dazi": 7588,
      "Stoccolma": 7589,
      "decine": 7590,
      "lante": 7591,
      "importantissimo": 7592,
      "brevetto": 7593,
      "muovere": 7594,
      "vecchio": 7595,
      "formulata": 7596,
      "etnica": 7597,
      "fattispecie": 7598,
      "scusa": 7599,
      "pensionati": 7600,
      "simo": 7601,
      "stradali": 7602,
      "trascu": 7603,
      "disac": 7604,
      "andrà": 7605,
      "inquinanti": 7606,
      "pag": 7607,
      "fondamentalmente": 7608,
      "affrontati": 7609,
      "operativa": 7610,
      "33": 7611,
      "Tai": 7612,
      "propongo": 7613,
      "197": 7614,
      "affrontando": 7615,
      "identificazione": 7616,
      "affermando": 7617,
      "impedisce": 7618,
      "?,": 7619,
      "Fer": 7620,
      "appar": 7621,
      "chiamato": 7622,
      "Qui": 7623,
      "continuamente": 7624,
      "conseguente": 7625,
      "tarla": 7626,
      "bomb": 7627,
      "lliere": 7628,
      "calcio": 7629,
      "complessiva": 7630,
      "Ieri": 7631,
      "condivisa": 7632,
      "sviluppato": 7633,
      "indebi": 7634,
      "fabbrica": 7635,
      "Osser": 7636,
      "cl": 7637,
      "religiosa": 7638,
      "XXI": 7639,
      "Feder": 7640,
      "umi": 7641,
      "sospeso": 7642,
      "dirette": 7643,
      "pendo": 7644,
      "intervengo": 7645,
      "forniti": 7646,
      "rettifica": 7647,
      "faranno": 7648,
      "nascita": 7649,
      "evidenti": 7650,
      "successiva": 7651,
      "idro": 7652,
      "momenti": 7653,
      "premi": 7654,
      "menzionare": 7655,
      "stiano": 7656,
      "derci": 7657,
      "Gior": 7658,
      "Ve": 7659,
      "ly": 7660,
      "soggiorno": 7661,
      "atro": 7662,
      "rag": 7663,
      "conosco": 7664,
      "accadendo": 7665,
      "bet": 7666,
      "rigoroso": 7667,
      "pazienza": 7668,
      "comparto": 7669,
      "-(": 7670,
      "esposto": 7671,
      "puramente": 7672,
      "causati": 7673,
      "Membro": 7674,
      "disce": 7675,
      "PESC": 7676,
      "nando": 7677,
      "vittoria": 7678,
      "Gali": 7679,
      "modu": 7680,
      "dopera": 7681,
      "ling": 7682,
      "manodopera": 7683,
      "validità": 7684,
      "concentrarci": 7685,
      "pesticidi": 7686,
      "intermedia": 7687,
      "contenuta": 7688,
      "traduzione": 7689,
      "Timor": 7690,
      "prefi": 7691,
      "sarò": 7692,
      "istru": 7693,
      "volontario": 7694,
      "Fronte": 7695,
      "espul": 7696,
      "attualità": 7697,
      "suddi": 7698,
      "guerre": 7699,
      "riguardi": 7700,
      "destinazione": 7701,
      "gratitudine": 7702,
      "appartenenti": 7703,
      "cofinanziamento": 7704,
      "nendo": 7705,
      "dit": 7706,
      "mettiamo": 7707,
      "nate": 7708,
      "comitatologia": 7709,
      "rid": 7710,
      "rinvia": 7711,
      "denunce": 7712,
      "energetici": 7713,
      "dettagliata": 7714,
      "ispezioni": 7715,
      "inondazioni": 7716,
      "Messico": 7717,
      "postali": 7718,
      "occuparci": 7719,
      "scom": 7720,
      "lordo": 7721,
      "contraffa": 7722,
      "mostrare": 7723,
      "bordo": 7724,
      "fortunatamente": 7725,
      "russi": 7726,
      "inta": 7727,
      "incarica": 7728,
      "cinquan": 7729,
      "costituita": 7730,
      "aumentando": 7731,
      "65": 7732,
      "parando": 7733,
      "concen": 7734,
      "bassa": 7735,
      "riaff": 7736,
      "riflessioni": 7737,
      "africana": 7738,
      "calamità": 7739,
      "Bö": 7740,
      "disin": 7741,
      "affli": 7742,
      "scenti": 7743,
      "spiegato": 7744,
      "giocattoli": 7745,
      "aperte": 7746,
      "riformare": 7747,
      "promuove": 7748,
      "doveva": 7749,
      "domesti": 7750,
      "use": 7751,
      "deloc": 7752,
      "Atlan": 7753,
      "mes": 7754,
      "ya": 7755,
      "arle": 7756,
      "gate": 7757,
      "monete": 7758,
      "ritirare": 7759,
      "cristiano": 7760,
      "gradualmente": 7761,
      "1993": 7762,
      "effettuato": 7763,
      "margini": 7764,
      "logie": 7765,
      "supplementare": 7766,
      "domini": 7767,
      "nazionalità": 7768,
      "usati": 7769,
      "fornendo": 7770,
      "regolamen": 7771,
      "barba": 7772,
      "Scozia": 7773,
      "C4": 7774,
      "Ra": 7775,
      "Wat": 7776,
      "contenere": 7777,
      "proibi": 7778,
      "riferire": 7779,
      "Istituto": 7780,
      "05": 7781,
      "cerchiamo": 7782,
      "svilupp": 7783,
      "invecchiamento": 7784,
      "tone": 7785,
      "finanziati": 7786,
      "greca": 7787,
      "volevo": 7788,
      "prioritari": 7789,
      "federali": 7790,
      "III": 7791,
      "leadership": 7792,
      "migratori": 7793,
      "rista": 7794,
      "aspettano": 7795,
      "edili": 7796,
      "separazione": 7797,
      "Helsin": 7798,
      "presiden": 7799,
      "solleva": 7800,
      "supporto": 7801,
      "Due": 7802,
      "dafrica": 7803,
      "sistematicamente": 7804,
      "mostrato": 7805,
      "seguita": 7806,
      "ospe": 7807,
      "inva": 7808,
      "instabilità": 7809,
      "contribui": 7810,
      "Rom": 7811,
      "cellule": 7812,
      "Dar": 7813,
      "recessione": 7814,
      "inven": 7815,
      "indicano": 7816,
      "applicati": 7817,
      "inevitabilmente": 7818,
      "embri": 7819,
      "veterina": 7820,
      "bir": 7821,
      "tente": 7822,
      "limitati": 7823,
      "dignito": 7824,
      "bandiera": 7825,
      "Be": 7826,
      "sig": 7827,
      "perple": 7828,
      "diventerà": 7829,
      "ribadisco": 7830,
      "clandestini": 7831,
      "sessi": 7832,
      "magi": 7833,
      "stabilite": 7834,
      "inevitabile": 7835,
      "incapacità": 7836,
      "circostanza": 7837,
      "sottoposta": 7838,
      "auspico": 7839,
      "elettrica": 7840,
      "memoria": 7841,
      "protezionismo": 7842,
      "Auspico": 7843,
      "ivi": 7844,
      "siner": 7845,
      "concessioni": 7846,
      "affidabili": 7847,
      "decentra": 7848,
      "porgere": 7849,
      "ristre": 7850,
      "limitate": 7851,
      "connes": 7852,
      "tagoni": 7853,
      "bul": 7854,
      "forniscono": 7855,
      "messaggi": 7856,
      "eventualità": 7857,
      "famo": 7858,
      "protagoni": 7859,
      "mane": 7860,
      "Vienna": 7861,
      "inver": 7862,
      "vizio": 7863,
      "ologia": 7864,
      "impegnarci": 7865,
      "adoperarsi": 7866,
      "testa": 7867,
      "dotti": 7868,
      "bancario": 7869,
      "ringraziando": 7870,
      "Ven": 7871,
      "muro": 7872,
      "nondimeno": 7873,
      "discuti": 7874,
      "sostenitori": 7875,
      "risarcimento": 7876,
      "riprende": 7877,
      "aliquote": 7878,
      "contribuendo": 7879,
      "partita": 7880,
      "Helsinki": 7881,
      "dovute": 7882,
      "ricevono": 7883,
      "riservato": 7884,
      "preventiva": 7885,
      "riconosciuta": 7886,
      "esausti": 7887,
      "39": 7888,
      "insufficienti": 7889,
      "odio": 7890,
      "inas": 7891,
      "cheranno": 7892,
      "vedono": 7893,
      "auspicato": 7894,
      "Tibet": 7895,
      "indennità": 7896,
      "kis": 7897,
      "prenderà": 7898,
      "mobilitazione": 7899,
      "ulo": 7900,
      "preveda": 7901,
      "ASE": 7902,
      "esposizione": 7903,
      "trasferire": 7904,
      "severi": 7905,
      "cessa": 7906,
      "puntare": 7907,
      "producono": 7908,
      "attorno": 7909,
      "ziano": 7910,
      "confinan": 7911,
      "arriva": 7912,
      "giovane": 7913,
      "Soltanto": 7914,
      "Sad": 7915,
      "corrono": 7916,
      "rileva": 7917,
      "chiederle": 7918,
      "NS": 7919,
      "Costa": 7920,
      "assurdo": 7921,
      "dedicare": 7922,
      "sensibilizzazione": 7923,
      "scienziati": 7924,
      "complimentarmi": 7925,
      "reputo": 7926,
      "spun": 7927,
      "compromettere": 7928,
      "fol": 7929,
      "ved": 7930,
      "consue": 7931,
      "ficherebbe": 7932,
      "pericolosa": 7933,
      "ploro": 7934,
      "concordare": 7935,
      "ssando": 7936,
      "Continu": 7937,
      "toni": 7938,
      "molteplici": 7939,
      "residenti": 7940,
      "anticipo": 7941,
      "Gro": 7942,
      "accolti": 7943,
      "sottra": 7944,
      "preroga": 7945,
      "elab": 7946,
      "dissi": 7947,
      "ttuali": 7948,
      "renderà": 7949,
      "siete": 7950,
      "prioritaria": 7951,
      "impiegati": 7952,
      "Sicu": 7953,
      "moratoria": 7954,
      "Obi": 7955,
      "rallen": 7956,
      "mentali": 7957,
      "procedimento": 7958,
      "Gru": 7959,
      "soldati": 7960,
      "preparato": 7961,
      "provocare": 7962,
      "Gio": 7963,
      "valutato": 7964,
      "rifiuta": 7965,
      "ecologico": 7966,
      "Saddam": 7967,
      "ziando": 7968,
      "terranno": 7969,
      "unitaria": 7970,
      "audizione": 7971,
      "continuiamo": 7972,
      "caccia": 7973,
      "lettere": 7974,
      "riferito": 7975,
      "coordinata": 7976,
      "delicata": 7977,
      "raddoppi": 7978,
      "bieloru": 7979,
      "cedere": 7980,
      "risultare": 7981,
      "operativi": 7982,
      "49": 7983,
      "We": 7984,
      "parlo": 7985,
      "colture": 7986,
      "eravamo": 7987,
      "fornita": 7988,
      "rischiano": 7989,
      "46": 7990,
      "creata": 7991,
      "biocarburanti": 7992,
      "matura": 7993,
      "nave": 7994,
      "parecchi": 7995,
      "emergere": 7996,
      "ecologica": 7997,
      "netto": 7998,
      "indiff": 7999,
      "riescono": 8000,
      "imperiali": 8001,
      "attenta": 8002,
      "cambiato": 8003,
      "inclusa": 8004,
      "apparecchia": 8005,
      "reazioni": 8006,
      "riduzioni": 8007,
      "potenze": 8008,
      "rinnovabile": 8009,
      "lì": 8010,
      "imprescindi": 8011,
      "esprimersi": 8012,
      "giudiziarie": 8013,
      "vorrà": 8014,
      "rino": 8015,
      "andosi": 8016,
      "autonomi": 8017,
      "Roth": 8018,
      "rivestono": 8019,
      "cautela": 8020,
      "Millennio": 8021,
      "400": 8022,
      "revoca": 8023,
      "Algeria": 8024,
      "Poli": 8025,
      "probabilità": 8026,
      "dibile": 8027,
      "persi": 8028,
      "ciascuna": 8029,
      "sbagliata": 8030,
      "partecipano": 8031,
      "adattamento": 8032,
      "bac": 8033,
      "zionalmente": 8034,
      "fuor": 8035,
      "discute": 8036,
      "rivelato": 8037,
      "licenzia": 8038,
      "od": 8039,
      "forum": 8040,
      "pene": 8041,
      "dentemente": 8042,
      "Sudafrica": 8043,
      "ugualmente": 8044,
      "costretto": 8045,
      "medico": 8046,
      "veloce": 8047,
      "Estonia": 8048,
      "vergogno": 8049,
      "Atlantico": 8050,
      "acu": 8051,
      "esag": 8052,
      "consistente": 8053,
      "sfuggi": 8054,
      "wski": 8055,
      "labu": 8056,
      "disastri": 8057,
      "erare": 8058,
      "esegu": 8059,
      "cereali": 8060,
      "residui": 8061,
      "turca": 8062,
      "riconosciuti": 8063,
      "43": 8064,
      "1990": 8065,
      "attrezzature": 8066,
      "riposo": 8067,
      "Dan": 8068,
      "ena": 8069,
      "ciare": 8070,
      "profonde": 8071,
      "stanziare": 8072,
      "olk": 8073,
      "considerano": 8074,
      "basarsi": 8075,
      "sala": 8076,
      "obbligatorio": 8077,
      "terreni": 8078,
      "monopolio": 8079,
      "ramento": 8080,
      "potenzialmente": 8081,
      "flusso": 8082,
      "cellazione": 8083,
      "condotte": 8084,
      "Anch": 8085,
      "svaria": 8086,
      "adeguare": 8087,
      "negoziazione": 8088,
      "altron": 8089,
      "interferi": 8090,
      "primaria": 8091,
      "competere": 8092,
      "basate": 8093,
      "esaminando": 8094,
      "armamenti": 8095,
      "embargo": 8096,
      "lavorativa": 8097,
      "respinta": 8098,
      "identificare": 8099,
      "trasferimenti": 8100,
      "comporterà": 8101,
      "altronde": 8102,
      "Apprezzo": 8103,
      "autentico": 8104,
      "fisica": 8105,
      "dova": 8106,
      "preferenze": 8107,
      "chiarito": 8108,
      "liberazione": 8109,
      "diagno": 8110,
      "giudicare": 8111,
      "arrivo": 8112,
      "appartenenza": 8113,
      "duro": 8114,
      "cospi": 8115,
      "esposti": 8116,
      "disaccordo": 8117,
      "Federazione": 8118,
      "dista": 8119,
      "Az": 8120,
      "vetture": 8121,
      "stime": 8122,
      "previdenza": 8123,
      "caro": 8124,
      "madre": 8125,
      "loco": 8126,
      "logo": 8127,
      "creano": 8128,
      "Mos": 8129,
      "omici": 8130,
      "disabilità": 8131,
      "apprezzato": 8132,
      "grosso": 8133,
      "necessitano": 8134,
      "yer": 8135,
      "razionale": 8136,
      "tenute": 8137,
      "riesca": 8138,
      "carburante": 8139,
      "venissero": 8140,
      "fili": 8141,
      "conseguito": 8142,
      "migliorato": 8143,
      "derivati": 8144,
      "auguri": 8145,
      "suscitato": 8146,
      "custo": 8147,
      "vent": 8148,
      "condivisione": 8149,
      "riuscirà": 8150,
      "potenziamento": 8151,
      "saremmo": 8152,
      "dovessero": 8153,
      "purché": 8154,
      "tecnologica": 8155,
      "aderito": 8156,
      "polacchi": 8157,
      "duratura": 8158,
      "Bon": 8159,
      "duramente": 8160,
      "Lett": 8161,
      "ferare": 8162,
      "opposto": 8163,
      "suggerito": 8164,
      "doppia": 8165,
      "osserv": 8166,
      "rispettano": 8167,
      "42": 8168,
      "ure": 8169,
      "intenda": 8170,
      "divenire": 8171,
      "by": 8172,
      "bro": 8173,
      "evo": 8174,
      "viste": 8175,
      "fred": 8176,
      "definitivamente": 8177,
      "privatizzazione": 8178,
      "dominio": 8179,
      "Lettonia": 8180,
      "Jugoslavia": 8181,
      "api": 8182,
      "ella": 8183,
      "direttore": 8184,
      "mul": 8185,
      "infini": 8186,
      "orre": 8187,
      "formare": 8188,
      "argomentazione": 8189,
      "lasciando": 8190,
      "abband": 8191,
      "personalità": 8192,
      "Madrid": 8193,
      "Im": 8194,
      "affrontate": 8195,
      "accessibile": 8196,
      "congedo": 8197,
      "respiro": 8198,
      "idri": 8199,
      "denunciare": 8200,
      "incluse": 8201,
      "transfrontaliere": 8202,
      "pluralismo": 8203,
      "G20": 8204,
      "deregola": 8205,
      "canali": 8206,
      "Vorremmo": 8207,
      "presupposti": 8208,
      "aspirazioni": 8209,
      "impedito": 8210,
      "sostener": 8211,
      "derivano": 8212,
      "coltivazione": 8213,
      "tering": 8214,
      "segreto": 8215,
      "appropriata": 8216,
      "considerevoli": 8217,
      "the": 8218,
      "deteri": 8219,
      "decide": 8220,
      "bisogni": 8221,
      "avviata": 8222,
      "flotte": 8223,
      "apparecchiature": 8224,
      "pò": 8225,
      "lode": 8226,
      "isolamento": 8227,
      "Monti": 8228,
      "succede": 8229,
      "ón": 8230,
      "migliorata": 8231,
      "esteso": 8232,
      "cruciali": 8233,
      "educa": 8234,
      "assorbi": 8235,
      "professionisti": 8236,
      "genocidio": 8237,
      "voterà": 8238,
      "Seconda": 8239,
      "conversione": 8240,
      "assemblea": 8241,
      "DR": 8242,
      "igi": 8243,
      "imposti": 8244,
      "erati": 8245,
      "riferimenti": 8246,
      "guidare": 8247,
      "formalmente": 8248,
      "pubblicamente": 8249,
      "specificità": 8250,
      "tunatamente": 8251,
      "decennio": 8252,
      "lente": 8253,
      "sore": 8254,
      "ghesi": 8255,
      "partecipa": 8256,
      "andamento": 8257,
      "danesi": 8258,
      "soddisfatta": 8259,
      "sussiste": 8260,
      "digitali": 8261,
      "Hai": 8262,
      "lt": 8263,
      "recla": 8264,
      "aglianze": 8265,
      "umanitarie": 8266,
      "legittime": 8267,
      "razion": 8268,
      "comportamenti": 8269,
      "rigorose": 8270,
      "selezione": 8271,
      "Cance": 8272,
      "Hanno": 8273,
      "Kinno": 8274,
      "generalmente": 8275,
      "sospendere": 8276,
      "OCSE": 8277,
      "colpevoli": 8278,
      "normali": 8279,
      "Kinnock": 8280,
      "Temo": 8281,
      "Caucaso": 8282,
      "osservanza": 8283,
      "Milo": 8284,
      "parsi": 8285,
      "democraticamente": 8286,
      "innalza": 8287,
      "squilibri": 8288,
      "disarmo": 8289,
      "permetto": 8290,
      "sicure": 8291,
      "occupazionali": 8292,
      "introduce": 8293,
      "occorrerà": 8294,
      "infrastruttura": 8295,
      "transfrontaliero": 8296,
      "vice": 8297,
      "esiti": 8298,
      "finanziato": 8299,
      "scenario": 8300,
      "radicali": 8301,
      "disciplinare": 8302,
      "tamenti": 8303,
      "preparando": 8304,
      "immen": 8305,
      "sostenuti": 8306,
      "Guine": 8307,
      "statunitensi": 8308,
      "percorrere": 8309,
      "doveri": 8310,
      "vic": 8311,
      "ciata": 8312,
      "intese": 8313,
      "accettazione": 8314,
      "utilizzano": 8315,
      "trando": 8316,
      "risparmiare": 8317,
      "eurodeputati": 8318,
      "impli": 8319,
      "Analo": 8320,
      "pronunciato": 8321,
      "Sia": 8322,
      "dirigenti": 8323,
      "sensazione": 8324,
      "falsi": 8325,
      "territoriali": 8326,
      "assegnato": 8327,
      "Essen": 8328,
      "SIS": 8329,
      "incorpo": 8330,
      "fondato": 8331,
      "generare": 8332,
      "conclude": 8333,
      "lungi": 8334,
      "infanti": 8335,
      "preoccupato": 8336,
      "und": 8337,
      "chel": 8338,
      "primario": 8339,
      "lungimi": 8340,
      "infrazione": 8341,
      "ministeriale": 8342,
      "44": 8343,
      "grafia": 8344,
      "democrazie": 8345,
      "comprendono": 8346,
      "svedesi": 8347,
      "PS": 8348,
      "York": 8349,
      "giustificazione": 8350,
      "promuovendo": 8351,
      "Trovo": 8352,
      "Ara": 8353,
      "Sop": 8354,
      "fossi": 8355,
      "offrendo": 8356,
      "legger": 8357,
      "associo": 8358,
      "aggiornamento": 8359,
      "nettamente": 8360,
      "scaten": 8361,
      "ragion": 8362,
      "condivisi": 8363,
      "condiviso": 8364,
      "recuperare": 8365,
      "HIV": 8366,
      "pp": 8367,
      "ispi": 8368,
      "adeguar": 8369,
      "pensato": 8370,
      "usufru": 8371,
      "iner": 8372,
      "verrebbe": 8373,
      "protesta": 8374,
      "clienti": 8375,
      "interrogativo": 8376,
      "licenze": 8377,
      "chiamata": 8378,
      "Spetta": 8379,
      "US": 8380,
      "apprezzo": 8381,
      "discuter": 8382,
      "figurano": 8383,
      "pragma": 8384,
      "provin": 8385,
      "suscita": 8386,
      "contengono": 8387,
      "esprimer": 8388,
      "appoggiamo": 8389,
      "gnerebbe": 8390,
      "ridotte": 8391,
      "acquisire": 8392,
      "rranno": 8393,
      "realistico": 8394,
      "rimasta": 8395,
      "ARE": 8396,
      "clon": 8397,
      "ttini": 8398,
      "impera": 8399,
      "volontari": 8400,
      "evol": 8401,
      "TAC": 8402,
      "insu": 8403,
      "collegati": 8404,
      "burg": 8405,
      "Dichiarazione": 8406,
      "onessa": 8407,
      "imp": 8408,
      "partenariati": 8409,
      "chiederci": 8410,
      "Osservato": 8411,
      "85": 8412,
      "Nero": 8413,
      "novità": 8414,
      "comportato": 8415,
      "equipa": 8416,
      "rivelarsi": 8417,
      "tracciabilità": 8418,
      "Osservatorio": 8419,
      "FES": 8420,
      "coali": 8421,
      "calcolo": 8422,
      "marino": 8423,
      "esclusiva": 8424,
      "cominciato": 8425,
      "diminuire": 8426,
      "smaltimento": 8427,
      "Esse": 8428,
      "Fino": 8429,
      "descritto": 8430,
      "ant": 8431,
      "compiendo": 8432,
      "alternativi": 8433,
      "epizoo": 8434,
      "distruggere": 8435,
      "coniu": 8436,
      "Taiwan": 8437,
      "tabella": 8438,
      "appreso": 8439,
      "rispetti": 8440,
      "costituirà": 8441,
      "concorren": 8442,
      "giunge": 8443,
      "150": 8444,
      "vuoto": 8445,
      "obbligatorie": 8446,
      "consentirebbe": 8447,
      "Potrebbe": 8448,
      "nti": 8449,
      "riesame": 8450,
      "mismo": 8451,
      "cordiamo": 8452,
      "svolgendo": 8453,
      "include": 8454,
      "rigorosi": 8455,
      "esponenti": 8456,
      "Je": 8457,
      "esista": 8458,
      "sovven": 8459,
      "selva": 8460,
      "tracci": 8461,
      "Eurostat": 8462,
      "attua": 8463,
      "intesi": 8464,
      "equità": 8465,
      "automaticamente": 8466,
      "inammissibile": 8467,
      "mme": 8468,
      "piattaforma": 8469,
      "segua": 8470,
      "parlano": 8471,
      "cosiddette": 8472,
      "fermare": 8473,
      "Analogamente": 8474,
      "Sp": 8475,
      "inse": 8476,
      "alcoli": 8477,
      "carcere": 8478,
      "congiunto": 8479,
      "introdotte": 8480,
      "apparente": 8481,
      "Obietti": 8482,
      "Gruppo": 8483,
      "sivo": 8484,
      "maternità": 8485,
      "veder": 8486,
      "tanta": 8487,
      "COD": 8488,
      "esortare": 8489,
      "simbolo": 8490,
      "Esorto": 8491,
      "orando": 8492,
      "sleale": 8493,
      "vissuto": 8494,
      "sottolineo": 8495,
      "potente": 8496,
      "Camera": 8497,
      "Cancelliere": 8498,
      "Guinea": 8499,
      "Congresso": 8500,
      "diceva": 8501,
      "guità": 8502,
      "insistito": 8503,
      "chiedersi": 8504,
      "ennio": 8505,
      "cimento": 8506,
      "Gö": 8507,
      "fan": 8508,
      "renda": 8509,
      "rinuncia": 8510,
      "Visto": 8511,
      "etichetta": 8512,
      "Alcune": 8513,
      "presuppone": 8514,
      "produttivi": 8515,
      "sinte": 8516,
      "ordinamento": 8517,
      "piedi": 8518,
      "chiarimento": 8519,
      "Annuncio": 8520,
      "venuta": 8521,
      "mutu": 8522,
      "viola": 8523,
      "tariato": 8524,
      "prestazione": 8525,
      "analoghe": 8526,
      "ja": 8527,
      "ose": 8528,
      "bbia": 8529,
      "complesse": 8530,
      "riceve": 8531,
      "ratificare": 8532,
      "americane": 8533,
      "mettersi": 8534,
      "rimborso": 8535,
      "ding": 8536,
      "interopera": 8537,
      "sicché": 8538,
      "prendono": 8539,
      "2015": 8540,
      "rispettate": 8541,
      "illeci": 8542,
      "Occi": 8543,
      "osi": 8544,
      "costiere": 8545,
      "riflet": 8546,
      "Pechino": 8547,
      "Parigi": 8548,
      "sorpresa": 8549,
      "face": 8550,
      "ucra": 8551,
      "zy": 8552,
      "unitamente": 8553,
      "acconten": 8554,
      "Confi": 8555,
      "cino": 8556,
      "storici": 8557,
      "rivolger": 8558,
      "indenni": 8559,
      "Entra": 8560,
      "attraversando": 8561,
      "von": 8562,
      "fabbi": 8563,
      "erogazione": 8564,
      "critici": 8565,
      "rendersi": 8566,
      "fungere": 8567,
      "abbassa": 8568,
      "darci": 8569,
      "sesto": 8570,
      "Kara": 8571,
      "atori": 8572,
      "accin": 8573,
      "stendo": 8574,
      "dedicata": 8575,
      "troppi": 8576,
      "collettivi": 8577,
      "risolta": 8578,
      "infantile": 8579,
      "alter": 8580,
      "core": 8581,
      "crollo": 8582,
      "scorsi": 8583,
      "rientale": 8584,
      "vege": 8585,
      "terribili": 8586,
      "EURO": 8587,
      "stà": 8588,
      "lam": 8589,
      "alcol": 8590,
      "accadere": 8591,
      "mbia": 8592,
      "Montene": 8593,
      "lontani": 8594,
      "Montenegro": 8595,
      "bando": 8596,
      "interamente": 8597,
      "privo": 8598,
      "Milose": 8599,
      "Bi": 8600,
      "Hong": 8601,
      "erali": 8602,
      "immobili": 8603,
      "sping": 8604,
      "ttivamente": 8605,
      "uova": 8606,
      "suggerimento": 8607,
      "Nigeria": 8608,
      "ringraziarla": 8609,
      "insediamento": 8610,
      "merlu": 8611,
      "ECH": 8612,
      "Kong": 8613,
      "LE": 8614,
      "comporti": 8615,
      "innocenti": 8616,
      "soppressione": 8617,
      "Frontex": 8618,
      "67": 8619,
      "tio": 8620,
      "nomi": 8621,
      "conseguiti": 8622,
      "compatibilità": 8623,
      "ELDR": 8624,
      "atmosfera": 8625,
      "fla": 8626,
      "istanza": 8627,
      "manipo": 8628,
      "collegamenti": 8629,
      "sollevati": 8630,
      "opposi": 8631,
      "tessili": 8632,
      "sancito": 8633,
      "plau": 8634,
      "impiegare": 8635,
      "etniche": 8636,
      "Milosevic": 8637,
      "autobus": 8638,
      "manifestazione": 8639,
      "profuso": 8640,
      "imprenditoriale": 8641,
      "intollera": 8642,
      "peggiori": 8643,
      "ferroviarie": 8644,
      "Frattini": 8645,
      "Colombia": 8646,
      "dirvi": 8647,
      "ardu": 8648,
      "collab": 8649,
      "attenu": 8650,
      "realistica": 8651,
      "obbligatori": 8652,
      "filosofia": 8653,
      "riafferma": 8654,
      "Rap": 8655,
      "mila": 8656,
      "dolo": 8657,
      "concordi": 8658,
      "giudici": 8659,
      "riusciamo": 8660,
      "successivi": 8661,
      "ripristino": 8662,
      "inquina": 8663,
      "Can": 8664,
      "tuni": 8665,
      "inerenti": 8666,
      "compia": 8667,
      "lezioni": 8668,
      "bato": 8669,
      "elevate": 8670,
      "concezione": 8671,
      "tradurre": 8672,
      "archite": 8673,
      "ECO": 8674,
      "risultano": 8675,
      "rerà": 8676,
      "venuti": 8677,
      "perplessi": 8678,
      "Sopra": 8679,
      "arro": 8680,
      "rumore": 8681,
      "occhio": 8682,
      "incentivare": 8683,
      "Ka": 8684,
      "riportare": 8685,
      "troppe": 8686,
      "corte": 8687,
      "titoli": 8688,
      "mediterraneo": 8689,
      "risiede": 8690,
      "enfasi": 8691,
      "varietà": 8692,
      "tossico": 8693,
      "schiavi": 8694,
      "Centro": 8695,
      "annes": 8696,
      "svantaggiate": 8697,
      "smantellamento": 8698,
      "deteriora": 8699,
      "catture": 8700,
      "vivi": 8701,
      "chiuso": 8702,
      "ming": 8703,
      "pratici": 8704,
      "potrei": 8705,
      "indurre": 8706,
      "aborto": 8707,
      "allonta": 8708,
      "Pren": 8709,
      "trascura": 8710,
      "legislatore": 8711,
      "emergenti": 8712,
      "erando": 8713,
      "sezione": 8714,
      "farebbe": 8715,
      "cesse": 8716,
      "contribuisca": 8717,
      "vincoli": 8718,
      "certificazione": 8719,
      "lussembur": 8720,
      "netta": 8721,
      "uniti": 8722,
      "alleati": 8723,
      "trattava": 8724,
      "concordiamo": 8725,
      "provvedere": 8726,
      "tteremo": 8727,
      "scarso": 8728,
      "petrolif": 8729,
      "codi": 8730,
      "statale": 8731,
      "imper": 8732,
      "mercurio": 8733,
      "seguono": 8734,
      "paradi": 8735,
      "sfol": 8736,
      "polacco": 8737,
      "solidale": 8738,
      "frutta": 8739,
      "eccessivi": 8740,
      "RAT": 8741,
      "esige": 8742,
      "Blair": 8743,
      "contraffazione": 8744,
      "retori": 8745,
      "Indone": 8746,
      "spagnoli": 8747,
      "professione": 8748,
      "ralità": 8749,
      "colleghe": 8750,
      "accogliamo": 8751,
      "entrerà": 8752,
      "Spesso": 8753,
      "Soprattutto": 8754,
      "corsa": 8755,
      "ridotti": 8756,
      "tibe": 8757,
      "proponendo": 8758,
      "produttore": 8759,
      "innovative": 8760,
      "clonazione": 8761,
      "erb": 8762,
      "perà": 8763,
      "procura": 8764,
      "improvvi": 8765,
      "proveniente": 8766,
      "Indonesia": 8767,
      "decisiva": 8768,
      "spiegazione": 8769,
      "Aia": 8770,
      "teori": 8771,
      "condotti": 8772,
      "associati": 8773,
      "transatlantico": 8774,
      "Acco": 8775,
      "noci": 8776,
      "affidabile": 8777,
      "linguistica": 8778,
      "telefoni": 8779,
      "boschi": 8780,
      "coalizione": 8781,
      "legiferare": 8782,
      "esplicito": 8783,
      "originaria": 8784,
      "epidemia": 8785,
      "hoc": 8786,
      "sapre": 8787,
      "farò": 8788,
      "potenzialità": 8789,
      "competitivi": 8790,
      "ingan": 8791,
      "ascolto": 8792,
      "olio": 8793,
      "Riba": 8794,
      "medesimo": 8795,
      "aggiu": 8796,
      "rimpatrio": 8797,
      "produzioni": 8798,
      "llato": 8799,
      "poulo": 8800,
      "convo": 8801,
      "arte": 8802,
      "sorte": 8803,
      "attore": 8804,
      "Husse": 8805,
      "dy": 8806,
      "conformi": 8807,
      "permettono": 8808,
      "Ini": 8809,
      "veto": 8810,
      "risalto": 8811,
      "meriti": 8812,
      "marte": 8813,
      "causare": 8814,
      "spaziale": 8815,
      "tonno": 8816,
      "comporterebbe": 8817,
      "urbane": 8818,
      "ipocrisia": 8819,
      "DG": 8820,
      "aio": 8821,
      "irri": 8822,
      "rifiutato": 8823,
      "inequivocabile": 8824,
      "danza": 8825,
      "lis": 8826,
      "stocca": 8827,
      "parado": 8828,
      "collaboratori": 8829,
      "menzionati": 8830,
      "socialismo": 8831,
      "Tengo": 8832,
      "confinanti": 8833,
      "41": 8834,
      "diano": 8835,
      "stava": 8836,
      "eccezionali": 8837,
      "consultato": 8838,
      "ington": 8839,
      "pretendere": 8840,
      "precauzione": 8841,
      "lattiero": 8842,
      "Hussein": 8843,
      "Bolk": 8844,
      "Sini": 8845,
      "verdi": 8846,
      "arrivati": 8847,
      "Wash": 8848,
      "entri": 8849,
      "leo": 8850,
      "delusione": 8851,
      "nutro": 8852,
      "forniture": 8853,
      "estremo": 8854,
      "ufficialmente": 8855,
      "chiuse": 8856,
      "precedentemente": 8857,
      "capitoli": 8858,
      "Né": 8859,
      "polo": 8860,
      "semin": 8861,
      "ficano": 8862,
      "stragrande": 8863,
      "mediazione": 8864,
      "aggiuntivi": 8865,
      "andrebbero": 8866,
      "stoccaggio": 8867,
      "rilancio": 8868,
      "preadesione": 8869,
      "stipen": 8870,
      "entrato": 8871,
      "industrializzati": 8872,
      "significative": 8873,
      "abbandono": 8874,
      "Washington": 8875,
      "segni": 8876,
      "individuo": 8877,
      "mantenendo": 8878,
      "immagini": 8879,
      "ttrici": 8880,
      "subiscono": 8881,
      "dirle": 8882,
      "gramma": 8883,
      "proporzioni": 8884,
      "linguaggio": 8885,
      "impianto": 8886,
      "47": 8887,
      "revi": 8888,
      "siedono": 8889,
      "mole": 8890,
      "prolun": 8891,
      "stretti": 8892,
      "rinnovo": 8893,
      "elettroniche": 8894,
      "pore": 8895,
      "ineffica": 8896,
      "significherebbe": 8897,
      "consulenza": 8898,
      "fissazione": 8899,
      "firmare": 8900,
      "ferroviaria": 8901,
      "secutivo": 8902,
      "diffondere": 8903,
      "fabbisogno": 8904,
      "id": 8905,
      "ye": 8906,
      "decre": 8907,
      "cielo": 8908,
      "assicurato": 8909,
      "Europea": 8910,
      "squadra": 8911,
      "CNS": 8912,
      "cale": 8913,
      "ondata": 8914,
      "inca": 8915,
      "richiesti": 8916,
      "intensità": 8917,
      "offen": 8918,
      "diffuso": 8919,
      "vicina": 8920,
      "compagnia": 8921,
      "Occidente": 8922,
      "beri": 8923,
      "hara": 8924,
      "trattate": 8925,
      "Schmi": 8926,
      "mirate": 8927,
      "adulti": 8928,
      "presidenziali": 8929,
      "LI": 8930,
      "incar": 8931,
      "profondi": 8932,
      "permetterci": 8933,
      "insegnanti": 8934,
      "Darfur": 8935,
      "smettere": 8936,
      "stile": 8937,
      "biologica": 8938,
      "sinceri": 8939,
      "Sinistra": 8940,
      "TA": 8941,
      "aller": 8942,
      "spettro": 8943,
      "basati": 8944,
      "ripetersi": 8945,
      "verificano": 8946,
      "transitorio": 8947,
      "sospetto": 8948,
      "dirci": 8949,
      "tabili": 8950,
      "ssido": 8951,
      "armati": 8952,
      "tengono": 8953,
      "ambiguità": 8954,
      "frustra": 8955,
      "verificarsi": 8956,
      "sedute": 8957,
      "bby": 8958,
      "ostacolare": 8959,
      "conduce": 8960,
      "eccellenza": 8961,
      "onata": 8962,
      "registrano": 8963,
      "ugoslava": 8964,
      "vendere": 8965,
      "boda": 8966,
      "sindacali": 8967,
[...]
