{
  "version": "1.0",
  "truncation": null,
  "padding": null,
  "added_tokens": [
    {
      "id": 0,
      "content": "[PAD]",
      "single_word": false,
      "lstrip": false,
      "rstrip": false,
      "normalized": false,
      "special": true
    },
    {
      "id": 1,
      "content": "[SOS]",
      "single_word": false,
      "lstrip": false,
      "rstrip": false,
      "normalized": false,
      "special": true
    },
    {
      "id": 2,
      "content": "[EOS]",
      "single_word": false,
      "lstrip": false,
      "rstrip": false,
      "normalized": false,
      "special": true
    }
  ],
  "normalizer": null,
  "pre_tokenizer": {
    "type": "Whitespace"
  },
  "post_processor": null,
  "decoder": null,
  "model": {
    "type": "BPE",
    "dropout": null,
    "unk_token": null,
    "continuing_subword_prefix": null,
    "end_of_word_suffix": null,
    "fuse_unk": false,
    "byte_fallback": false,
    "ignore_merges": false,
    "vocab": {
      "[PAD]": 0,
      "[SOS]": 1,
      "[EOS]": 2,
      "!": 3,
      "\"": 4,
      "#": 5,
      "$": 6,
      "%": 7,
      "&": 8,
      "'": 9,
      "(": 10,
      ")": 11,
      "*": 12,
      "+": 13,
      ",": 14,
      "-": 15,
      ".": 16,
      "/": 17,
      "0": 18,
      "1": 19,
      "2": 20,
      "3": 21,
      "4": 22,
      "5": 23,
      "6": 24,
      "7": 25,
      "8": 26,
      "9": 27,
      ":": 28,
      ";": 29,
      "<": 30,
      "=": 31,
      ">": 32,
      "?": 33,
      "@": 34,
      "A": 35,
      "B": 36,
      "C": 37,
      "D": 38,
      "E": 39,
      "F": 40,
      "G": 41,
      "H": 42,
      "I": 43,
      "J": 44,
      "K": 45,
      "L": 46,
      "M": 47,
      "N": 48,
      "O": 49,
      "P": 50,
      "Q": 51,
      "R": 52,
      "S": 53,
      "T": 54,
      "U": 55,
      "V": 56,
      "W": 57,
      "X": 58,
      "Y": 59,
      "Z": 60,
      "[": 61,
      "\\": 62,
      "]": 63,
      "_": 64,
      "`": 65,
      "a": 66,
      "b": 67,
      "c": 68,
      "d": 69,
      "e": 70,
      "f": 71,
      "g": 72,
      "h": 73,
      "i": 74,
      "j": 75,
      "k": 76,
      "l": 77,
      "m": 78,
      "n": 79,
      "o": 80,
      "p": 81,
      "q": 82,
      "r": 83,
      "s": 84,
      "t": 85,
      "u": 86,
      "v": 87,
      "w": 88,
      "x": 89,
      "y": 90,
      "z": 91,
      "|": 92,
      "¡": 93,
      "£": 94,
      "§": 95,
      "©": 96,
      "«": 97,
      "­": 98,
      "°": 99,
      "±": 100,
      "²": 101,
      "³": 102,
      "´": 103,
      "µ": 104,
      "·": 105,
      "¹": 106,
      "º": 107,
      "»": 108,
      "¼": 109,
      "½": 110,
      "¾": 111,
      "Á": 112,
      "Â": 113,
      "Ä": 114,
      "Å": 115,
      "Ç": 116,
      "É": 117,
      "Ê": 118,
      "Ì": 119,
      "Í": 120,
      "Î": 121,
      "Ï": 122,
      "Ð": 123,
      "Ñ": 124,
      "Ó": 125,
      "Ô": 126,
      "Ö": 127,
      "Ø": 128,
      "Ù": 129,
      "Ú": 130,
      "Ü": 131,
      "Ý": 132,
      "ß": 133,
      "à": 134,
      "á": 135,
      "â": 136,
      "ã": 137,
      "ä": 138,
      "å": 139,
      "æ": 140,
      "ç": 141,
      "è": 142,
      "é": 143,
      "ê": 144,
      "ë": 145,
      "ì": 146,
      "í": 147,
      "î": 148,
      "ï": 149,
      "ð": 150,
      "ñ": 151,
      "ò": 152,
      "ó": 153,
      "ô": 154,
      "õ": 155,
      "ö": 156,
      "÷": 157,
      "ø": 158,
      "ù": 159,
      "ú": 160,
      "û": 161,
      "ü": 162,
      "ý": 163,
      "þ": 164,
      "ā": 165,
      "ă": 166,
      "ą": 167,
      "Ć": 168,
      "ć": 169,
      "ĉ": 170,
      "Č": 171,
      "č": 172,
      "ď": 173,
      "Đ": 174,
      "đ": 175,
      "ē": 176,
      "ė": 177,
      "ę": 178,
      "ě": 179,
      "ğ": 180,
      "Ģ": 181,
      "ī": 182,
      "İ": 183,
      "ı": 184,
      "ķ": 185,
      "Ľ": 186,
      "ľ": 187,
      "Ł": 188,
      "ł": 189,
      "ń": 190,
      "ņ": 191,
      "ň": 192,
      "ō": 193,
      "Ő": 194,
      "ő": 195,
      "œ": 196,
      "Ř": 197,
      "ř": 198,
      "Ś": 199,
      "ś": 200,
      "Ş": 201,
      "ş": 202,
      "Š": 203,
      "š": 204,
      "Ţ": 205,
      "ţ": 206,
      "ť": 207,
      "ū": 208,
      "ů": 209,
      "ų": 210,
      "ŵ": 211,
      "ź": 212,
      "Ż": 213,
      "ż": 214,
      "Ž": 215,
      "ž": 216,
      "ǎ": 217,
      "ǐ": 218,
      "ș": 219,
      "ʻ": 220,
      "˚": 221,
      "Α": 222,
      "Β": 223,
      "Ε": 224,
      "Ι": 225,
      "Κ": 226,
      "Μ": 227,
      "Ν": 228,
      "Ο": 229,
      "Π": 230,
      "Ρ": 231,
      "Τ": 232,
      "Υ": 233,
      "ά": 234,
      "έ": 235,
      "ή": 236,
      "ί": 237,
      "α": 238,
      "β": 239,
      "γ": 240,
      "δ": 241,
      "ε": 242,
      "η": 243,
      "ι": 244,
      "κ": 245,
      "λ": 246,
      "μ": 247,
      "ν": 248,
      "ο": 249,
      "π": 250,
      "ρ": 251,
      "ς": 252,
      "σ": 253,
      "τ": 254,
      "υ": 255,
      "φ": 256,
      "χ": 257,
      "ω": 258,
      "ό": 259,
      "ύ": 260,
      "ώ": 261,
      "Є": 262,
      "А": 263,
      "Д": 264,
      "М": 265,
      "Н": 266,
      "О": 267,
      "П": 268,
      "Т": 269,
      "У": 270,
      "а": 271,
      "б": 272,
      "в": 273,
      "г": 274,
      "д": 275,
      "е": 276,
      "ж": 277,
      "з": 278,
      "и": 279,
      "й": 280,
      "к": 281,
      "л": 282,
      "м": 283,
      "н": 284,
      "о": 285,
      "п": 286,
      "р": 287,
      "с": 288,
      "т": 289,
      "у": 290,
      "ч": 291,
      "ш": 292,
      "ъ": 293,
      "ы": 294,
      "ь": 295,
      "ю": 296,
      "я": 297,
      "є": 298,
      "і": 299,
      "ї": 300,
      "​": 301,
      "–": 302,
      "—": 303,
      "―": 304,
      "‘": 305,
      "’": 306,
      "“": 307,
      "”": 308,
      "•": 309,
      "…": 310,
      "€": 311,
      "−": 312,
      "≤": 313,
      "th": 314,
      "the": 315,
      "in": 316,
      "on": 317,
      "re": 318,
      "an": 319,
      "at": 320,
      "en": 321,
      "is": 322,
      "er": 323,
      "or": 324,
      "al": 325,
      "ion": 326,
      "to": 327,
      "of": 328,
      "es": 329,
      "ou": 330,
      "it": 331,
      "and": 332,
      "ed": 333,
      "ro": 334,
      "ar": 335,
      "ing": 336,
      "ent": 337,
      "ic": 338,
      "as": 339,
      "st": 340,
      "le": 341,
      "om": 342,
      "be": 343,
      "ve": 344,
      "that": 345,
      "ct": 346,
      "se": 347,
      "pe": 348,
      "il": 349,
      "for": 350,
      "ly": 351,
      "ation": 352,
      "ment": 353,
      "de": 354,
      "we": 355,
      "wh": 356,
      "pro": 357,
      "res": 358,
      "no": 359,
      "con": 360,
      "po": 361,
      "im": 362,
      "he": 363,
      "su": 364,
      "are": 365,
      "ce": 366,
      "id": 367,
      "ha": 368,
      "li": 369,
      "ut": 370,
      "ld": 371,
      "ch": 372,
      "ra": 373,
      "ort": 374,
      "this": 375,
      "omm": 376,
      "un": 377,
      "ver": 378,
      "uro": 379,
      "port": 380,
      "so": 381,
      "ul": 382,
      "Euro": 383,
      "ith": 384,
      "Europe": 385,
      "lo": 386,
      "not": 387,
      "ab": 388,
      "with": 389,
      "ri": 390,
      "te": 391,
      "ad": 392,
      "ter": 393,
      "ould": 394,
      "ne": 395,
      "ur": 396,
      "ill": 397,
      "ag": 398,
      "have": 399,
      "me": 400,
      "our": 401,
      "ke": 402,
      "ate": 403,
      "sion": 404,
      "oun": 405,
      "ir": 406,
      "gh": 407,
      "The": 408,
      "mo": 409,
      "ay": 410,
      "ich": 411,
      "ity": 412,
      "Comm": 413,
      "op": 414,
      "which": 415,
      "European": 416,
      "em": 417,
      "ci": 418,
      "sh": 419,
      "ex": 420,
      "ive": 421,
      "com": 422,
      "am": 423,
      "all": 424,
      "us": 425,
      "by": 426,
      "will": 427,
      "ust": 428,
      "ta": 429,
      "ac": 430,
      "has": 431,
      "ission": 432,
      "ts": 433,
      "ess": 434,
      "ber": 435,
      "ther": 436,
      "qu": 437,
      "fe": 438,
      "ma": 439,
      "ge": 440,
      "ies": 441,
      "Mr": 442,
      "Commission": 443,
      "pos": 444,
      "end": 445,
      "if": 446,
      "ol": 447,
      "ant": 448,
      "wor": 449,
      "est": 450,
      "par": 451,
      "act": 452,
      "out": 453,
      "do": 454,
      "tr": 455,
      "si": 456,
      "resid": 457,
      "ions": 458,
      "ap": 459,
      "lic": 460,
      "Th": 461,
      "ers": 462,
      "one": 463,
      "go": 464,
      "Presid": 465,
      "co": 466,
      "but": 467,
      "man": 468,
      "would": 469,
      "also": 470,
      "coun": 471,
      "Un": 472,
      "there": 473,
      "can": 474,
      "ament": 475,
      "ard": 476,
      "should": 477,
      "iv": 478,
      "reg": 479,
      "President": 480,
      "ally": 481,
      "rom": 482,
      "part": 483,
      "pl": 484,
      "und": 485,
      "We": 486,
      "ble": 487,
      "ates": 488,
      "from": 489,
      "fo": 490,
      "ren": 491,
      "ure": 492,
      "able": 493,
      "must": 494,
      "very": 495,
      "au": 496,
      "liament": 497,
      "Par": 498,
      "ist": 499,
      "du": 500,
      "ans": 501,
      "work": 502,
      "ations": 503,
      "ree": 504,
      "St": 505,
      "In": 506,
      "Mem": 507,
      "Member": 508,
      "ght": 509,
      "ple": 510,
      "been": 511,
      "cl": 512,
      "ish": 513,
      "ments": 514,
      "comm": 515,
      "vi": 516,
      "its": 517,
      "It": 518,
      "od": 519,
      "ho": 520,
      "Union": 521,
      "str": 522,
      "ind": 523,
      "Parliament": 524,
      "ous": 525,
      "tri": 526,
      "cr": 527,
      "int": 528,
      "ud": 529,
      "report": 530,
      "cial": 531,
      "was": 532,
      "reat": 533,
      "ire": 534,
      "more": 535,
      "you": 536,
      "fic": 537,
      "now": 538,
      "pres": 539,
      "gr": 540,
      "ary": 541,
      "sa": 542,
      "ain": 543,
      "pport": 544,
      "pre": 545,
      "ef": 546,
      "fore": 547,
      "other": 548,
      "per": 549,
      "need": 550,
      "dis": 551,
      "ical": 552,
      "ult": 553,
      "cess": 554,
      "cil": 555,
      "like": 556,
      "EU": 557,
      "ance": 558,
      "ction": 559,
      "States": 560,
      "cer": 561,
      "ll": 562,
      "00": 563,
      "form": 564,
      "tim": 565,
      "who": 566,
      "Coun": 567,
      "their": 568,
      "ord": 569,
      "Council": 570,
      "import": 571,
      "ome": 572,
      "vo": 573,
      "pr": 574,
      "ev": 575,
      "up": 576,
      "ye": 577,
      "ach": 578,
      "ctive": 579,
      "um": 580,
      "ition": 581,
      "ted": 582,
      "king": 583,
      "polic": 584,
      "propos": 585,
      "ob": 586,
      "This": 587,
      "ong": 588,
      "these": 589,
      "ational": 590,
      "cre": 591,
      "cy": 592,
      "fin": 593,
      "ast": 594,
      "they": 595,
      "spe": 596,
      "gn": 597,
      "leg": 598,
      "je": 599,
      "tra": 600,
      "fa": 601,
      "tries": 602,
      "ces": 603,
      "ause": 604,
      "way": 605,
      "countries": 606,
      "econ": 607,
      "ence": 608,
      "ser": 609,
      "ting": 610,
      "new": 611,
      "some": 612,
      "tern": 613,
      "what": 614,
      "than": 615,
      "bet": 616,
      "ated": 617,
      "iti": 618,
      "mar": 619,
      "low": 620,
      "my": 621,
      "lop": 622,
      "velop": 623,
      "gu": 624,
      "ise": 625,
      "ens": 626,
      "about": 627,
      "support": 628,
      "ople": 629,
      "ities": 630,
      "cur": 631,
      "ty": 632,
      "ough": 633,
      "cause": 634,
      "age": 635,
      "ution": 636,
      "ful": 637,
      "important": 638,
      "time": 639,
      "year": 640,
      "ced": 641,
      "over": 642,
      "lit": 643,
      "develop": 644,
      "ial": 645,
      "people": 646,
      "agree": 647,
      "econom": 648,
      "only": 649,
      "tain": 650,
      "any": 651,
      "lear": 652,
      "ms": 653,
      "partic": 654,
      "whe": 655,
      "ility": 656,
      "thing": 657,
      "under": 658,
      "cont": 659,
      "ow": 660,
      "policy": 661,
      "issu": 662,
      "come": 663,
      "again": 664,
      "because": 665,
      "proposal": 666,
      "ject": 667,
      "eve": 668,
      "ular": 669,
      "tee": 670,
      "prov": 671,
      "gy": 672,
      "ghts": 673,
      "day": 674,
      "ener": 675,
      "ase": 676,
      "fir": 677,
      "ose": 678,
      "fact": 679,
      "get": 680,
      "them": 681,
      "quest": 682,
      "ub": 683,
      "clear": 684,
      "take": 685,
      "ia": 686,
      "pect": 687,
      "pt": 688,
      "sel": 689,
      "just": 690,
      "present": 691,
      "polit": 692,
      "la": 693,
      "ine": 694,
      "ice": 695,
      "such": 696,
      "unity": 697,
      "trans": 698,
      "dif": 699,
      "ue": 700,
      "200": 701,
      "oper": 702,
      "wever": 703,
      "pon": 704,
      "red": 705,
      "ative": 706,
      "ip": 707,
      "prog": 708,
      "into": 709,
      "rent": 710,
      "sible": 711,
      "say": 712,
      "particular": 713,
      "make": 714,
      "sub": 715,
      "inte": 716,
      "cern": 717,
      "dec": 718,
      "inv": 719,
      "produ": 720,
      "rel": 721,
      "ween": 722,
      "stit": 723,
      "deb": 724,
      "oup": 725,
      "ass": 726,
      "between": 727,
      "concern": 728,
      "those": 729,
      "ures": 730,
      "ace": 731,
      "sure": 732,
      "ks": 733,
      "af": 734,
      "proble": 735,
      "hu": 736,
      "marke": 737,
      "try": 738,
      "being": 739,
      "ittee": 740,
      "sy": 741,
      "chan": 742,
      "min": 743,
      "rights": 744,
      "point": 745,
      "respon": 746,
      "when": 747,
      "know": 748,
      "pri": 749,
      "beli": 750,
      "cus": 751,
      "read": 752,
      "dire": 753,
      "sit": 754,
      "therefore": 755,
      "economic": 756,
      "ew": 757,
      "ep": 758,
      "ating": 759,
      "bas": 760,
      "ink": 761,
      "el": 762,
      "emp": 763,
      "mon": 764,
      "mat": 765,
      "cons": 766,
      "ress": 767,
      "political": 768,
      "many": 769,
      "rest": 770,
      "xt": 771,
      "made": 772,
      "comp": 773,
      "igh": 774,
      "sol": 775,
      "stru": 776,
      "bo": 777,
      "ural": 778,
      "were": 779,
      "ide": 780,
      "ards": 781,
      "order": 782,
      "fund": 783,
      "ublic": 784,
      "cent": 785,
      "first": 786,
      "ency": 787,
      "human": 788,
      "stand": 789,
      "most": 790,
      "view": 791,
      "Commissioner": 792,
      "ound": 793,
      "stem": 794,
      "great": 795,
      "believe": 796,
      "intern": 797,
      "ious": 798,
      "ives": 799,
      "see": 800,
      "right": 801,
      "main": 802,
      "ision": 803,
      "add": 804,
      "where": 805,
      "itiz": 806,
      "use": 807,
      "system": 808,
      "cond": 809,
      "against": 810,
      "fi": 811,
      "ite": 812,
      "social": 813,
      "ention": 814,
      "finan": 815,
      "then": 816,
      "meas": 817,
      "uation": 818,
      "debate": 819,
      "ving": 820,
      "ian": 821,
      "mber": 822,
      "et": 823,
      "prote": 824,
      "vel": 825,
      "ack": 826,
      "want": 827,
      "market": 828,
      "here": 829,
      "citiz": 830,
      "ors": 831,
      "As": 832,
      "tw": 833,
      "app": 834,
      "incl": 835,
      "ram": 836,
      "amend": 837,
      "abl": 838,
      "alth": 839,
      "appro": 840,
      "effe": 841,
      "think": 842,
      "sum": 843,
      "serv": 844,
      "uch": 845,
      "That": 846,
      "arge": 847,
      "long": 848,
      "tak": 849,
      "incre": 850,
      "fer": 851,
      "well": 852,
      "call": 853,
      "There": 854,
      "vir": 855,
      "even": 856,
      "ised": 857,
      "too": 858,
      "good": 859,
      "possible": 860,
      "Con": 861,
      "development": 862,
      "put": 863,
      "men": 864,
      "plement": 865,
      "Committee": 866,
      "cept": 867,
      "issue": 868,
      "Wh": 869,
      "country": 870,
      "pet": 871,
      "ves": 872,
      "ual": 873,
      "adop": 874,
      "question": 875,
      "years": 876,
      "national": 877,
      "ism": 878,
      "less": 879,
      "own": 880,
      "level": 881,
      "fut": 882,
      "public": 883,
      "onment": 884,
      "far": 885,
      "bud": 886,
      "contin": 887,
      "situation": 888,
      "gent": 889,
      "ry": 890,
      "operation": 891,
      "regard": 892,
      "future": 893,
      "ready": 894,
      "ited": 895,
      "two": 896,
      "ices": 897,
      "resol": 898,
      "vern": 899,
      "bility": 900,
      "inform": 901,
      "citizens": 902,
      "govern": 903,
      "vironment": 904,
      "had": 905,
      "cour": 906,
      "iven": 907,
      "cannot": 908,
      "med": 909,
      "qual": 910,
      "exam": 911,
      "imp": 912,
      "ific": 913,
      "dra": 914,
      "row": 915,
      "same": 916,
      "rough": 917,
      "demo": 918,
      "ulation": 919,
      "does": 920,
      "ext": 921,
      "isl": 922,
      "measures": 923,
      "high": 924,
      "set": 925,
      "program": 926,
      "every": 927,
      "ign": 928,
      "ak": 929,
      "hap": 930,
      "loy": 931,
      "ory": 932,
      "lect": 933,
      "bal": 934,
      "could": 935,
      "requ": 936,
      "br": 937,
      "certain": 938,
      "said": 939,
      "agreement": 940,
      "today": 941,
      "through": 942,
      "ask": 943,
      "sp": 944,
      "vote": 945,
      "ric": 946,
      "ider": 947,
      "much": 948,
      "interest": 949,
      "implement": 950,
      "matter": 951,
      "isation": 952,
      "financial": 953,
      "already": 954,
      "ti": 955,
      "compet": 956,
      "ig": 957,
      "achi": 958,
      "how": 959,
      "legisl": 960,
      "within": 961,
      "ship": 962,
      "eur": 963,
      "process": 964,
      "num": 965,
      "taken": 966,
      "rit": 967,
      "Ho": 968,
      "thor": 969,
      "Mrs": 970,
      "cts": 971,
      "still": 972,
      "real": 973,
      "mi": 974,
      "feren": 975,
      "ild": 976,
      "reas": 977,
      "instit": 978,
      "world": 979,
      "rapport": 980,
      "place": 981,
      "rapporteur": 982,
      "environment": 983,
      "19": 984,
      "col": 985,
      "your": 986,
      "sect": 987,
      "budget": 988,
      "des": 989,
      "discus": 990,
      "legal": 991,
      "20": 992,
      "gan": 993,
      "common": 994,
      "law": 995,
      "However": 996,
      "hope": 997,
      "group": 998,
      "sign": 999,
      "Af": 1000,
      "both": 1001,
      "tion": 1002,
      "position": 1003,
      "consider": 1004,
      "utions": 1005,
      "course": 1006,
      "ince": 1007,
      "Community": 1008,
      "ck": 1009,
      "cooperation": 1010,
      "respect": 1011,
      "necess": 1012,
      "employ": 1013,
      "self": 1014,
      "ouse": 1015,
      "inci": 1016,
      "reason": 1017,
      "ensure": 1018,
      "state": 1019,
      "action": 1020,
      "urther": 1021,
      "reed": 1022,
      "international": 1023,
      "hel": 1024,
      "hal": 1025,
      "ten": 1026,
      "case": 1027,
      "princi": 1028,
      "curity": 1029,
      "clo": 1030,
      "De": 1031,
      "fair": 1032,
      "car": 1033,
      "inter": 1034,
      "number": 1035,
      "Am": 1036,
      "last": 1037,
      "omen": 1038,
      "fra": 1039,
      "di": 1040,
      "area": 1041,
      "crat": 1042,
      "his": 1043,
      "ability": 1044,
      "current": 1045,
      "ffic": 1046,
      "itions": 1047,
      "large": 1048,
      "gener": 1049,
      "may": 1050,
      "soci": 1051,
      "arch": 1052,
      "tal": 1053,
      "why": 1054,
      "energy": 1055,
      "includ": 1056,
      "pen": 1057,
      "author": 1058,
      "ner": 1059,
      "sing": 1060,
      "jor": 1061,
      "half": 1062,
      "help": 1063,
      "major": 1064,
      "ved": 1065,
      "speci": 1066,
      "Ch": 1067,
      "information": 1068,
      "reaty": 1069,
      "means": 1070,
      "ph": 1071,
      "aim": 1072,
      "sur": 1073,
      "wel": 1074,
      "text": 1075,
      "gentle": 1076,
      "strate": 1077,
      "problem": 1078,
      "necessary": 1079,
      "aid": 1080,
      "lad": 1081,
      "gentlemen": 1082,
      "example": 1083,
      "No": 1084,
      "deal": 1085,
      "ning": 1086,
      "att": 1087,
      "without": 1088,
      "initi": 1089,
      "ile": 1090,
      "peri": 1091,
      "invol": 1092,
      "ese": 1093,
      "crim": 1094,
      "Mad": 1095,
      "protection": 1096,
      "wer": 1097,
      "ran": 1098,
      "pare": 1099,
      "pers": 1100,
      "wn": 1101,
      "however": 1102,
      "ollow": 1103,
      "safe": 1104,
      "If": 1105,
      "directive": 1106,
      "problems": 1107,
      "ules": 1108,
      "itive": 1109,
      "House": 1110,
      "allow": 1111,
      "commit": 1112,
      "goti": 1113,
      "mit": 1114,
      "fav": 1115,
      "So": 1116,
      "pend": 1117,
      "region": 1118,
      "negoti": 1119,
      "sed": 1120,
      "organ": 1121,
      "decision": 1122,
      "redu": 1123,
      "ential": 1124,
      "ges": 1125,
      "oura": 1126,
      "change": 1127,
      "val": 1128,
      "Madam": 1129,
      "particularly": 1130,
      "ately": 1131,
      "indust": 1132,
      "opport": 1133,
      "health": 1134,
      "give": 1135,
      "security": 1136,
      "before": 1137,
      "represent": 1138,
      "ablish": 1139,
      "issues": 1140,
      "used": 1141,
      "establish": 1142,
      "since": 1143,
      "lin": 1144,
      "tribut": 1145,
      "led": 1146,
      "conf": 1147,
      "wish": 1148,
      "follow": 1149,
      "given": 1150,
      "Gr": 1151,
      "An": 1152,
      "pra": 1153,
      "ient": 1154,
      "lead": 1155,
      "tech": 1156,
      "areas": 1157,
      "resolution": 1158,
      "ban": 1159,
      "jo": 1160,
      "accept": 1161,
      "cal": 1162,
      "illion": 1163,
      "consum": 1164,
      "sector": 1165,
      "cris": 1166,
      "Treaty": 1167,
      "open": 1168,
      "member": 1169,
      "ferent": 1170,
      "mework": 1171,
      "employment": 1172,
      "plan": 1173,
      "ward": 1174,
      "tic": 1175,
      "Group": 1176,
      "further": 1177,
      "key": 1178,
      "cing": 1179,
      "ater": 1180,
      "women": 1181,
      "specific": 1182,
      "proced": 1183,
      "sibility": 1184,
      "ficult": 1185,
      "difficult": 1186,
      "Re": 1187,
      "loo": 1188,
      "uring": 1189,
      "ird": 1190,
      "require": 1191,
      "whether": 1192,
      "cor": 1193,
      "thank": 1194,
      "increas": 1195,
      "cra": 1196,
      "ladies": 1197,
      "ways": 1198,
      "amendments": 1199,
      "ues": 1200,
      "favour": 1201,
      "dem": 1202,
      "inde": 1203,
      "different": 1204,
      "opin": 1205,
      "fish": 1206,
      "accoun": 1207,
      "result": 1208,
      "invest": 1209,
      "United": 1210,
      "expres": 1211,
      "role": 1212,
      "hand": 1213,
      "Members": 1214,
      "concl": 1215,
      "suc": 1216,
      "contribut": 1217,
      "after": 1218,
      "isions": 1219,
      "proposals": 1220,
      "ources": 1221,
      "gen": 1222,
      "On": 1223,
      "prev": 1224,
      "programme": 1225,
      "crit": 1226,
      "going": 1227,
      "provid": 1228,
      "behalf": 1229,
      "ultural": 1230,
      "ied": 1231,
      "effective": 1232,
      "serious": 1233,
      "cord": 1234,
      "ss": 1235,
      "terms": 1236,
      "ru": 1237,
      "elect": 1238,
      "basis": 1239,
      "ference": 1240,
      "fully": 1241,
      "contro": 1242,
      "trade": 1243,
      "promo": 1244,
      "199": 1245,
      "pay": 1246,
      "services": 1247,
      "effor": 1248,
      "iz": 1249,
      "prove": 1250,
      "next": 1251,
      "pract": 1252,
      "ca": 1253,
      "usion": 1254,
      "crisis": 1255,
      "done": 1256,
      "cap": 1257,
      "ref": 1258,
      "rules": 1259,
      "wards": 1260,
      "For": 1261,
      "reform": 1262,
      "progress": 1263,
      "ude": 1264,
      "word": 1265,
      "av": 1266,
      "reco": 1267,
      "quality": 1268,
      "framework": 1269,
      "road": 1270,
      "better": 1271,
      "vis": 1272,
      "comple": 1273,
      "adopted": 1274,
      "ident": 1275,
      "grow": 1276,
      "art": 1277,
      "ict": 1278,
      "legislation": 1279,
      "ris": 1280,
      "Pro": 1281,
      "cas": 1282,
      "light": 1283,
      "approach": 1284,
      "find": 1285,
      "ben": 1286,
      "ination": 1287,
      "second": 1288,
      "needs": 1289,
      "prior": 1290,
      "mention": 1291,
      "ail": 1292,
      "gration": 1293,
      "ister": 1294,
      "ute": 1295,
      "mely": 1296,
      "subject": 1297,
      "der": 1298,
      "What": 1299,
      "aw": 1300,
      "ft": 1301,
      "vers": 1302,
      "land": 1303,
      "making": 1304,
      "continue": 1305,
      "government": 1306,
      "ital": 1307,
      "cratic": 1308,
      "whole": 1309,
      "But": 1310,
      "opinion": 1311,
      "struct": 1312,
      "step": 1313,
      "mis": 1314,
      "reedom": 1315,
      "institutions": 1316,
      "voted": 1317,
      "ged": 1318,
      "selves": 1319,
      "mone": 1320,
      "project": 1321,
      "forward": 1322,
      "reach": 1323,
      "play": 1324,
      "job": 1325,
      "oc": 1326,
      "back": 1327,
      "vious": 1328,
      "tur": 1329,
      "agric": 1330,
      "lim": 1331,
      "working": 1332,
      "aran": 1333,
      "State": 1334,
      "recent": 1335,
      "log": 1336,
      "commun": 1337,
      "concerned": 1338,
      "move": 1339,
      "sm": 1340,
      "force": 1341,
      "cost": 1342,
      "lobal": 1343,
      "ought": 1344,
      "improve": 1345,
      "person": 1346,
      "Al": 1347,
      "tax": 1348,
      "direct": 1349,
      "amental": 1350,
      "three": 1351,
      "colle": 1352,
      "down": 1353,
      "account": 1354,
      "welcome": 1355,
      "ness": 1356,
      "taking": 1357,
      "Fin": 1358,
      "Min": 1359,
      "ger": 1360,
      "towards": 1361,
      "inf": 1362,
      "few": 1363,
      "exist": 1364,
      "search": 1365,
      "child": 1366,
      "cracy": 1367,
      "transport": 1368,
      "guaran": 1369,
      "bring": 1370,
      "something": 1371,
      "conditions": 1372,
      "gether": 1373,
      "free": 1374,
      "her": 1375,
      "Tur": 1376,
      "bu": 1377,
      "rodu": 1378,
      "pur": 1379,
      "freedom": 1380,
      "term": 1381,
      "regulation": 1382,
      "introdu": 1383,
      "remain": 1384,
      "cially": 1385,
      "achieve": 1386,
      "ulture": 1387,
      "war": 1388,
      "principle": 1389,
      "small": 1390,
      "fac": 1391,
      "resources": 1392,
      "simp": 1393,
      "che": 1394,
      "ists": 1395,
      "var": 1396,
      "atives": 1397,
      "cho": 1398,
      "ven": 1399,
      "ily": 1400,
      "third": 1401,
      "based": 1402,
      "coming": 1403,
      "mor": 1404,
      "pose": 1405,
      "including": 1406,
      "line": 1407,
      "access": 1408,
      "mind": 1409,
      "ime": 1410,
      "na": 1411,
      "together": 1412,
      "als": 1413,
      "mp": 1414,
      "iness": 1415,
      "eld": 1416,
      "bus": 1417,
      "success": 1418,
      "vention": 1419,
      "understand": 1420,
      "importance": 1421,
      "proposed": 1422,
      "nat": 1423,
      "vide": 1424,
      "Presidency": 1425,
      "ising": 1426,
      "ually": 1427,
      "opportunity": 1428,
      "arity": 1429,
      "global": 1430,
      "shall": 1431,
      "really": 1432,
      "million": 1433,
      "ror": 1434,
      "authorities": 1435,
      "bon": 1436,
      "did": 1437,
      "general": 1438,
      "ear": 1439,
      "control": 1440,
      "provide": 1441,
      "coura": 1442,
      "fairs": 1443,
      "strong": 1444,
      "ically": 1445,
      "research": 1446,
      "policies": 1447,
      "espe": 1448,
      "increase": 1449,
      "har": 1450,
      "regul": 1451,
      "ety": 1452,
      "especially": 1453,
      "industry": 1454,
      "during": 1455,
      "peace": 1456,
      "tru": 1457,
      "stain": 1458,
      "medi": 1459,
      "recogn": 1460,
      "Ar": 1461,
      "activ": 1462,
      "Is": 1463,
      "At": 1464,
      "sen": 1465,
      "sequ": 1466,
      "lig": 1467,
      "cation": 1468,
      "ore": 1469,
      "ussi": 1470,
      "adv": 1471,
      "strategy": 1472,
      "democratic": 1473,
      "imate": 1474,
      "ents": 1475,
      "clearly": 1476,
      "safety": 1477,
      "paren": 1478,
      "appropri": 1479,
      "side": 1480,
      "responsibility": 1481,
      "environmental": 1482,
      "fundamental": 1483,
      "viol": 1484,
      "ants": 1485,
      "look": 1486,
      "exp": 1487,
      "greater": 1488,
      "products": 1489,
      "Russi": 1490,
      "negotiations": 1491,
      "air": 1492,
      "ints": 1493,
      "ivid": 1494,
      "reng": 1495,
      "become": 1496,
      "itself": 1497,
      "another": 1498,
      "defin": 1499,
      "cted": 1500,
      "least": 1501,
      "10": 1502,
      "power": 1503,
      "mes": 1504,
      "let": 1505,
      "streng": 1506,
      "turn": 1507,
      "quite": 1508,
      "les": 1509,
      "ral": 1510,
      "benef": 1511,
      "He": 1512,
      "rather": 1513,
      "gue": 1514,
      "business": 1515,
      "mee": 1516,
      "object": 1517,
      "care": 1518,
      "though": 1519,
      "sup": 1520,
      "They": 1521,
      "off": 1522,
      "show": 1523,
      "speak": 1524,
      "gin": 1525,
      "aware": 1526,
      "extre": 1527,
      "while": 1528,
      "ross": 1529,
      "gra": 1530,
      "ilit": 1531,
      "addition": 1532,
      "instru": 1533,
      "net": 1534,
      "achiev": 1535,
      "prom": 1536,
      "democracy": 1537,
      "tun": 1538,
      "always": 1539,
      "demand": 1540,
      "dist": 1541,
      "ank": 1542,
      "essential": 1543,
      "grat": 1544,
      "bod": 1545,
      "regions": 1546,
      "top": 1547,
      "attention": 1548,
      "food": 1549,
      "prevent": 1550,
      "These": 1551,
      "comb": 1552,
      "positive": 1553,
      "once": 1554,
      "ences": 1555,
      "terror": 1556,
      "ever": 1557,
      "interests": 1558,
      "appe": 1559,
      "edu": 1560,
      "things": 1561,
      "implementation": 1562,
      "discussion": 1563,
      "society": 1564,
      "Ag": 1565,
      "compan": 1566,
      "fight": 1567,
      "hold": 1568,
      "internal": 1569,
      "eas": 1570,
      "ances": 1571,
      "economy": 1572,
      "signific": 1573,
      "points": 1574,
      "month": 1575,
      "ified": 1576,
      "meeting": 1577,
      "allen": 1578,
      "efforts": 1579,
      "lines": 1580,
      "EC": 1581,
      "anim": 1582,
      "stitution": 1583,
      "ina": 1584,
      "various": 1585,
      "money": 1586,
      "overn": 1587,
      "solid": 1588,
      "relation": 1589,
      "each": 1590,
      "bour": 1591,
      "short": 1592,
      "del": 1593,
      "writ": 1594,
      "aspect": 1595,
      "rece": 1596,
      "manage": 1597,
      "comes": 1598,
      "draw": 1599,
      "ages": 1600,
      "words": 1601,
      "address": 1602,
      "gest": 1603,
      "fail": 1604,
      "funds": 1605,
      "proper": 1606,
      "yet": 1607,
      "ples": 1608,
      "expect": 1609,
      "Govern": 1610,
      "sustain": 1611,
      "ging": 1612,
      "strengthen": 1613,
      "ath": 1614,
      "committee": 1615,
      "ann": 1616,
      "commend": 1617,
      "colleag": 1618,
      "cu": 1619,
      "creat": 1620,
      "applic": 1621,
      "techno": 1622,
      "individ": 1623,
      "field": 1624,
      "full": 1625,
      "ogue": 1626,
      "period": 1627,
      "ably": 1628,
      "communic": 1629,
      "EUR": 1630,
      "sid": 1631,
      "accord": 1632,
      "parliament": 1633,
      "procedure": 1634,
      "workers": 1635,
      "def": 1636,
      "life": 1637,
      "vil": 1638,
      "involved": 1639,
      "children": 1640,
      "having": 1641,
      "jective": 1642,
      "transparen": 1643,
      "Amend": 1644,
      "tle": 1645,
      "growth": 1646,
      "single": 1647,
      "proved": 1648,
      "challen": 1649,
      "competition": 1650,
      "effic": 1651,
      "happen": 1652,
      "concerns": 1653,
      "wee": 1654,
      "times": 1655,
      "treat": 1656,
      "ify": 1657,
      "pass": 1658,
      "oub": 1659,
      "seem": 1660,
      "tary": 1661,
      "feel": 1662,
      "Fund": 1663,
      "ele": 1664,
      "inst": 1665,
      "gratul": 1666,
      "prof": 1667,
      "cise": 1668,
      "affe": 1669,
      "Affairs": 1670,
      "aly": 1671,
      "pop": 1672,
      "nor": 1673,
      "ticle": 1674,
      "trad": 1675,
      "close": 1676,
      "companies": 1677,
      "Government": 1678,
      "Lis": 1679,
      "among": 1680,
      "Pol": 1681,
      "individual": 1682,
      "agreements": 1683,
      "lack": 1684,
      "increasing": 1685,
      "civil": 1686,
      "congratul": 1687,
      "Lisbon": 1688,
      "liber": 1689,
      "objectives": 1690,
      "ings": 1691,
      "encoura": 1692,
      "fortun": 1693,
      "programmes": 1694,
      "ick": 1695,
      "emphas": 1696,
      "istr": 1697,
      "offic": 1698,
      "best": 1699,
      "initiative": 1700,
      "bil": 1701,
      "solution": 1702,
      "avail": 1703,
      "kind": 1704,
      "To": 1705,
      "often": 1706,
      "majority": 1707,
      "ises": 1708,
      "dial": 1709,
      "lies": 1710,
      "mean": 1711,
      "production": 1712,
      "standards": 1713,
      "cell": 1714,
      "inal": 1715,
      "lab": 1716,
      "den": 1717,
      "refer": 1718,
      "euro": 1719,
      "cut": 1720,
      "With": 1721,
      "Minister": 1722,
      "Se": 1723,
      "conclusion": 1724,
      "share": 1725,
      "amendment": 1726,
      "list": 1727,
      "ron": 1728,
      "fam": 1729,
      "ining": 1730,
      "ago": 1731,
      "certainly": 1732,
      "ics": 1733,
      "stat": 1734,
      "decisions": 1735,
      "experi": 1736,
      "ither": 1737,
      "agricultural": 1738,
      "effect": 1739,
      "following": 1740,
      "ech": 1741,
      "significant": 1742,
      "simply": 1743,
      "ended": 1744,
      "ible": 1745,
      "called": 1746,
      "Turkey": 1747,
      "non": 1748,
      "kes": 1749,
      "ot": 1750,
      "risk": 1751,
      "ceed": 1752,
      "itor": 1753,
      "relations": 1754,
      "mentioned": 1755,
      "begin": 1756,
      "coord": 1757,
      "irst": 1758,
      "ight": 1759,
      "groups": 1760,
      "extremely": 1761,
      "dialogue": 1762,
      "And": 1763,
      "appropriate": 1764,
      "regional": 1765,
      "institution": 1766,
      "farm": 1767,
      "ults": 1768,
      "You": 1769,
      "objective": 1770,
      "cession": 1771,
      "haps": 1772,
      "build": 1773,
      "posed": 1774,
      "First": 1775,
      "subst": 1776,
      "complete": 1777,
      "clar": 1778,
      "dat": 1779,
      "assess": 1780,
      "found": 1781,
      "create": 1782,
      "context": 1783,
      "particip": 1784,
      "ession": 1785,
      "responsible": 1786,
      "ification": 1787,
      "enlarge": 1788,
      "promise": 1789,
      "enda": 1790,
      "head": 1791,
      "developing": 1792,
      "impact": 1793,
      "actually": 1794,
      "assist": 1795,
      "Russia": 1796,
      "states": 1797,
      "might": 1798,
      "sug": 1799,
      "protect": 1800,
      "recommend": 1801,
      "vic": 1802,
      "hes": 1803,
      "ternal": 1804,
      "questions": 1805,
      "available": 1806,
      "keep": 1807,
      "jobs": 1808,
      "docu": 1809,
      "joint": 1810,
      "ensive": 1811,
      "Cour": 1812,
      "Reg": 1813,
      "jud": 1814,
      "Let": 1815,
      "others": 1816,
      "Article": 1817,
      "start": 1818,
      "amb": 1819,
      "guarantee": 1820,
      "climate": 1821,
      "indeed": 1822,
      "ministr": 1823,
      "Court": 1824,
      "enter": 1825,
      "consequ": 1826,
      "actions": 1827,
      "apply": 1828,
      "Ger": 1829,
      "results": 1830,
      "special": 1831,
      "Dire": 1832,
      "enlargement": 1833,
      "ased": 1834,
      "currently": 1835,
      "systems": 1836,
      "Finally": 1837,
      "management": 1838,
      "dam": 1839,
      "concerning": 1840,
      "arian": 1841,
      "hon": 1842,
      "sim": 1843,
      "dom": 1844,
      "education": 1845,
      "fle": 1846,
      "focus": 1847,
      "lan": 1848,
      "needed": 1849,
      "ret": 1850,
      "eng": 1851,
      "data": 1852,
      "idence": 1853,
      "consumers": 1854,
      "tail": 1855,
      "Offic": 1856,
      "request": 1857,
      "inno": 1858,
      "writing": 1859,
      "abled": 1860,
      "ending": 1861,
      "cies": 1862,
      "cases": 1863,
      "doing": 1864,
      "ians": 1865,
      "months": 1866,
      "US": 1867,
      "never": 1868,
      "ME": 1869,
      "themselves": 1870,
      "rele": 1871,
      "him": 1872,
      "equ": 1873,
      "knowled": 1874,
      "fortunately": 1875,
      "administr": 1876,
      "members": 1877,
      "os": 1878,
      "old": 1879,
      "acceptable": 1880,
      "amoun": 1881,
      "conflic": 1882,
      "principles": 1883,
      "matters": 1884,
      "immi": 1885,
      "firm": 1886,
      "reasons": 1887,
      "Office": 1888,
      "ply": 1889,
      "Social": 1890,
      "12": 1891,
      "DE": 1892,
      "techn": 1893,
      "Ri": 1894,
      "contain": 1895,
      "enough": 1896,
      "eric": 1897,
      "fisher": 1898,
      "vision": 1899,
      "final": 1900,
      "sul": 1901,
      "compromise": 1902,
      "monitor": 1903,
      "Afric": 1904,
      "orig": 1905,
      "excell": 1906,
      "Americ": 1907,
      "ground": 1908,
      "mom": 1909,
      "regards": 1910,
      "projects": 1911,
      "iveness": 1912,
      "demon": 1913,
      "cru": 1914,
      "15": 1915,
      "costs": 1916,
      "ctions": 1917,
      "doub": 1918,
      "ling": 1919,
      "funding": 1920,
      "parties": 1921,
      "presid": 1922,
      "uclear": 1923,
      "stud": 1924,
      "logy": 1925,
      "ave": 1926,
      "local": 1927,
      "threat": 1928,
      "entire": 1929,
      "longer": 1930,
      "due": 1931,
      "using": 1932,
      "reports": 1933,
      "lu": 1934,
      "ently": 1935,
      "sustainable": 1936,
      "pot": 1937,
      "maintain": 1938,
      "achieved": 1939,
      "broad": 1940,
      "active": 1941,
      "econd": 1942,
      "Second": 1943,
      "hist": 1944,
      "ove": 1945,
      "prepare": 1946,
      "youn": 1947,
      "My": 1948,
      "priority": 1949,
      "activities": 1950,
      "theless": 1951,
      "ried": 1952,
      "atory": 1953,
      "plac": 1954,
      "priv": 1955,
      "independ": 1956,
      "depend": 1957,
      "commitment": 1958,
      "idea": 1959,
      "true": 1960,
      "moment": 1961,
      "although": 1962,
      "Convention": 1963,
      "promote": 1964,
      "logical": 1965,
      "strict": 1966,
      "changes": 1967,
      "labour": 1968,
      "ters": 1969,
      "seen": 1970,
      "ins": 1971,
      "border": 1972,
      "legislative": 1973,
      "Sp": 1974,
      "little": 1975,
      "benefit": 1976,
      "partner": 1977,
      "bur": 1978,
      "past": 1979,
      "express": 1980,
      "markets": 1981,
      "governments": 1982,
      "stress": 1983,
      "atta": 1984,
      "integration": 1985,
      "draft": 1986,
      "congratulate": 1987,
      "eria": 1988,
      "utes": 1989,
      "hesion": 1990,
      "provided": 1991,
      "suffic": 1992,
      "000": 1993,
      "wers": 1994,
      "truct": 1995,
      "nothing": 1996,
      "Rom": 1997,
      "fel": 1998,
      "excellent": 1999,
      "iter": 2000,
      "Li": 2001,
      "til": 2002,
      "plain": 2003,
      "ided": 2004,
      "perhaps": 2005,
      "nuclear": 2006,
      "Amendment": 2007,
      "sever": 2008,
      "constru": 2009,
      "young": 2010,
      "aged": 2011,
      "regarding": 2012,
      "11": 2013,
      "solidarity": 2014,
      "hear": 2015,
      "include": 2016,
      "Sw": 2017,
      "foreign": 2018,
      "dan": 2019,
      "agreed": 2020,
      "above": 2021,
      "mult": 2022,
      "respond": 2023,
      "ension": 2024,
      "indic": 2025,
      "makes": 2026,
      "sat": 2027,
      "aspects": 2028,
      "Rights": 2029,
      "lied": 2030,
      "subsid": 2031,
      "yes": 2032,
      "previous": 2033,
      "thus": 2034,
      "Directive": 2035,
      "unities": 2036,
      "transparency": 2037,
      "pat": 2038,
      "Le": 2039,
      "organis": 2040,
      "absol": 2041,
      "item": 2042,
      "dest": 2043,
      "detail": 2044,
      "terrorism": 2045,
      "Demo": 2046,
      "accession": 2047,
      "Fr": 2048,
      "bi": 2049,
      "consumer": 2050,
      "hard": 2051,
      "milit": 2052,
      "En": 2053,
      "avo": 2054,
      "ators": 2055,
      "several": 2056,
      "four": 2057,
      "live": 2058,
      "absolute": 2059,
      "Bar": 2060,
      "meth": 2061,
      "sufficient": 2062,
      "ade": 2063,
      "soon": 2064,
      "population": 2065,
      "uni": 2066,
      "2000": 2067,
      "cir": 2068,
      "Our": 2069,
      "UN": 2070,
      "rate": 2071,
      "body": 2072,
      "ned": 2073,
      "response": 2074,
      "agenda": 2075,
      "iving": 2076,
      "Inter": 2077,
      "upon": 2078,
      "contribution": 2079,
      "char": 2080,
      "ead": 2081,
      "deter": 2082,
      "water": 2083,
      "conne": 2084,
      "continu": 2085,
      "she": 2086,
      "innov": 2087,
      "answer": 2088,
      "liberal": 2089,
      "pack": 2090,
      "tomor": 2091,
      "discrim": 2092,
      "imum": 2093,
      "tomorrow": 2094,
      "acce": 2095,
      "technical": 2096,
      "communication": 2097,
      "mark": 2098,
      "Co": 2099,
      "cks": 2100,
      "industri": 2101,
      "TO": 2102,
      "suf": 2103,
      "values": 2104,
      "cand": 2105,
      "balance": 2106,
      "voting": 2107,
      "sci": 2108,
      "13": 2109,
      "Therefore": 2110,
      "conv": 2111,
      "satis": 2112,
      "pover": 2113,
      "integr": 2114,
      "Secondly": 2115,
      "reject": 2116,
      "practice": 2117,
      "Bel": 2118,
      "consul": 2119,
      "pite": 2120,
      "China": 2121,
      "infr": 2122,
      "harmon": 2123,
      "held": 2124,
      "appear": 2125,
      "knowledge": 2126,
      "existing": 2127,
      "provisions": 2128,
      "Nor": 2129,
      "suggest": 2130,
      "investment": 2131,
      "seems": 2132,
      "Brit": 2133,
      "Isra": 2134,
      "review": 2135,
      "One": 2136,
      "colleagues": 2137,
      "pleased": 2138,
      "criteria": 2139,
      "post": 2140,
      "Sch": 2141,
      "cha": 2142,
      "week": 2143,
      "cultural": 2144,
      "equal": 2145,
      "reen": 2146,
      "bar": 2147,
      "tell": 2148,
      "ined": 2149,
      "corre": 2150,
      "procedures": 2151,
      "elections": 2152,
      "stability": 2153,
      "mechan": 2154,
      "service": 2155,
      "anced": 2156,
      "excl": 2157,
      "face": 2158,
      "bly": 2159,
      "amp": 2160,
      "network": 2161,
      "either": 2162,
      "creation": 2163,
      "Gree": 2164,
      "violence": 2165,
      "obvious": 2166,
      "precise": 2167,
      "grant": 2168,
      "sense": 2169,
      "tes": 2170,
      "sha": 2171,
      "ourselves": 2172,
      "poverty": 2173,
      "cum": 2174,
      "assistance": 2175,
      "ived": 2176,
      "method": 2177,
      "adopt": 2178,
      "star": 2179,
      "cohesion": 2180,
      "Med": 2181,
      "table": 2182,
      "victim": 2183,
      "quick": 2184,
      "crucial": 2185,
      "Pal": 2186,
      "until": 2187,
      "ler": 2188,
      "advant": 2189,
      "regulations": 2190,
      "issions": 2191,
      "training": 2192,
      "everyone": 2193,
      "military": 2194,
      "asked": 2195,
      "fishing": 2196,
      "carried": 2197,
      "strateg": 2198,
      "talk": 2199,
      "repe": 2200,
      "loc": 2201,
      "basic": 2202,
      "aper": 2203,
      "ourable": 2204,
      "stage": 2205,
      "saying": 2206,
      "consequences": 2207,
      "atte": 2208,
      "tabled": 2209,
      "traffic": 2210,
      "institutional": 2211,
      "dut": 2212,
      "Pe": 2213,
      "Wor": 2214,
      "wa": 2215,
      "vol": 2216,
      "increased": 2217,
      "uine": 2218,
      "statement": 2219,
      "farmers": 2220,
      "flex": 2221,
      "Be": 2222,
      "oblig": 2223,
      "ared": 2224,
      "uses": 2225,
      "range": 2226,
      "relating": 2227,
      "application": 2228,
      "organisations": 2229,
      "ners": 2230,
      "iting": 2231,
      "danger": 2232,
      "reduce": 2233,
      "namely": 2234,
      "value": 2235,
      "wide": 2236,
      "ean": 2237,
      "ator": 2238,
      "orders": 2239,
      "ends": 2240,
      "requirements": 2241,
      "tation": 2242,
      "disas": 2243,
      "everything": 2244,
      "carry": 2245,
      "uary": 2246,
      "required": 2247,
      "rule": 2248,
      "istic": 2249,
      "avoid": 2250,
      "mer": 2251,
      "along": 2252,
      "pective": 2253,
      "When": 2254,
      "sels": 2255,
      "instruments": 2256,
      "outh": 2257,
      "closed": 2258,
      "30": 2259,
      "rely": 2260,
      "All": 2261,
      "urgent": 2262,
      "presented": 2263,
      "ons": 2264,
      "itarian": 2265,
      "ond": 2266,
      "ports": 2267,
      "offer": 2268,
      "opportunities": 2269,
      "justice": 2270,
      "fun": 2271,
      "meet": 2272,
      "takes": 2273,
      "Thank": 2274,
      "langu": 2275,
      "outs": 2276,
      "speech": 2277,
      "lar": 2278,
      "tar": 2279,
      "throughout": 2280,
      "minor": 2281,
      "Just": 2282,
      "tees": 2283,
      "stop": 2284,
      "territ": 2285,
      "immedi": 2286,
      "'.": 2287,
      "remind": 2288,
      "five": 2289,
      "prepared": 2290,
      "vital": 2291,
      "nature": 2292,
      "ighbour": 2293,
      "analy": 2294,
      "Mar": 2295,
      "around": 2296,
      "siz": 2297,
      "priorities": 2298,
      "model": 2299,
      "instrument": 2300,
      "accep": 2301,
      "run": 2302,
      "initiatives": 2303,
      "cident": 2304,
      "happ": 2305,
      "community": 2306,
      "doubt": 2307,
      "reached": 2308,
      "fall": 2309,
      "Ind": 2310,
      "budgetary": 2311,
      "aking": 2312,
      "gal": 2313,
      "hind": 2314,
      "Cent": 2315,
      "dri": 2316,
      "decided": 2317,
      "external": 2318,
      "Str": 2319,
      "ateral": 2320,
      "50": 2321,
      "amount": 2322,
      "emer": 2323,
      "Party": 2324,
      "pursu": 2325,
      "Bal": 2326,
      "ibility": 2327,
      "consist": 2328,
      "Constitution": 2329,
      "encourage": 2330,
      "waste": 2331,
      "lot": 2332,
      "ton": 2333,
      "relev": 2334,
      "conflict": 2335,
      "across": 2336,
      "mitted": 2337,
      "14": 2338,
      "prepar": 2339,
      "movement": 2340,
      "potential": 2341,
      "package": 2342,
      "cle": 2343,
      "capital": 2344,
      "powers": 2345,
      "cri": 2346,
      "pressure": 2347,
      "associ": 2348,
      "monitoring": 2349,
      "Palest": 2350,
      "established": 2351,
      "expressed": 2352,
      "private": 2353,
      "guide": 2354,
      "regret": 2355,
      "motion": 2356,
      "illegal": 2357,
      "demonstr": 2358,
      "lling": 2359,
      "efficient": 2360,
      "raised": 2361,
      "implemented": 2362,
      "capac": 2363,
      "proving": 2364,
      "cope": 2365,
      "ones": 2366,
      "CO": 2367,
      "aimed": 2368,
      "reading": 2369,
      "anti": 2370,
      "talking": 2371,
      "document": 2372,
      "critic": 2373,
      "rat": 2374,
      "levels": 2375,
      "enable": 2376,
      "bre": 2377,
      "challenges": 2378,
      "sec": 2379,
      "task": 2380,
      "rench": 2381,
      "ption": 2382,
      "fisheries": 2383,
      "medium": 2384,
      "effort": 2385,
      "competit": 2386,
      "pointed": 2387,
      "agra": 2388,
      "involve": 2389,
      "por": 2390,
      "ensu": 2391,
      "correct": 2392,
      "ania": 2393,
      "Develop": 2394,
      "itional": 2395,
      "genuine": 2396,
      "encies": 2397,
      "ferences": 2398,
      "direction": 2399,
      "sent": 2400,
      "agraph": 2401,
      "link": 2402,
      "billion": 2403,
      "death": 2404,
      "immigration": 2405,
      "fellow": 2406,
      "included": 2407,
      "More": 2408,
      "crime": 2409,
      "ished": 2410,
      "Irel": 2411,
      "Ireland": 2412,
      "wise": 2413,
      "experience": 2414,
      "reflect": 2415,
      "super": 2416,
      "borders": 2417,
      "partners": 2418,
      "discrimination": 2419,
      "suring": 2420,
      "Further": 2421,
      "whose": 2422,
      "big": 2423,
      "according": 2424,
      "victims": 2425,
      "quickly": 2426,
      "ilar": 2427,
      "mess": 2428,
      "sectors": 2429,
      "effects": 2430,
      "enterpr": 2431,
      "reduction": 2432,
      "absolutely": 2433,
      "note": 2434,
      "scient": 2435,
      "presidency": 2436,
      "French": 2437,
      "liance": 2438,
      "constit": 2439,
      "supported": 2440,
      "crats": 2441,
      "recently": 2442,
      "partnership": 2443,
      "bear": 2444,
      "Swed": 2445,
      "agriculture": 2446,
      "sk": 2447,
      "thanks": 2448,
      "took": 2449,
      "bilities": 2450,
      "oso": 2451,
      "exer": 2452,
      "date": 2453,
      "reality": 2454,
      "sto": 2455,
      "return": 2456,
      "event": 2457,
      "ier": 2458,
      "iency": 2459,
      "outside": 2460,
      "six": 2461,
      "sibilities": 2462,
      "lat": 2463,
      "bit": 2464,
      "Development": 2465,
      "renew": 2466,
      "price": 2467,
      "moder": 2468,
      "aims": 2469,
      "determin": 2470,
      "completely": 2471,
      "lum": 2472,
      "ison": 2473,
      "neighbour": 2474,
      "explo": 2475,
      "relevant": 2476,
      "France": 2477,
      "ying": 2478,
      "preh": 2479,
      "ster": 2480,
      "Conference": 2481,
      "East": 2482,
      "Port": 2483,
      "giving": 2484,
      "technology": 2485,
      "brought": 2486,
      "raq": 2487,
      "Iraq": 2488,
      "additional": 2489,
      "test": 2490,
      "reforms": 2491,
      "businesses": 2492,
      "May": 2493,
      "ls": 2494,
      "emissions": 2495,
      "possibility": 2496,
      "Africa": 2497,
      "anish": 2498,
      "une": 2499,
      "except": 2500,
      "structural": 2501,
      "iterran": 2502,
      "wr": 2503,
      "iterranean": 2504,
      "finally": 2505,
      "unemployment": 2506,
      "camp": 2507,
      "left": 2508,
      "Rep": 2509,
      "developed": 2510,
      "prices": 2511,
      "Mediterranean": 2512,
      "mot": 2513,
      "cross": 2514,
      "asy": 2515,
      "cover": 2516,
      "treatment": 2517,
      "condu": 2518,
      "extent": 2519,
      "Ser": 2520,
      "25": 2521,
      "total": 2522,
      "applied": 2523,
      "coordination": 2524,
      "official": 2525,
      "heard": 2526,
      "Dece": 2527,
      "lives": 2528,
      "December": 2529,
      "fri": 2530,
      "Bud": 2531,
      "versity": 2532,
      "deleg": 2533,
      "natural": 2534,
      "highlight": 2535,
      "away": 2536,
      "approved": 2537,
      "parliamentary": 2538,
      "creating": 2539,
      "ensuring": 2540,
      "received": 2541,
      "representatives": 2542,
      "origin": 2543,
      "tack": 2544,
      "else": 2545,
      "contra": 2546,
      "rug": 2547,
      "circum": 2548,
      "candid": 2549,
      "Portu": 2550,
      "capacity": 2551,
      "almost": 2552,
      "Nations": 2553,
      "competitiveness": 2554,
      "confidence": 2555,
      "neg": 2556,
      "Republic": 2557,
      "uge": 2558,
      "assessment": 2559,
      "Agree": 2560,
      "discussed": 2561,
      "Firstly": 2562,
      "living": 2563,
      "design": 2564,
      "press": 2565,
      "behind": 2566,
      "Furthermore": 2567,
      "eval": 2568,
      "mater": 2569,
      "Do": 2570,
      "influ": 2571,
      "ires": 2572,
      "practical": 2573,
      "Of": 2574,
      "guard": 2575,
      "criminal": 2576,
      "personal": 2577,
      "cide": 2578,
      "discuss": 2579,
      "paragraph": 2580,
      "rail": 2581,
      "targe": 2582,
      "ously": 2583,
      "sitting": 2584,
      "sidered": 2585,
      "considered": 2586,
      "events": 2587,
      "central": 2588,
      "discussions": 2589,
      "rap": 2590,
      "unacceptable": 2591,
      "gas": 2592,
      "session": 2593,
      "measure": 2594,
      "poll": 2595,
      "days": 2596,
      "guidelines": 2597,
      "argu": 2598,
      "Cha": 2599,
      "..": 2600,
      "adoption": 2601,
      "thern": 2602,
      "British": 2603,
      "remains": 2604,
      "Or": 2605,
      "compreh": 2606,
      "istan": 2607,
      "product": 2608,
      "rist": 2609,
      "industrial": 2610,
      "affected": 2611,
      "known": 2612,
      "ium": 2613,
      "worth": 2614,
      "provision": 2615,
      "Br": 2616,
      "function": 2617,
      "rup": 2618,
      "2001": 2619,
      "astruct": 2620,
      "efficiency": 2621,
      "home": 2622,
      "scope": 2623,
      "forces": 2624,
      "huge": 2625,
      "family": 2626,
      "weak": 2627,
      "forms": 2628,
      "Qu": 2629,
      "delay": 2630,
      "Israel": 2631,
      "solutions": 2632,
      "goods": 2633,
      "humanitarian": 2634,
      "connection": 2635,
      "AC": 2636,
      "inary": 2637,
      "omic": 2638,
      "effectively": 2639,
      "Hu": 2640,
      "arily": 2641,
      "infrastruct": 2642,
      "proceed": 2643,
      "spo": 2644,
      "eth": 2645,
      "2007": 2646,
      "condem": 2647,
      "Econ": 2648,
      "spir": 2649,
      "Bank": 2650,
      "quate": 2651,
      "limit": 2652,
      "combat": 2653,
      "gets": 2654,
      "despite": 2655,
      "content": 2656,
      "building": 2657,
      "sis": 2658,
      "Intern": 2659,
      "acy": 2660,
      "Democrats": 2661,
      "supply": 2662,
      "unch": 2663,
      "inking": 2664,
      "defence": 2665,
      "corpor": 2666,
      "summit": 2667,
      "coordin": 2668,
      "contribute": 2669,
      "asylum": 2670,
      "circumst": 2671,
      "graph": 2672,
      "obtain": 2673,
      "explain": 2674,
      "International": 2675,
      "difficulties": 2676,
      "precisely": 2677,
      "curren": 2678,
      "Palestin": 2679,
      "Central": 2680,
      "reser": 2681,
      "via": 2682,
      "trying": 2683,
      "Christ": 2684,
      "enterprises": 2685,
      "bri": 2686,
      "Agreement": 2687,
      "altern": 2688,
      "Justice": 2689,
      "shown": 2690,
      "suffer": 2691,
      "June": 2692,
      "calls": 2693,
      "World": 2694,
      "related": 2695,
      "bourg": 2696,
      "ands": 2697,
      "contr": 2698,
      ").": 2699,
      "instead": 2700,
      "ustri": 2701,
      "oil": 2702,
      "icy": 2703,
      "const": 2704,
      "mand": 2705,
      "ization": 2706,
      "occas": 2707,
      "reference": 2708,
      "drug": 2709,
      "refuge": 2710,
      "constitution": 2711,
      "ung": 2712,
      "ribut": 2713,
      "beginning": 2714,
      "counter": 2715,
      "mission": 2716,
      "ureau": 2717,
      "accordance": 2718,
      "san": 2719,
      "bey": 2720,
      "goes": 2721,
      "circumstances": 2722,
      "Economic": 2723,
      "penal": 2724,
      "commer": 2725,
      "improving": 2726,
      "message": 2727,
      "Now": 2728,
      "honourable": 2729,
      "charge": 2730,
      "committed": 2731,
      "innovation": 2732,
      "successful": 2733,
      "conclusions": 2734,
      "allowed": 2735,
      "administrative": 2736,
      "regime": 2737,
      "terday": 2738,
      "flo": 2739,
      "culture": 2740,
      "providing": 2741,
      "investig": 2742,
      "People": 2743,
      "provides": 2744,
      "created": 2745,
      "nam": 2746,
      "status": 2747,
      "scientific": 2748,
      "wrong": 2749,
      "comments": 2750,
      "modern": 2751,
      "grants": 2752,
      "consideration": 2753,
      "Germany": 2754,
      "Regulation": 2755,
      "Ex": 2756,
      "benefits": 2757,
      "minimum": 2758,
      "challenge": 2759,
      "independent": 2760,
      "dim": 2761,
      "restrict": 2762,
      "duty": 2763,
      "Gener": 2764,
      "financing": 2765,
      "rightly": 2766,
      "2006": 2767,
      "mut": 2768,
      "poor": 2769,
      "profession": 2770,
      "SE": 2771,
      "mal": 2772,
      "ening": 2773,
      "paid": 2774,
      "convin": 2775,
      "vere": 2776,
      "antic": 2777,
      "WTO": 2778,
      "Tra": 2779,
      "wanted": 2780,
      "participation": 2781,
      "views": 2782,
      "considerable": 2783,
      "purpose": 2784,
      "sens": 2785,
      "fil": 2786,
      "Koso": 2787,
      "mass": 2788,
      "pension": 2789,
      "accepted": 2790,
      "promoting": 2791,
      "party": 2792,
      "seek": 2793,
      "2004": 2794,
      "governmental": 2795,
      "German": 2796,
      "implementing": 2797,
      "propose": 2798,
      "ussels": 2799,
      "operate": 2800,
      "decl": 2801,
      "Brussels": 2802,
      "stated": 2803,
      "Policy": 2804,
      "Jan": 2805,
      "ours": 2806,
      "rural": 2807,
      "abil": 2808,
      "Ru": 2809,
      "unfortunately": 2810,
      "introduction": 2811,
      "relig": 2812,
      "prim": 2813,
      "strategic": 2814,
      "famil": 2815,
      "1999": 2816,
      "gain": 2817,
      "dle": 2818,
      "dealing": 2819,
      "material": 2820,
      "legit": 2821,
      "Some": 2822,
      "Ir": 2823,
      "specifically": 2824,
      "colleague": 2825,
      "closely": 2826,
      "referred": 2827,
      "came": 2828,
      "media": 2829,
      "kra": 2830,
      "similar": 2831,
      "Ukra": 2832,
      "ides": 2833,
      "steps": 2834,
      "overall": 2835,
      "seriously": 2836,
      "receive": 2837,
      "setting": 2838,
      "dit": 2839,
      "How": 2840,
      "ash": 2841,
      "iation": 2842,
      "beyond": 2843,
      "round": 2844,
      "bac": 2845,
      "2002": 2846,
      "Can": 2847,
      "tele": 2848,
      "forced": 2849,
      "ender": 2850,
      "mpt": 2851,
      "Ap": 2852,
      "orm": 2853,
      "relationship": 2854,
      "plans": 2855,
      "decide": 2856,
      "activity": 2857,
      "lier": 2858,
      "separ": 2859,
      "fear": 2860,
      "Tod": 2861,
      "speaking": 2862,
      "competitive": 2863,
      "limited": 2864,
      "ines": 2865,
      "balanced": 2866,
      "ties": 2867,
      "oral": 2868,
      "ys": 2869,
      "Pr": 2870,
      "MEP": 2871,
      "looking": 2872,
      "simpli": 2873,
      "General": 2874,
      "entions": 2875,
      "produce": 2876,
      "exper": 2877,
      "Human": 2878,
      "directly": 2879,
      "Mon": 2880,
      "Today": 2881,
      "iture": 2882,
      "itude": 2883,
      "aff": 2884,
      "placed": 2885,
      "sal": 2886,
      "preci": 2887,
      "trust": 2888,
      "blo": 2889,
      "minister": 2890,
      "satisfact": 2891,
      "sized": 2892,
      "isms": 2893,
      "exchange": 2894,
      "itious": 2895,
      "history": 2896,
      "requires": 2897,
      "company": 2898,
      "launch": 2899,
      "met": 2900,
      "expend": 2901,
      "spect": 2902,
      "ming": 2903,
      "tour": 2904,
      "Europeans": 2905,
      "regular": 2906,
      "Irish": 2907,
      "thous": 2908,
      "Kosovo": 2909,
      "2009": 2910,
      "ially": 2911,
      "commitments": 2912,
      "type": 2913,
      "intended": 2914,
      "bodies": 2915,
      "drawn": 2916,
      "aign": 2917,
      "equality": 2918,
      "declar": 2919,
      "facilit": 2920,
      "cate": 2921,
      "dict": 2922,
      "leave": 2923,
      "concent": 2924,
      "demands": 2925,
      "gency": 2926,
      "custo": 2927,
      "FR": 2928,
      "Ne": 2929,
      "January": 2930,
      "brief": 2931,
      "18": 2932,
      "adap": 2933,
      "ened": 2934,
      "Sum": 2935,
      "iddle": 2936,
      "2003": 2937,
      "campaign": 2938,
      "Ac": 2939,
      "exact": 2940,
      "supporting": 2941,
      "cale": 2942,
      "alone": 2943,
      "calling": 2944,
      "annual": 2945,
      "useful": 2946,
      "concept": 2947,
      "rapid": 2948,
      "myself": 2949,
      "labe": 2950,
      "affect": 2951,
      "willing": 2952,
      "),": 2953,
      "ional": 2954,
      "rop": 2955,
      "properly": 2956,
      "Greece": 2957,
      "parts": 2958,
      "South": 2959,
      "atic": 2960,
      "export": 2961,
      "distribut": 2962,
      "cers": 2963,
      "bia": 2964,
      "eder": 2965,
      "expenditure": 2966,
      "stri": 2967,
      "sort": 2968,
      "comment": 2969,
      "Iran": 2970,
      "sche": 2971,
      "won": 2972,
      "extra": 2973,
      "highly": 2974,
      "Prog": 2975,
      "II": 2976,
      "ken": 2977,
      "Tr": 2978,
      "establishing": 2979,
      "credi": 2980,
      "speed": 2981,
      "structure": 2982,
      "ambitious": 2983,
      "construction": 2984,
      "anything": 2985,
      "Environment": 2986,
      "Last": 2987,
      "higher": 2988,
      "Austri": 2989,
      "deep": 2990,
      "proport": 2991,
      "animal": 2992,
      "Summit": 2993,
      "early": 2994,
      "remo": 2995,
      "weeks": 2996,
      "shows": 2997,
      "hic": 2998,
      "arter": 2999,
      "ring": 3000,
      "2005": 3001,
      "discussing": 3002,
      "risks": 3003,
      "police": 3004,
      "caused": 3005,
      "Although": 3006,
      "join": 3007,
      "produced": 3008,
      "interpre": 3009,
      "conclude": 3010,
      "ost": 3011,
      "aut": 3012,
      "hol": 3013,
      "deed": 3014,
      "increasingly": 3015,
      "developments": 3016,
      "citizen": 3017,
      "complex": 3018,
      "ize": 3019,
      "lands": 3020,
      "ols": 3021,
      "ga": 3022,
      "dimension": 3023,
      "former": 3024,
      "yesterday": 3025,
      "2008": 3026,
      "Unfortunately": 3027,
      "2010": 3028,
      "ush": 3029,
      "improved": 3030,
      "histor": 3031,
      "whom": 3032,
      "prob": 3033,
      "study": 3034,
      "scale": 3035,
      "gives": 3036,
      "remember": 3037,
      "represents": 3038,
      "forget": 3039,
      "fraud": 3040,
      "urally": 3041,
      "judic": 3042,
      "desire": 3043,
      "vehic": 3044,
      "authority": 3045,
      "strengthening": 3046,
      "achieving": 3047,
      "Rules": 3048,
      "reducing": 3049,
      "emphasise": 3050,
      "observ": 3051,
      "unanim": 3052,
      "critical": 3053,
      "serve": 3054,
      "Cy": 3055,
      "Minutes": 3056,
      "comprehensive": 3057,
      "descri": 3058,
      "happened": 3059,
      "pression": 3060,
      "thought": 3061,
      "ake": 3062,
      "obviously": 3063,
      "Os": 3064,
      "pi": 3065,
      "ized": 3066,
      "producers": 3067,
      "conclud": 3068,
      "spirit": 3069,
      "safeguard": 3070,
      "statements": 3071,
      "quo": 3072,
      "16": 3073,
      "leading": 3074,
      "Since": 3075,
      "bad": 3076,
      "opposition": 3077,
      "Green": 3078,
      "animals": 3079,
      "compens": 3080,
      "rates": 3081,
      "union": 3082,
      "acqu": 3083,
      "IT": 3084,
      "thinking": 3085,
      "urge": 3086,
      "convinced": 3087,
      "deser": 3088,
      "enh": 3089,
      "advantage": 3090,
      "gor": 3091,
      "manner": 3092,
      "17": 3093,
      "transfer": 3094,
      "draf": 3095,
      "enorm": 3096,
      "combating": 3097,
      "March": 3098,
      "later": 3099,
      "Never": 3100,
      "laws": 3101,
      "introduce": 3102,
      "American": 3103,
      "Italy": 3104,
      "substant": 3105,
      "infrastructure": 3106,
      "imately": 3107,
      "currency": 3108,
      "Security": 3109,
      "standard": 3110,
      "Fore": 3111,
      "Moreover": 3112,
      "name": 3113,
      "responsibilities": 3114,
      "consensu": 3115,
      "Spanish": 3116,
      "cat": 3117,
      "rapporteurs": 3118,
      "Liber": 3119,
      "rise": 3120,
      "staff": 3121,
      "Sep": 3122,
      "Hung": 3123,
      "introduced": 3124,
      "appreci": 3125,
      "bed": 3126,
      "Third": 3127,
      "recognition": 3128,
      "outcome": 3129,
      "wants": 3130,
      "vered": 3131,
      "crete": 3132,
      "poses": 3133,
      "az": 3134,
      "language": 3135,
      "Bo": 3136,
      "firstly": 3137,
      "itable": 3138,
      "monetary": 3139,
      "commercial": 3140,
      "logies": 3141,
      "damage": 3142,
      "constructive": 3143,
      "elements": 3144,
      "prevention": 3145,
      "uations": 3146,
      "says": 3147,
      "facing": 3148,
      "dep": 3149,
      "fied": 3150,
      "signed": 3151,
      "recognise": 3152,
      "ciliation": 3153,
      "candidate": 3154,
      "',": 3155,
      "sometimes": 3156,
      "documents": 3157,
      "Foreign": 3158,
      "analysis": 3159,
      "conference": 3160,
      "earlier": 3161,
      "concrete": 3162,
      "succeed": 3163,
      "ource": 3164,
      "cul": 3165,
      "entirely": 3166,
      "Trans": 3167,
      "Slo": 3168,
      "sex": 3169,
      "added": 3170,
      "organisation": 3171,
      "dead": 3172,
      "secure": 3173,
      "ped": 3174,
      "fered": 3175,
      "contrary": 3176,
      "By": 3177,
      "influence": 3178,
      "accident": 3179,
      "40": 3180,
      "becoming": 3181,
      "prison": 3182,
      "stric": 3183,
      "Internet": 3184,
      "loss": 3185,
      "After": 3186,
      "negative": 3187,
      "constant": 3188,
      "Nevertheless": 3189,
      "reduced": 3190,
      "istics": 3191,
      "Spain": 3192,
      "understanding": 3193,
      "establishment": 3194,
      "sound": 3195,
      "consensus": 3196,
      "differences": 3197,
      "susp": 3198,
      "Ukraine": 3199,
      "asking": 3200,
      "aging": 3201,
      "arrange": 3202,
      "opening": 3203,
      "estic": 3204,
      "transparent": 3205,
      "sources": 3206,
      "recommendations": 3207,
      "dangerous": 3208,
      "growing": 3209,
      "tember": 3210,
      "cup": 3211,
      "ES": 3212,
      "happy": 3213,
      "Ma": 3214,
      "SME": 3215,
      "flexibility": 3216,
      "Romania": 3217,
      "tocol": 3218,
      "liberalisation": 3219,
      "27": 3220,
      "Lad": 3221,
      "alternative": 3222,
      "Ital": 3223,
      "raise": 3224,
      "fron": 3225,
      "Indeed": 3226,
      "rein": 3227,
      "September": 3228,
      "record": 3229,
      "delegation": 3230,
      "UK": 3231,
      "announ": 3232,
      "informed": 3233,
      "ufact": 3234,
      "pread": 3235,
      "Turk": 3236,
      "Rule": 3237,
      "Sa": 3238,
      "networks": 3239,
      "probably": 3240,
      "morning": 3241,
      "closer": 3242,
      "lled": 3243,
      "scho": 3244,
      "Palestinian": 3245,
      "lay": 3246,
      "ang": 3247,
      "Ministers": 3248,
      "incorpor": 3249,
      "methods": 3250,
      "practices": 3251,
      "strongly": 3252,
      "King": 3253,
      "burden": 3254,
      "sanctions": 3255,
      "intervention": 3256,
      "marks": 3257,
      "covered": 3258,
      "directives": 3259,
      "Lu": 3260,
      "plause": 3261,
      "friend": 3262,
      "estern": 3263,
      "got": 3264,
      "exactly": 3265,
      "manufact": 3266,
      "applies": 3267,
      "tro": 3268,
      "matic": 3269,
      "weap": 3270,
      "perspective": 3271,
      "deg": 3272,
      "integrated": 3273,
      "America": 3274,
      "hor": 3275,
      "chance": 3276,
      "que": 3277,
      "gg": 3278,
      "governance": 3279,
      "refugees": 3280,
      "surance": 3281,
      "dio": 3282,
      "acter": 3283,
      "agencies": 3284,
      "organised": 3285,
      "laid": 3286,
      "ideas": 3287,
      "attempt": 3288,
      "Oc": 3289,
      "ulg": 3290,
      "mechanism": 3291,
      "failure": 3292,
      "sem": 3293,
      "conver": 3294,
      "Strate": 3295,
      "standing": 3296,
      "ping": 3297,
      "ket": 3298,
      "MEPs": 3299,
      "board": 3300,
      "dealt": 3301,
      "Nove": 3302,
      "defic": 3303,
      "November": 3304,
      "Proced": 3305,
      "org": 3306,
      "intel": 3307,
      "hop": 3308,
      "reply": 3309,
      "intention": 3310,
      "ilst": 3311,
      "elected": 3312,
      "submitted": 3313,
      "Ladies": 3314,
      "fect": 3315,
      "conta": 3316,
      "ze": 3317,
      "administration": 3318,
      "bureau": 3319,
      "managed": 3320,
      "occup": 3321,
      "Paper": 3322,
      "sensitive": 3323,
      "obligations": 3324,
      "Why": 3325,
      "targets": 3326,
      "Ber": 3327,
      "character": 3328,
      "enormous": 3329,
      "defend": 3330,
      "expression": 3331,
      "temp": 3332,
      "itors": 3333,
      "leader": 3334,
      "Program": 3335,
      "subsidi": 3336,
      "occur": 3337,
      "definition": 3338,
      "excess": 3339,
      "alloc": 3340,
      "jour": 3341,
      "addressed": 3342,
      "itation": 3343,
      "improvement": 3344,
      "positions": 3345,
      "Italian": 3346,
      "house": 3347,
      "ahead": 3348,
      "ries": 3349,
      "proval": 3350,
      "credit": 3351,
      "ury": 3352,
      "putting": 3353,
      "PL": 3354,
      "mechanisms": 3355,
      "conduct": 3356,
      "Procedure": 3357,
      "reli": 3358,
      "Christian": 3359,
      "contains": 3360,
      "ease": 3361,
      "unable": 3362,
      "mandate": 3363,
      "appeal": 3364,
      "appoint": 3365,
      "changed": 3366,
      "persons": 3367,
      "choice": 3368,
      "parliaments": 3369,
      "Russian": 3370,
      "immediately": 3371,
      "mutual": 3372,
      "univers": 3373,
      "tober": 3374,
      "October": 3375,
      "easy": 3376,
      "aving": 3377,
      "mainly": 3378,
      "ij": 3379,
      "consultation": 3380,
      "Middle": 3381,
      "medic": 3382,
      "comply": 3383,
      "abol": 3384,
      "Bulg": 3385,
      "Health": 3386,
      "technologies": 3387,
      "Kingdom": 3388,
      "Belar": 3389,
      "send": 3390,
      "tot": 3391,
      "fue": 3392,
      "Ad": 3393,
      "referen": 3394,
      "Agency": 3395,
      "Belg": 3396,
      "wat": 3397,
      "insist": 3398,
      "rejected": 3399,
      "leaders": 3400,
      "merely": 3401,
      "Trade": 3402,
      "resolutions": 3403,
      "ira": 3404,
      "discharge": 3405,
      "vereign": 3406,
      "Turkish": 3407,
      "forth": 3408,
      "aria": 3409,
      "heart": 3410,
      "grate": 3411,
      "ream": 3412,
      "cohe": 3413,
      "Even": 3414,
      "acts": 3415,
      "continuing": 3416,
      "promotion": 3417,
      "guarantees": 3418,
      "told": 3419,
      "Amendments": 3420,
      "2020": 3421,
      "NG": 3422,
      "ilateral": 3423,
      "ses": 3424,
      "territor": 3425,
      "Prime": 3426,
      "simple": 3427,
      "debates": 3428,
      "Charter": 3429,
      "ood": 3430,
      "near": 3431,
      "Strategy": 3432,
      "enjo": 3433,
      "SMEs": 3434,
      "elim": 3435,
      "Ob": 3436,
      "sovereign": 3437,
      "thousands": 3438,
      "linked": 3439,
      "class": 3440,
      "politic": 3441,
      "PP": 3442,
      "Programme": 3443,
      "worked": 3444,
      "Barro": 3445,
      "gures": 3446,
      "trafficking": 3447,
      "substantial": 3448,
      "late": 3449,
      "Belarus": 3450,
      "impossible": 3451,
      "disaster": 3452,
      "exercise": 3453,
      "resolve": 3454,
      "pill": 3455,
      "repeat": 3456,
      "Chamber": 3457,
      "includes": 3458,
      "income": 3459,
      "lost": 3460,
      "figures": 3461,
      "rid": 3462,
      "payments": 3463,
      "adequate": 3464,
      "nation": 3465,
      "Mone": 3466,
      "nic": 3467,
      "deli": 3468,
      "taint": 3469,
      "green": 3470,
      "lower": 3471,
      "independence": 3472,
      "engen": 3473,
      "evidence": 3474,
      "hy": 3475,
      "Many": 3476,
      "speakers": 3477,
      "adver": 3478,
      "hood": 3479,
      "preser": 3480,
      "volun": 3481,
      "loye": 3482,
      "oples": 3483,
      "renewable": 3484,
      "chair": 3485,
      "Ge": 3486,
      "wonder": 3487,
      "totally": 3488,
      "votes": 3489,
      "employed": 3490,
      "ubl": 3491,
      "recommendation": 3492,
      "usive": 3493,
      "voc": 3494,
      "certaint": 3495,
      "situations": 3496,
      "Schengen": 3497,
      "inding": 3498,
      "CA": 3499,
      "max": 3500,
      "Quest": 3501,
      "Amster": 3502,
      "promis": 3503,
      "Amsterdam": 3504,
      "uly": 3505,
      "Per": 3506,
      "economies": 3507,
      "sole": 3508,
      "NA": 3509,
      "bringing": 3510,
      "subsidiarity": 3511,
      "illions": 3512,
      "wit": 3513,
      "attitude": 3514,
      "wishes": 3515,
      "degree": 3516,
      "believ": 3517,
      "surpr": 3518,
      "employe": 3519,
      "failed": 3520,
      "sea": 3521,
      "capable": 3522,
      "obst": 3523,
      "forest": 3524,
      "asks": 3525,
      "tedly": 3526,
      "ched": 3527,
      "plen": 3528,
      "supports": 3529,
      "noon": 3530,
      "election": 3531,
      "territory": 3532,
      "Applause": 3533,
      "peoples": 3534,
      "fl": 3535,
      "instance": 3536,
      "extend": 3537,
      "sequently": 3538,
      "aries": 3539,
      "affairs": 3540,
      "grateful": 3541,
      "faced": 3542,
      "consistent": 3543,
      "nergy": 3544,
      "controls": 3545,
      "eco": 3546,
      "rich": 3547,
      "membership": 3548,
      "fill": 3549,
      "treaty": 3550,
      "reasonable": 3551,
      "publ": 3552,
      "families": 3553,
      "Organ": 3554,
      "gric": 3555,
      "judicial": 3556,
      "conciliation": 3557,
      "bl": 3558,
      "expected": 3559,
      "involvement": 3560,
      "Monetary": 3561,
      "opposed": 3562,
      "io": 3563,
      "Accord": 3564,
      "North": 3565,
      "Portugal": 3566,
      "div": 3567,
      "Afgh": 3568,
      "tourism": 3569,
      "Ver": 3570,
      "Aud": 3571,
      "original": 3572,
      "phas": 3573,
      "typ": 3574,
      "office": 3575,
      "courage": 3576,
      "perman": 3577,
      "bio": 3578,
      "Agric": 3579,
      "Thirdly": 3580,
      "Struct": 3581,
      "finance": 3582,
      "prus": 3583,
      "involving": 3584,
      "Cyprus": 3585,
      "itime": 3586,
      "actual": 3587,
      "talks": 3588,
      "perfect": 3589,
      "existence": 3590,
      "sides": 3591,
      "recognised": 3592,
      "happening": 3593,
      "truly": 3594,
      "obstac": 3595,
      "element": 3596,
      "ats": 3597,
      "Lat": 3598,
      "rend": 3599,
      "getting": 3600,
      "arri": 3601,
      "goal": 3602,
      "learn": 3603,
      "drugs": 3604,
      "Structural": 3605,
      "African": 3606,
      "pillar": 3607,
      "immediate": 3608,
      "Pact": 3609,
      "protecting": 3610,
      "geo": 3611,
      "plenary": 3612,
      "ana": 3613,
      "attemp": 3614,
      "rad": 3615,
      "Balk": 3616,
      "explan": 3617,
      "factor": 3618,
      "Funds": 3619,
      "substances": 3620,
      "proportion": 3621,
      "travel": 3622,
      "greatest": 3623,
      "Afghan": 3624,
      "Poland": 3625,
      "Jo": 3626,
      "lantic": 3627,
      "weapons": 3628,
      "referendu": 3629,
      "starting": 3630,
      "harm": 3631,
      "Fra": 3632,
      "21": 3633,
      "consolid": 3634,
      "keeping": 3635,
      "Au": 3636,
      "likely": 3637,
      "competence": 3638,
      "adopting": 3639,
      "rs": 3640,
      "seeking": 3641,
      "interesting": 3642,
      "arms": 3643,
      "binding": 3644,
      "equip": 3645,
      "approval": 3646,
      "abs": 3647,
      "followed": 3648,
      "tackle": 3649,
      "resolved": 3650,
      "gence": 3651,
      "break": 3652,
      "mobility": 3653,
      "intend": 3654,
      "granted": 3655,
      "disease": 3656,
      "80": 3657,
      "evaluation": 3658,
      "suffering": 3659,
      "According": 3660,
      "committees": 3661,
      "opt": 3662,
      "diversity": 3663,
      "meetings": 3664,
      "Bur": 3665,
      "July": 3666,
      "Asi": 3667,
      "pollution": 3668,
      "sembly": 3669,
      "Nos": 3670,
      "shared": 3671,
      "fare": 3672,
      "sets": 3673,
      "space": 3674,
      "rev": 3675,
      "ients": 3676,
      "tempor": 3677,
      "plom": 3678,
      "globalisation": 3679,
      "continent": 3680,
      "Public": 3681,
      "spent": 3682,
      "disput": 3683,
      "zone": 3684,
      "gender": 3685,
      "restric": 3686,
      "compliance": 3687,
      "mil": 3688,
      "designed": 3689,
      "ib": 3690,
      "confirm": 3691,
      "criticism": 3692,
      "carefully": 3693,
      "Eas": 3694,
      "endor": 3695,
      "thereby": 3696,
      "ired": 3697,
      "proposing": 3698,
      "ruption": 3699,
      "compar": 3700,
      "communications": 3701,
      "confir": 3702,
      "continues": 3703,
      "ACP": 3704,
      "subsidies": 3705,
      "series": 3706,
      "Sweden": 3707,
      "don": 3708,
      "vehicles": 3709,
      "voice": 3710,
      "detailed": 3711,
      "manufacture": 3712,
      "consumption": 3713,
      "Com": 3714,
      "communities": 3715,
      "certainty": 3716,
      "structures": 3717,
      "diplom": 3718,
      "100": 3719,
      "ederal": 3720,
      "Eastern": 3721,
      "professional": 3722,
      "Barroso": 3723,
      "harmonisation": 3724,
      "kill": 3725,
      "loyment": 3726,
      "minorities": 3727,
      "dr": 3728,
      "undertaking": 3729,
      "60": 3730,
      "While": 3731,
      "causes": 3732,
      "terrorist": 3733,
      "presence": 3734,
      "aver": 3735,
      "target": 3736,
      "pros": 3737,
      "naturally": 3738,
      "oud": 3739,
      "isive": 3740,
      "modif": 3741,
      "Auditors": 3742,
      "Budget": 3743,
      "Swedish": 3744,
      "undred": 3745,
      "Col": 3746,
      "excessive": 3747,
      "urs": 3748,
      "bilateral": 3749,
      "attack": 3750,
      "emphasis": 3751,
      "endorse": 3752,
      "hours": 3753,
      "feed": 3754,
      "nations": 3755,
      "ordinary": 3756,
      "floor": 3757,
      "tex": 3758,
      "improvements": 3759,
      "assu": 3760,
      "path": 3761,
      "option": 3762,
      "meant": 3763,
      "Bulgaria": 3764,
      "enced": 3765,
      "justified": 3766,
      "erous": 3767,
      "limits": 3768,
      "taxation": 3769,
      "grounds": 3770,
      "planning": 3771,
      "anyone": 3772,
      "minority": 3773,
      "usu": 3774,
      "sla": 3775,
      "Every": 3776,
      "entry": 3777,
      "recovery": 3778,
      "religious": 3779,
      "debt": 3780,
      "repeated": 3781,
      "employees": 3782,
      "regulatory": 3783,
      "Fe": 3784,
      "og": 3785,
      "enforce": 3786,
      "condition": 3787,
      "credibility": 3788,
      "stake": 3789,
      "otherwise": 3790,
      "entit": 3791,
      "delight": 3792,
      "bor": 3793,
      "dy": 3794,
      "riers": 3795,
      "fulfil": 3796,
      "Sea": 3797,
      "withdraw": 3798,
      "Apr": 3799,
      "van": 3800,
      "Energy": 3801,
      "1998": 3802,
      "April": 3803,
      "defined": 3804,
      "Greek": 3805,
      "nes": 3806,
      "immigrants": 3807,
      "ifying": 3808,
      "settle": 3809,
      "location": 3810,
      "dow": 3811,
      "Western": 3812,
      "exe": 3813,
      "prosper": 3814,
      "destro": 3815,
      "Only": 3816,
      "ik": 3817,
      "oration": 3818,
      "freedoms": 3819,
      "amongst": 3820,
      "legally": 3821,
      "PPE": 3822,
      "supp": 3823,
      "secre": 3824,
      "entially": 3825,
      "migration": 3826,
      "maximum": 3827,
      "banks": 3828,
      "enjoy": 3829,
      "appears": 3830,
      "Commissioners": 3831,
      "Such": 3832,
      "pun": 3833,
      "ivity": 3834,
      "preced": 3835,
      "started": 3836,
      "arrangements": 3837,
      "hundred": 3838,
      "participate": 3839,
      "Sy": 3840,
      "obligation": 3841,
      "stead": 3842,
      "heav": 3843,
      "atever": 3844,
      "source": 3845,
      "nel": 3846,
      "goals": 3847,
      "declaration": 3848,
      "compensation": 3849,
      "Cz": 3850,
      "operating": 3851,
      "initial": 3852,
      "factors": 3853,
      "generally": 3854,
      "AT": 3855,
      "Sol": 3856,
      "Ro": 3857,
      "collective": 3858,
      "fighting": 3859,
      "representative": 3860,
      "PT": 3861,
      "moving": 3862,
      "played": 3863,
      "cast": 3864,
      "easier": 3865,
      "gave": 3866,
      "neither": 3867,
      "buds": 3868,
      "glad": 3869,
      "win": 3870,
      "domestic": 3871,
      "Roma": 3872,
      "signal": 3873,
      "Those": 3874,
      "politicians": 3875,
      "Agriculture": 3876,
      "attacks": 3877,
      "smo": 3878,
      "ford": 3879,
      "works": 3880,
      "ouble": 3881,
      "ene": 3882,
      "encouraging": 3883,
      "ature": 3884,
      "inate": 3885,
      "saving": 3886,
      "Question": 3887,
      "payment": 3888,
      "Czech": 3889,
      "gradu": 3890,
      "politics": 3891,
      "none": 3892,
      "contributions": 3893,
      "imposed": 3894,
      "permanent": 3895,
      "sibly": 3896,
      "Vice": 3897,
      "Yet": 3898,
      "tobac": 3899,
      "whilst": 3900,
      "constitutional": 3901,
      "From": 3902,
      "reaching": 3903,
      "tobacco": 3904,
      "igno": 3905,
      "Socialist": 3906,
      "Rese": 3907,
      "Research": 3908,
      "respected": 3909,
      "decisive": 3910,
      "flexible": 3911,
      "languages": 3912,
      "facilitate": 3913,
      "belong": 3914,
      "labelling": 3915,
      "dign": 3916,
      "Des": 3917,
      "hagen": 3918,
      "inclusion": 3919,
      "determination": 3920,
      "functioning": 3921,
      "welfare": 3922,
      "24": 3923,
      "23": 3924,
      "stra": 3925,
      "fine": 3926,
      "prefer": 3927,
      "delighted": 3928,
      "speaker": 3929,
      "incent": 3930,
      "century": 3931,
      "vast": 3932,
      "claim": 3933,
      "continued": 3934,
      "interested": 3935,
      "trading": 3936,
      "contract": 3937,
      "compat": 3938,
      "Vi": 3939,
      "truth": 3940,
      "temporary": 3941,
      "arrest": 3942,
      "awareness": 3943,
      "experts": 3944,
      "proposes": 3945,
      "equally": 3946,
      "crimes": 3947,
      "Mal": 3948,
      "enabl": 3949,
      "maritime": 3950,
      "NATO": 3951,
      "Cro": 3952,
      "ulner": 3953,
      "complic": 3954,
      "requirement": 3955,
      "satisfactory": 3956,
      "ronic": 3957,
      "gl": 3958,
      "plant": 3959,
      "bene": 3960,
      "Gu": 3961,
      "ethnic": 3962,
      "teed": 3963,
      "conflicts": 3964,
      "inated": 3965,
      "Legal": 3966,
      "realistic": 3967,
      "opinions": 3968,
      "restrictions": 3969,
      "evening": 3970,
      "Stras": 3971,
      "diseas": 3972,
      "vulner": 3973,
      "negotiating": 3974,
      "solve": 3975,
      "guaranteed": 3976,
      "effectiveness": 3977,
      "adjust": 3978,
      "therlands": 3979,
      "budsman": 3980,
      "visa": 3981,
      "helping": 3982,
      "Netherlands": 3983,
      "Ky": 3984,
      "operations": 3985,
      "ste": 3986,
      "Strasbourg": 3987,
      "spending": 3988,
      "diseases": 3989,
      "react": 3990,
      "impose": 3991,
      "exem": 3992,
      "customs": 3993,
      "ov": 3994,
      "forthcoming": 3995,
      "ches": 3996,
      "investments": 3997,
      "written": 3998,
      "supplement": 3999,
      "ival": 4000,
      "tered": 4001,
      "bank": 4002,
      "engers": 4003,
      "fif": 4004,
      "Consum": 4005,
      "protected": 4006,
      "fy": 4007,
      "Lux": 4008,
      "personally": 4009,
      "lam": 4010,
      "teen": 4011,
      "ift": 4012,
      "purposes": 4013,
      "submit": 4014,
      "openhagen": 4015,
      "Copenhagen": 4016,
      "fru": 4017,
      "allowing": 4018,
      "zer": 4019,
      "seven": 4020,
      "Luxem": 4021,
      "Baltic": 4022,
      "DP": 4023,
      "numerous": 4024,
      "normal": 4025,
      "quant": 4026,
      "Stability": 4027,
      "examine": 4028,
      "tasks": 4029,
      "warm": 4030,
      "traditional": 4031,
      "referendum": 4032,
      "iction": 4033,
      "dependent": 4034,
      "Other": 4035,
      "separate": 4036,
      "New": 4037,
      "pol": 4038,
      "legitimate": 4039,
      "associated": 4040,
      "skill": 4041,
      "voluntary": 4042,
      "ked": 4043,
      "Om": 4044,
      "contrad": 4045,
      "Georg": 4046,
      "ff": 4047,
      "appropriations": 4048,
      "avi": 4049,
      "millions": 4050,
      "Croat": 4051,
      "Framework": 4052,
      "alle": 4053,
      "gone": 4054,
      "demonstrate": 4055,
      "Luxembourg": 4056,
      "mical": 4057,
      "worse": 4058,
      "valu": 4059,
      "1997": 4060,
      "Agenda": 4061,
      "Mor": 4062,
      "Not": 4063,
      "disasters": 4064,
      "distribution": 4065,
      "High": 4066,
      "respective": 4067,
      "demonstrated": 4068,
      "cot": 4069,
      "deliver": 4070,
      "peaceful": 4071,
      "scheme": 4072,
      "passengers": 4073,
      "nal": 4074,
      "Action": 4075,
      "complain": 4076,
      "...": 4077,
      "%.": 4078,
      "98": 4079,
      "exists": 4080,
      "Afghanistan": 4081,
      "occasion": 4082,
      "benefic": 4083,
      "thorough": 4084,
      "sc": 4085,
      "sexual": 4086,
      "treated": 4087,
      "onia": 4088,
      "USA": 4089,
      "individuals": 4090,
      "utch": 4091,
      "concentr": 4092,
      "technological": 4093,
      "contained": 4094,
      "Fish": 4095,
      "letter": 4096,
      "occasions": 4097,
      "gap": 4098,
      "Ano": 4099,
      "base": 4100,
      "flow": 4101,
      "remarks": 4102,
      "places": 4103,
      "Market": 4104,
      "lation": 4105,
      "meaning": 4106,
      "Are": 4107,
      "ECU": 4108,
      "imag": 4109,
      "sions": 4110,
      "holding": 4111,
      "Another": 4112,
      "Head": 4113,
      "passed": 4114,
      "CAP": 4115,
      "attle": 4116,
      "India": 4117,
      "knows": 4118,
      "Balkans": 4119,
      "pan": 4120,
      "corruption": 4121,
      "toler": 4122,
      "retain": 4123,
      "electric": 4124,
      "quot": 4125,
      "operators": 4126,
      "Ombudsman": 4127,
      "Finan": 4128,
      "push": 4129,
      "urely": 4130,
      "tried": 4131,
      "core": 4132,
      "average": 4133,
      "offers": 4134,
      "auto": 4135,
      "frequ": 4136,
      "AL": 4137,
      "ultimately": 4138,
      "approve": 4139,
      "officials": 4140,
      "Portugu": 4141,
      "aren": 4142,
      "examples": 4143,
      "obli": 4144,
      "visit": 4145,
      "beha": 4146,
      "97": 4147,
      "bound": 4148,
      "relative": 4149,
      "promises": 4150,
      "formal": 4151,
      "condemn": 4152,
      "Lastly": 4153,
      "Portuguese": 4154,
      "primarily": 4155,
      "Her": 4156,
      "foot": 4157,
      "changing": 4158,
      "Austria": 4159,
      "definite": 4160,
      "conce": 4161,
      "formul": 4162,
      "2013": 4163,
      "22": 4164,
      "ots": 4165,
      "concluded": 4166,
      "amounts": 4167,
      "unders": 4168,
      "Chin": 4169,
      "entitled": 4170,
      "types": 4171,
      "slow": 4172,
      "Chinese": 4173,
      "Emp": 4174,
      "assure": 4175,
      "Treat": 4176,
      "lose": 4177,
      "eries": 4178,
      "realise": 4179,
      "spread": 4180,
      "oppos": 4181,
      "extended": 4182,
      "sport": 4183,
      "Despite": 4184,
      "hands": 4185,
      "dignity": 4186,
      "Dutch": 4187,
      "involves": 4188,
      "overcome": 4189,
      "Budgets": 4190,
      "tection": 4191,
      "difference": 4192,
      "cooperate": 4193,
      "check": 4194,
      "ships": 4195,
      "vak": 4196,
      "infring": 4197,
      "Ara": 4198,
      "allocated": 4199,
      "revision": 4200,
      "noted": 4201,
      "statistics": 4202,
      "emb": 4203,
      "bol": 4204,
      "ito": 4205,
      "shar": 4206,
      "Women": 4207,
      "Alban": 4208,
      "substance": 4209,
      "productive": 4210,
      "emergency": 4211,
      "Cub": 4212,
      "nevertheless": 4213,
      "ests": 4214,
      "violations": 4215,
      "firmly": 4216,
      "vulnerable": 4217,
      "Treaties": 4218,
      "mid": 4219,
      "reiter": 4220,
      "imports": 4221,
      "orate": 4222,
      "whatever": 4223,
      "bruary": 4224,
      "February": 4225,
      "aud": 4226,
      "latter": 4227,
      "ba": 4228,
      "stable": 4229,
      "felt": 4230,
      "planned": 4231,
      "farming": 4232,
      "eli": 4233,
      "gment": 4234,
      "outhern": 4235,
      "pleas": 4236,
      "popul": 4237,
      "mur": 4238,
      "chemical": 4239,
      "Financial": 4240,
      "undoub": 4241,
      "clause": 4242,
      "ministers": 4243,
      "room": 4244,
      "represented": 4245,
      "Given": 4246,
      "xed": 4247,
      "rac": 4248,
      "Organisation": 4249,
      "unless": 4250,
      "phen": 4251,
      "impression": 4252,
      "1996": 4253,
      "pie": 4254,
      "industries": 4255,
      "ilt": 4256,
      "convention": 4257,
      "afford": 4258,
      "shadow": 4259,
      "lob": 4260,
      "Perhaps": 4261,
      "obstacles": 4262,
      "taxes": 4263,
      "secondly": 4264,
      "centre": 4265,
      "requested": 4266,
      "allows": 4267,
      "agency": 4268,
      "court": 4269,
      "lying": 4270,
      "supervision": 4271,
      "coast": 4272,
      "happens": 4273,
      "iscal": 4274,
      "Part": 4275,
      "incident": 4276,
      "considering": 4277,
      "Israeli": 4278,
      "penalty": 4279,
      "rul": 4280,
      "property": 4281,
      "exclusion": 4282,
      "insurance": 4283,
      "extension": 4284,
      "Transport": 4285,
      "Here": 4286,
      "tool": 4287,
      "unfair": 4288,
      "destru": 4289,
      "introducing": 4290,
      "lights": 4291,
      "implic": 4292,
      "distort": 4293,
      "viour": 4294,
      "sw": 4295,
      "preventing": 4296,
      "front": 4297,
      "Serv": 4298,
      "somewhat": 4299,
      "Assembly": 4300,
      "appointed": 4301,
      "sor": 4302,
      "attra": 4303,
      "qualified": 4304,
      "honest": 4305,
      "highest": 4306,
      "electronic": 4307,
      "geograph": 4308,
      "abuse": 4309,
      "urban": 4310,
      "spoken": 4311,
      "engage": 4312,
      "Yes": 4313,
      "gic": 4314,
      "Islam": 4315,
      "phase": 4316,
      "quotas": 4317,
      "Slovak": 4318,
      "acknowledge": 4319,
      "coordinated": 4320,
      "Any": 4321,
      "preparing": 4322,
      "block": 4323,
      "exploitation": 4324,
      "fishermen": 4325,
      "operational": 4326,
      "compared": 4327,
      "accounts": 4328,
      "Kore": 4329,
      "replace": 4330,
      "please": 4331,
      "worry": 4332,
      "relates": 4333,
      "determined": 4334,
      "undoubtedly": 4335,
      "mine": 4336,
      "abstain": 4337,
      "inade": 4338,
      "details": 4339,
      "cult": 4340,
      "ague": 4341,
      "applying": 4342,
      "EL": 4343,
      "constantly": 4344,
      "apan": 4345,
      "confirmed": 4346,
      "taxpay": 4347,
      "appreciate": 4348,
      "70": 4349,
      "urgently": 4350,
      "announced": 4351,
      "sym": 4352,
      "NGOs": 4353,
      "Commun": 4354,
      "contact": 4355,
      "phenomen": 4356,
      "exception": 4357,
      "embar": 4358,
      "Fundamental": 4359,
      "stocks": 4360,
      "Po": 4361,
      "behaviour": 4362,
      "spoke": 4363,
      "trend": 4364,
      "drawing": 4365,
      "Because": 4366,
      "Sub": 4367,
      "processes": 4368,
      "arent": 4369,
      "dynam": 4370,
      "witness": 4371,
      "Japan": 4372,
      "sight": 4373,
      "facts": 4374,
      "COM": 4375,
      "apparent": 4376,
      "pursue": 4377,
      "son": 4378,
      "compe": 4379,
      "Prodi": 4380,
      "fuel": 4381,
      "advert": 4382,
      "formation": 4383,
      "finding": 4384,
      "Mac": 4385,
      "united": 4386,
      "Then": 4387,
      "stronger": 4388,
      "duties": 4389,
      "IS": 4390,
      "expectations": 4391,
      "advance": 4392,
      "enty": 4393,
      "exclusive": 4394,
      "vest": 4395,
      "ishing": 4396,
      "fiscal": 4397,
      "aband": 4398,
      "Fisheries": 4399,
      "comed": 4400,
      "meat": 4401,
      "sensible": 4402,
      "described": 4403,
      "prosperity": 4404,
      "paper": 4405,
      "iling": 4406,
      "latest": 4407,
      "structuring": 4408,
      "school": 4409,
      "coherent": 4410,
      "codecision": 4411,
      "Asia": 4412,
      "proceedings": 4413,
      "plants": 4414,
      "fruit": 4415,
      "ancing": 4416,
      "strategies": 4417,
      "tood": 4418,
      "fig": 4419,
      "Alliance": 4420,
      "largest": 4421,
      "sphere": 4422,
      "strengthened": 4423,
      "universal": 4424,
      "understood": 4425,
      "Intergovernmental": 4426,
      "welcomed": 4427,
      "tend": 4428,
      "moral": 4429,
      "advantages": 4430,
      "barriers": 4431,
      "historic": 4432,
      "eties": 4433,
      "clean": 4434,
      "saw": 4435,
      "consult": 4436,
      "fields": 4437,
      "Croatia": 4438,
      "friendly": 4439,
      "Su": 4440,
      "arguments": 4441,
      "NL": 4442,
      "city": 4443,
      "inc": 4444,
      "studies": 4445,
      "define": 4446,
      "CO2": 4447,
      "stim": 4448,
      "posal": 4449,
      "politically": 4450,
      "minutes": 4451,
      "utin": 4452,
      "convergence": 4453,
      "association": 4454,
      "hom": 4455,
      "ende": 4456,
      "kept": 4457,
      "traged": 4458,
      "Yu": 4459,
      "asp": 4460,
      "iff": 4461,
      "Secre": 4462,
      "lection": 4463,
      "intends": 4464,
      "territorial": 4465,
      "stay": 4466,
      "ication": 4467,
      "imper": 4468,
      "tests": 4469,
      "materials": 4470,
      "proh": 4471,
      "ratification": 4472,
      "margin": 4473,
      "exclud": 4474,
      "beings": 4475,
      "mobil": 4476,
      "clarify": 4477,
      "cel": 4478,
      "26": 4479,
      "uniform": 4480,
      "wealth": 4481,
      "Go": 4482,
      "tradition": 4483,
      "decent": 4484,
      "Bos": 4485,
      "Employment": 4486,
      "estim": 4487,
      "rence": 4488,
      "lap": 4489,
      "wait": 4490,
      "contracts": 4491,
      "destroy": 4492,
      "debating": 4493,
      "Protection": 4494,
      "White": 4495,
      "published": 4496,
      "96": 4497,
      "Consumer": 4498,
      "briefly": 4499,
      "bro": 4500,
      "cities": 4501,
      "resist": 4502,
      "mic": 4503,
      "leadership": 4504,
      "follows": 4505,
      "largely": 4506,
      "optim": 4507,
      "interven": 4508,
      "multilateral": 4509,
      "equipment": 4510,
      "restructuring": 4511,
      "resto": 4512,
      "mono": 4513,
      "marked": 4514,
      "jection": 4515,
      "sovereignty": 4516,
      "visory": 4517,
      "surve": 4518,
      "innovative": 4519,
      "iding": 4520,
      "ifications": 4521,
      "brings": 4522,
      "virt": 4523,
      "accidents": 4524,
      "cars": 4525,
      "uls": 4526,
      "correspond": 4527,
      "maintaining": 4528,
      "A5": 4529,
      "verse": 4530,
      "federal": 4531,
      "playing": 4532,
      "Safe": 4533,
      "kers": 4534,
      "Constitutional": 4535,
      "evalu": 4536,
      "seeing": 4537,
      "significantly": 4538,
      "ya": 4539,
      "West": 4540,
      "producing": 4541,
      "host": 4542,
      "rep": 4543,
      "ini": 4544,
      "version": 4545,
      "amending": 4546,
      "gosla": 4547,
      "believes": 4548,
      "Yugosla": 4549,
      "urgency": 4550,
      "answers": 4551,
      "carbon": 4552,
      "Instead": 4553,
      "vation": 4554,
      "undertaken": 4555,
      "generation": 4556,
      "mental": 4557,
      "ongoing": 4558,
      "offered": 4559,
      "perfectly": 4560,
      "electricity": 4561,
      "CE": 4562,
      "identity": 4563,
      "Pak": 4564,
      "profit": 4565,
      "bab": 4566,
      "transition": 4567,
      "ai": 4568,
      "boo": 4569,
      "amended": 4570,
      "patent": 4571,
      "argument": 4572,
      "Pakistan": 4573,
      "rust": 4574,
      "Report": 4575,
      "spects": 4576,
      "careful": 4577,
      "users": 4578,
      "Hungarian": 4579,
      "touch": 4580,
      "waiting": 4581,
      "Serbia": 4582,
      "ilities": 4583,
      "vig": 4584,
      "texts": 4585,
      "29": 4586,
      "RO": 4587,
      "Protocol": 4588,
      "endeav": 4589,
      "learning": 4590,
      "iders": 4591,
      "lined": 4592,
      "sufficiently": 4593,
      "Latin": 4594,
      "Gre": 4595,
      "figure": 4596,
      "vessels": 4597,
      "actively": 4598,
      "patients": 4599,
      "dictator": 4600,
      "wine": 4601,
      "budgets": 4602,
      "negotiation": 4603,
      "significance": 4604,
      "surv": 4605,
      "built": 4606,
      "driving": 4607,
      "orest": 4608,
      "absence": 4609,
      "ulsory": 4610,
      "news": 4611,
      "Car": 4612,
      "inspe": 4613,
      "difficulty": 4614,
      "satisfied": 4615,
      "ali": 4616,
      "EM": 4617,
      "highlighted": 4618,
      "cou": 4619,
      "Consequently": 4620,
      "medical": 4621,
      "oto": 4622,
      "adapt": 4623,
      "culation": 4624,
      "ded": 4625,
      "sold": 4626,
      "rank": 4627,
      "turning": 4628,
      "choose": 4629,
      "Heads": 4630,
      "distin": 4631,
      "Represent": 4632,
      "constitu": 4633,
      "expert": 4634,
      "stream": 4635,
      "sil": 4636,
      "legitim": 4637,
      "Under": 4638,
      "educ": 4639,
      "disposal": 4640,
      "Che": 4641,
      "rees": 4642,
      "trial": 4643,
      "ange": 4644,
      "supposed": 4645,
      "VAT": 4646,
      "ering": 4647,
      "neighbours": 4648,
      "deficit": 4649,
      "sustainability": 4650,
      "Georgia": 4651,
      "honour": 4652,
      "vac": 4653,
      "Contro": 4654,
      "card": 4655,
      "compulsory": 4656,
      "holders": 4657,
      "genuinely": 4658,
      "stimul": 4659,
      "RE": 4660,
      "resulting": 4661,
      "scr": 4662,
      "extensive": 4663,
      "leads": 4664,
      "28": 4665,
      "referring": 4666,
      "apart": 4667,
      "ered": 4668,
      "habit": 4669,
      "aily": 4670,
      "valuable": 4671,
      "Food": 4672,
      "assum": 4673,
      "Im": 4674,
      "Mc": 4675,
      "milk": 4676,
      "teach": 4677,
      "envis": 4678,
      "abilities": 4679,
      "isol": 4680,
      "obser": 4681,
      "Safety": 4682,
      "onom": 4683,
      "ades": 4684,
      "waters": 4685,
      "divid": 4686,
      "Cooperation": 4687,
      "thly": 4688,
      "exports": 4689,
      "genet": 4690,
      "Res": 4691,
      "orient": 4692,
      "stock": 4693,
      "primary": 4694,
      "Pat": 4695,
      "Where": 4696,
      "considers": 4697,
      "’.": 4698,
      "GDP": 4699,
      "ior": 4700,
      "infringe": 4701,
      "03": 4702,
      "deliber": 4703,
      "daily": 4704,
      "tock": 4705,
      "Spe": 4706,
      "sad": 4707,
      "boost": 4708,
      "acknowled": 4709,
      "iversity": 4710,
      "Bosn": 4711,
      "slight": 4712,
      "arma": 4713,
      "aside": 4714,
      "becomes": 4715,
      "suggested": 4716,
      "compatible": 4717,
      "symp": 4718,
      "accus": 4719,
      "Internal": 4720,
      "preparation": 4721,
      "evident": 4722,
      "San": 4723,
      "flood": 4724,
      "AF": 4725,
      "Thurs": 4726,
      "declared": 4727,
      "Finland": 4728,
      "cof": 4729,
      "running": 4730,
      "assume": 4731,
      "lac": 4732,
      "destruction": 4733,
      "bes": 4734,
      "neighbouring": 4735,
      "cure": 4736,
      "friends": 4737,
      "500": 4738,
      "someone": 4739,
      "consci": 4740,
      "abandon": 4741,
      "%,": 4742,
      "strugg": 4743,
      "numbers": 4744,
      "reci": 4745,
      "healthy": 4746,
      "Greens": 4747,
      "stu": 4748,
      "198": 4749,
      "Thursday": 4750,
      "During": 4751,
      "promised": 4752,
      "Direct": 4753,
      "ery": 4754,
      "ale": 4755,
      "indicated": 4756,
      "Control": 4757,
      "launched": 4758,
      "interpretation": 4759,
      "commission": 4760,
      "requests": 4761,
      "Once": 4762,
      "constitute": 4763,
      "charges": 4764,
      "La": 4765,
      "vari": 4766,
      "chairman": 4767,
      "wider": 4768,
      "journal": 4769,
      "regarded": 4770,
      "size": 4771,
      "Over": 4772,
      "speeches": 4773,
      "elsewhere": 4774,
      "War": 4775,
      "possibly": 4776,
      "enforcement": 4777,
      "night": 4778,
      "weight": 4779,
      "identified": 4780,
      "maintained": 4781,
      "Northern": 4782,
      "competent": 4783,
      "protocol": 4784,
      "count": 4785,
      "listen": 4786,
      "Before": 4787,
      "Kyoto": 4788,
      "massive": 4789,
      "double": 4790,
      "acting": 4791,
      "identify": 4792,
      "hous": 4793,
      "team": 4794,
      "reaction": 4795,
      "Regional": 4796,
      "investigation": 4797,
      "television": 4798,
      "proof": 4799,
      "cop": 4800,
      "opened": 4801,
      "collab": 4802,
      "stands": 4803,
      "1995": 4804,
      "Europol": 4805,
      "Without": 4806,
      "favourable": 4807,
      "hun": 4808,
      "ps": 4809,
      "medicines": 4810,
      "partly": 4811,
      "thanking": 4812,
      "valid": 4813,
      "judge": 4814,
      "transitional": 4815,
      "Britain": 4816,
      "went": 4817,
      "advoc": 4818,
      "greatly": 4819,
      "previously": 4820,
      "links": 4821,
      "release": 4822,
      "Common": 4823,
      "etc": 4824,
      "Chair": 4825,
      "affects": 4826,
      "Cor": 4827,
      "aviation": 4828,
      "concentrate": 4829,
      "flag": 4830,
      "OL": 4831,
      "complement": 4832,
      "Moroc": 4833,
      "Thus": 4834,
      "inadequate": 4835,
      "opposite": 4836,
      "Austrian": 4837,
      "code": 4838,
      "iday": 4839,
      "prisoners": 4840,
      "BSE": 4841,
      "monopo": 4842,
      "societies": 4843,
      "eight": 4844,
      "tragic": 4845,
      "chosen": 4846,
      "intellect": 4847,
      "obliged": 4848,
      "ops": 4849,
      "possibilities": 4850,
      "moreover": 4851,
      "guaranteeing": 4852,
      "correctly": 4853,
      "External": 4854,
      "species": 4855,
      "strength": 4856,
      "appointment": 4857,
      "ona": 4858,
      "haz": 4859,
      "topic": 4860,
      "intensive": 4861,
      "multi": 4862,
      "GM": 4863,
      "timetable": 4864,
      "himself": 4865,
      "fast": 4866,
      "mun": 4867,
      "blood": 4868,
      "attempts": 4869,
      "necessarily": 4870,
      "enhance": 4871,
      "motor": 4872,
      "issued": 4873,
      "complicated": 4874,
      "terri": 4875,
      "debated": 4876,
      "completed": 4877,
      "regulated": 4878,
      "conducted": 4879,
      "Nice": 4880,
      "helped": 4881,
      "ength": 4882,
      "suffered": 4883,
      "cohol": 4884,
      "carrying": 4885,
      "schemes": 4886,
      "remove": 4887,
      "Presidents": 4888,
      "implications": 4889,
      "DA": 4890,
      "hearing": 4891,
      "90": 4892,
      "enger": 4893,
      "secut": 4894,
      "dump": 4895,
      "belief": 4896,
      "Gen": 4897,
      "dig": 4898,
      "stabil": 4899,
      "Tun": 4900,
      "reconstruction": 4901,
      "mac": 4902,
      "reven": 4903,
      "suitable": 4904,
      "confron": 4905,
      "deserves": 4906,
      "igu": 4907,
      "Having": 4908,
      "seeks": 4909,
      "herit": 4910,
      "pa": 4911,
      "armed": 4912,
      "options": 4913,
      "firms": 4914,
      "remark": 4915,
      "warning": 4916,
      "willingness": 4917,
      "omb": 4918,
      "heavy": 4919,
      "Est": 4920,
      "raising": 4921,
      "National": 4922,
      "iry": 4923,
      "awa": 4924,
      "poorest": 4925,
      "sorry": 4926,
      "posing": 4927,
      "ipul": 4928,
      "Hungary": 4929,
      "Lith": 4930,
      "definitely": 4931,
      "ie": 4932,
      "coal": 4933,
      "settlement": 4934,
      "Liberal": 4935,
      "Lithu": 4936,
      "depart": 4937,
      "mistake": 4938,
      "explic": 4939,
      "surely": 4940,
      "deals": 4941,
      "Secretary": 4942,
      "conserv": 4943,
      "ratified": 4944,
      "addressing": 4945,
      "tragedy": 4946,
      "alcohol": 4947,
      "Bosnia": 4948,
      "rational": 4949,
      "facilities": 4950,
      "ino": 4951,
      "worldwide": 4952,
      "intellectual": 4953,
      "successfully": 4954,
      "acquis": 4955,
      "Nat": 4956,
      "spite": 4957,
      "gory": 4958,
      "whereby": 4959,
      "focused": 4960,
      "advertising": 4961,
      "length": 4962,
      "nex": 4963,
      "centres": 4964,
      "2011": 4965,
      "minute": 4966,
      "Four": 4967,
      "undermin": 4968,
      "afternoon": 4969,
      "intentions": 4970,
      "oul": 4971,
      "reliable": 4972,
      "piece": 4973,
      "pring": 4974,
      "eastern": 4975,
      "EN": 4976,
      "prospects": 4977,
      "nationals": 4978,
      "harmful": 4979,
      "rant": 4980,
      "Home": 4981,
      "Representative": 4982,
      "CF": 4983,
      "apo": 4984,
      "southern": 4985,
      "atures": 4986,
      "inev": 4987,
      "governing": 4988,
      "sugar": 4989,
      "sho": 4990,
      "ECB": 4991,
      "Belgian": 4992,
      "Partner": 4993,
      "ros": 4994,
      "crop": 4995,
      "31": 4996,
      "black": 4997,
      "ds": 4998,
      "prohib": 4999,
      "fication": 5000,
      "autonom": 5001,
      "Belgium": 5002,
      "percent": 5003,
      "purely": 5004,
      "astr": 5005,
      "caution": 5006,
      "register": 5007,
      "claims": 5008,
      "Korea": 5009,
      "forman": 5010,
      "Den": 5011,
      "hn": 5012,
      "openness": 5013,
      "approx": 5014,
      "termine": 5015,
      "atlantic": 5016,
      "determine": 5017,
      "tools": 5018,
      "worst": 5019,
      "fulfill": 5020,
      "demanding": 5021,
      "pollut": 5022,
      "seas": 5023,
      "players": 5024,
      "purch": 5025,
      "solely": 5026,
      "diplomatic": 5027,
      "taxpayers": 5028,
      "enn": 5029,
      "gers": 5030,
      "extending": 5031,
      "A4": 5032,
      "hundreds": 5033,
      "phenomenon": 5034,
      "skills": 5035,
      "cuts": 5036,
      "Socialists": 5037,
      "pensions": 5038,
      "Polish": 5039,
      "inten": 5040,
      "increases": 5041,
      "easily": 5042,
      "None": 5043,
      "worrying": 5044,
      "unanimously": 5045,
      "foremost": 5046,
      "considerations": 5047,
      "essentially": 5048,
      "Lef": 5049,
      "fortunate": 5050,
      "fers": 5051,
      "lif": 5052,
      "background": 5053,
      "depends": 5054,
      "town": 5055,
      "irect": 5056,
      "phys": 5057,
      "profits": 5058,
      "Canad": 5059,
      "stressed": 5060,
      "Author": 5061,
      "Time": 5062,
      "breach": 5063,
      "controver": 5064,
      "reve": 5065,
      "ideo": 5066,
      "environmentally": 5067,
      "mas": 5068,
      "faith": 5069,
      "Danish": 5070,
      "scand": 5071,
      "relatively": 5072,
      "paying": 5073,
      "expand": 5074,
      "cycl": 5075,
      "depth": 5076,
      "dispute": 5077,
      "orture": 5078,
      "crises": 5079,
      "threats": 5080,
      "hit": 5081,
      "fire": 5082,
      "arise": 5083,
      "advice": 5084,
      "Both": 5085,
      "refers": 5086,
      "performan": 5087,
      "respects": 5088,
      "Ti": 5089,
      "passenger": 5090,
      "Grow": 5091,
      "hopes": 5092,
      "extreme": 5093,
      "rapidly": 5094,
      "eva": 5095,
      "chap": 5096,
      "prevail": 5097,
      "feeling": 5098,
      "quote": 5099,
      "symbol": 5100,
      "heading": 5101,
      "bureaucracy": 5102,
      "enabling": 5103,
      "opho": 5104,
      "achievement": 5105,
      "stor": 5106,
      "explicit": 5107,
      "reinforce": 5108,
      "ume": 5109,
      "prene": 5110,
      "proud": 5111,
      "manufacturers": 5112,
      "drop": 5113,
      "reprene": 5114,
      "craft": 5115,
      "remaining": 5116,
      "beg": 5117,
      "geographical": 5118,
      "Lam": 5119,
      "recall": 5120,
      "encing": 5121,
      "exceed": 5122,
      "Partnership": 5123,
      "door": 5124,
      "pict": 5125,
      "eye": 5126,
      "raw": 5127,
      "heritage": 5128,
      "considerably": 5129,
      "looked": 5130,
      "worthy": 5131,
      "Chech": 5132,
      "interinstitutional": 5133,
      "savings": 5134,
      "experienced": 5135,
      "Cuba": 5136,
      "Left": 5137,
      "granting": 5138,
      "raid": 5139,
      "decades": 5140,
      "Growth": 5141,
      "commod": 5142,
      "Barcel": 5143,
      "satisfaction": 5144,
      "Barcelona": 5145,
      "Egy": 5146,
      "spend": 5147,
      "undertakings": 5148,
      "Egypt": 5149,
      "emphasised": 5150,
      "Scot": 5151,
      "powerful": 5152,
      "applicable": 5153,
      "radio": 5154,
      "collect": 5155,
      "augh": 5156,
      "negotiated": 5157,
      "doubts": 5158,
      "categor": 5159,
      "clarity": 5160,
      "beef": 5161,
      "whereas": 5162,
      "schools": 5163,
      "Does": 5164,
      "encouraged": 5165,
      "cofin": 5166,
      "Citiz": 5167,
      "modified": 5168,
      "Budgetary": 5169,
      "Arab": 5170,
      "cipl": 5171,
      "IN": 5172,
      "burg": 5173,
      "wered": 5174,
      "competences": 5175,
      "usual": 5176,
      "35": 5177,
      "rig": 5178,
      "regrettable": 5179,
      "Tibet": 5180,
      "Pers": 5181,
      "admit": 5182,
      "oppose": 5183,
      "cert": 5184,
      "historical": 5185,
      "Will": 5186,
      "nual": 5187,
      "mother": 5188,
      "bra": 5189,
      "contributed": 5190,
      "founded": 5191,
      "Sloven": 5192,
      "entered": 5193,
      "unnecessary": 5194,
      "leged": 5195,
      "island": 5196,
      "ka": 5197,
      "prospect": 5198,
      "performance": 5199,
      "pled": 5200,
      "perform": 5201,
      "compon": 5202,
      "SP": 5203,
      "reflected": 5204,
      "affecting": 5205,
      "restricted": 5206,
      "precedent": 5207,
      "legitimacy": 5208,
      "rupt": 5209,
      "vations": 5210,
      "tou": 5211,
      "Rural": 5212,
      "endors": 5213,
      "violation": 5214,
      "shortcoming": 5215,
      "biggest": 5216,
      "Tunis": 5217,
      "Civ": 5218,
      "dered": 5219,
      "indirect": 5220,
      "controlled": 5221,
      "succeeded": 5222,
      "entreprene": 5223,
      "Zim": 5224,
      "sl": 5225,
      "asm": 5226,
      "icht": 5227,
      "tight": 5228,
      "dynamic": 5229,
      "Parliamentary": 5230,
      "execut": 5231,
      "imagine": 5232,
      "motions": 5233,
      "bul": 5234,
      "ivers": 5235,
      "oured": 5236,
      "resum": 5237,
      "radical": 5238,
      "negotiate": 5239,
      "removed": 5240,
      "tariff": 5241,
      "constitutes": 5242,
      "stance": 5243,
      "resh": 5244,
      "She": 5245,
      "ticles": 5246,
      "Sing": 5247,
      "ield": 5248,
      "detri": 5249,
      "privi": 5250,
      "examined": 5251,
      "processing": 5252,
      "targeted": 5253,
      "forum": 5254,
      "elder": 5255,
      "irable": 5256,
      "summer": 5257,
      "turned": 5258,
      "article": 5259,
      "airlines": 5260,
      "falls": 5261,
      "Plan": 5262,
      "applications": 5263,
      "Civil": 5264,
      "err": 5265,
      "supplementary": 5266,
      "Like": 5267,
      "Tour": 5268,
      "ables": 5269,
      "persu": 5270,
      "reservations": 5271,
      "graphic": 5272,
      "incorporated": 5273,
      "courts": 5274,
      "inflation": 5275,
      "Sud": 5276,
      "ID": 5277,
      "anda": 5278,
      "wo": 5279,
      "greenhouse": 5280,
      "Denmark": 5281,
      "moun": 5282,
      "arm": 5283,
      "intervene": 5284,
      "reshold": 5285,
      "utmost": 5286,
      "earth": 5287,
      "famili": 5288,
      "threshold": 5289,
      "surround": 5290,
      "scrutin": 5291,
      "stuff": 5292,
      "protest": 5293,
      "Van": 5294,
      "ball": 5295,
      "fit": 5296,
      "religion": 5297,
      "permit": 5298,
      "Culture": 5299,
      "south": 5300,
      "Subject": 5301,
      "bureaucratic": 5302,
      "reiterate": 5303,
      "Burma": 5304,
      "Authority": 5305,
      "ko": 5306,
      "sake": 5307,
      "consequence": 5308,
      "presenting": 5309,
      "obtained": 5310,
      "Maced": 5311,
      "simplification": 5312,
      "citizenship": 5313,
      "representation": 5314,
      "quiry": 5315,
      "save": 5316,
      "torture": 5317,
      "healthcare": 5318,
      "racism": 5319,
      "fairly": 5320,
      "Citizens": 5321,
      "restore": 5322,
      "hence": 5323,
      "smaller": 5324,
      "deeply": 5325,
      "Joint": 5326,
      "Its": 5327,
      "lasting": 5328,
      "subjects": 5329,
      "afraid": 5330,
      "Associ": 5331,
      "everybody": 5332,
      "pense": 5333,
      "wording": 5334,
      "isch": 5335,
      "welcomes": 5336,
      "fat": 5337,
      "illust": 5338,
      "Maastr": 5339,
      "Maastricht": 5340,
      "ception": 5341,
      "Gal": 5342,
      "secret": 5343,
      "ather": 5344,
      "incentives": 5345,
      "suggestions": 5346,
      "dumping": 5347,
      "Gaz": 5348,
      "sought": 5349,
      "employers": 5350,
      "lame": 5351,
      "shr": 5352,
      "inational": 5353,
      "leaving": 5354,
      "Tourism": 5355,
      "revol": 5356,
      "excluded": 5357,
      "creates": 5358,
      "error": 5359,
      "trave": 5360,
      "jun": 5361,
      "Stat": 5362,
      "Clear": 5363,
      "illenn": 5364,
      "pleasure": 5365,
      "marketing": 5366,
      "pain": 5367,
      "applicant": 5368,
      "odiversity": 5369,
      "deserve": 5370,
      "explanation": 5371,
      "Bra": 5372,
      "wage": 5373,
      "bearing": 5374,
      "olution": 5375,
      "Follow": 5376,
      "catch": 5377,
      "Act": 5378,
      "sac": 5379,
      "financed": 5380,
      "electoral": 5381,
      "Berlin": 5382,
      "map": 5383,
      "credible": 5384,
      "arer": 5385,
      "sharing": 5386,
      "discipl": 5387,
      "Well": 5388,
      "anticip": 5389,
      "declarations": 5390,
      "doct": 5391,
      "importantly": 5392,
      "Global": 5393,
      "ustry": 5394,
      "Industry": 5395,
      "entail": 5396,
      "babwe": 5397,
      "Zimbabwe": 5398,
      "Mus": 5399,
      "Sh": 5400,
      "Invest": 5401,
      "buy": 5402,
      "connected": 5403,
      "sch": 5404,
      "mob": 5405,
      "combined": 5406,
      "treaties": 5407,
      "eyes": 5408,
      "macro": 5409,
      "intens": 5410,
      "atically": 5411,
      "revised": 5412,
      "exc": 5413,
      "ictory": 5414,
      "derog": 5415,
      "jointly": 5416,
      "track": 5417,
      "hypo": 5418,
      "lie": 5419,
      "checks": 5420,
      "multinational": 5421,
      "tonnes": 5422,
      "45": 5423,
      "throw": 5424,
      "Fer": 5425,
      "forcing": 5426,
      "illennium": 5427,
      "drafting": 5428,
      "enlar": 5429,
      "fleet": 5430,
      "Association": 5431,
      "complaints": 5432,
      "Pa": 5433,
      "indis": 5434,
      "science": 5435,
      "eliminate": 5436,
      "terrible": 5437,
      "bel": 5438,
      "outstanding": 5439,
      "showing": 5440,
      "transactions": 5441,
      "regulate": 5442,
      "repeatedly": 5443,
      "Hel": 5444,
      "itle": 5445,
      "roads": 5446,
      "opard": 5447,
      "buildings": 5448,
      "reflects": 5449,
      "bomb": 5450,
      "exceptional": 5451,
      "pil": 5452,
      "disabled": 5453,
      "shortcomings": 5454,
      "recon": 5455,
      "cancer": 5456,
      "Slovakia": 5457,
      "secution": 5458,
      "surprised": 5459,
      "organiz": 5460,
      "nearly": 5461,
      "jur": 5462,
      "ria": 5463,
      "railway": 5464,
      "economically": 5465,
      "unemployed": 5466,
      "Sudan": 5467,
      "mobile": 5468,
      "brid": 5469,
      "Mold": 5470,
      "justify": 5471,
      "foundations": 5472,
      "straight": 5473,
      "Following": 5474,
      "ane": 5475,
      "broader": 5476,
      "alling": 5477,
      "PSE": 5478,
      "bing": 5479,
      "puts": 5480,
      "funded": 5481,
      "IM": 5482,
      "Kur": 5483,
      "allocation": 5484,
      "matically": 5485,
      "petition": 5486,
      "delays": 5487,
      "underline": 5488,
      "resulted": 5489,
      "jeopard": 5490,
      "expensive": 5491,
      "idespread": 5492,
      "75": 5493,
      "Mart": 5494,
      "Roman": 5495,
      "mits": 5496,
      "hardly": 5497,
      "familiar": 5498,
      "rating": 5499,
      "expressing": 5500,
      "periods": 5501,
      "itative": 5502,
      "kinds": 5503,
      "placing": 5504,
      "educational": 5505,
      "quota": 5506,
      "penalties": 5507,
      "Morocco": 5508,
      "fal": 5509,
      "fewer": 5510,
      "Atlantic": 5511,
      "deadline": 5512,
      "widespread": 5513,
      "ambigu": 5514,
      "students": 5515,
      "differ": 5516,
      "losses": 5517,
      "Bureau": 5518,
      "oting": 5519,
      "rou": 5520,
      "biodiversity": 5521,
      "Leban": 5522,
      "tough": 5523,
      "drafted": 5524,
      "suspended": 5525,
      "flu": 5526,
      "severe": 5527,
      "cow": 5528,
      "convic": 5529,
      "nar": 5530,
      "astic": 5531,
      "imes": 5532,
      "aks": 5533,
      "enhanced": 5534,
      "SV": 5535,
      "shame": 5536,
      "het": 5537,
      "fresh": 5538,
      "usal": 5539,
      "relate": 5540,
      "Sim": 5541,
      "transatlantic": 5542,
      "lobby": 5543,
      "Freedom": 5544,
      "bot": 5545,
      "tribute": 5546,
      "ambition": 5547,
      "liability": 5548,
      "expense": 5549,
      "GC": 5550,
      "shape": 5551,
      "CS": 5552,
      "Free": 5553,
      "Albania": 5554,
      "asing": 5555,
      "stipul": 5556,
      "dos": 5557,
      "redund": 5558,
      "tackling": 5559,
      "picture": 5560,
      "Cam": 5561,
      "below": 5562,
      "Islamic": 5563,
      "viously": 5564,
      "explained": 5565,
      "warmly": 5566,
      "youth": 5567,
      "preserve": 5568,
      "Ha": 5569,
      "accur": 5570,
      "abolition": 5571,
      "undermine": 5572,
      "ethical": 5573,
      "physical": 5574,
      "oring": 5575,
      "agg": 5576,
      "covers": 5577,
      "punish": 5578,
      "imm": 5579,
      "minim": 5580,
      "lessons": 5581,
      "democrat": 5582,
      "category": 5583,
      "qualifications": 5584,
      "preparations": 5585,
      "vacc": 5586,
      "procure": 5587,
      "rific": 5588,
      "Yugoslavia": 5589,
      "Nord": 5590,
      "compl": 5591,
      "99": 5592,
      "Mer": 5593,
      "condemned": 5594,
      "fur": 5595,
      "vent": 5596,
      "chi": 5597,
      "parents": 5598,
      "airports": 5599,
      "intergovernmental": 5600,
      "freely": 5601,
      "scandal": 5602,
      "roots": 5603,
      "Bro": 5604,
      "juris": 5605,
      "candidates": 5606,
      "Pet": 5607,
      "digital": 5608,
      "terrorists": 5609,
      "spl": 5610,
      "lebr": 5611,
      "became": 5612,
      "Palestinians": 5613,
      "aircraft": 5614,
      "shares": 5615,
      "Lithuania": 5616,
      "EMU": 5617,
      "scept": 5618,
      "insufficient": 5619,
      "EP": 5620,
      "army": 5621,
      "calcul": 5622,
      "ER": 5623,
      "unfortunate": 5624,
      "occurred": 5625,
      "bir": 5626,
      "viable": 5627,
      "gradually": 5628,
      "Gaza": 5629,
      "announce": 5630,
      "Macedonia": 5631,
      "ony": 5632,
      "twenty": 5633,
      "Engl": 5634,
      "Geneva": 5635,
      "English": 5636,
      "sof": 5637,
      "widely": 5638,
      "larger": 5639,
      "diction": 5640,
      "paralle": 5641,
      "ecological": 5642,
      "Braz": 5643,
      "gorous": 5644,
      "celebr": 5645,
      "Clearly": 5646,
      "Rome": 5647,
      "causing": 5648,
      "EA": 5649,
      "proves": 5650,
      "dev": 5651,
      "populations": 5652,
      "indicate": 5653,
      "watch": 5654,
      "swift": 5655,
      "Mo": 5656,
      "OS": 5657,
      "dependence": 5658,
      "coordinate": 5659,
      "drivers": 5660,
      "Pri": 5661,
      "tering": 5662,
      "accompan": 5663,
      "civilian": 5664,
      "birth": 5665,
      "pact": 5666,
      "generations": 5667,
      ".)": 5668,
      "Bas": 5669,
      "award": 5670,
      "frank": 5671,
      "agrees": 5672,
      "Finn": 5673,
      "deaths": 5674,
      "collaboration": 5675,
      "Canada": 5676,
      "IV": 5677,
      "battle": 5678,
      "nine": 5679,
      "uncertainty": 5680,
      "regardless": 5681,
      "ignore": 5682,
      "thusi": 5683,
      "nonetheless": 5684,
      "fying": 5685,
      "plus": 5686,
      "fre": 5687,
      "receiving": 5688,
      "demonstrates": 5689,
      "enthusi": 5690,
      "listened": 5691,
      "outset": 5692,
      "stitute": 5693,
      "cital": 5694,
      "Brazil": 5695,
      "section": 5696,
      "banking": 5697,
      "offering": 5698,
      "extraordinary": 5699,
      "elderly": 5700,
      "Man": 5701,
      "accessible": 5702,
      "indicators": 5703,
      "accompanied": 5704,
      "basically": 5705,
      "collap": 5706,
      "popular": 5707,
      "Cr": 5708,
      "engaged": 5709,
      "Obviously": 5710,
      "socio": 5711,
      "suggestion": 5712,
      "Cer": 5713,
      "weakness": 5714,
      "unanimous": 5715,
      "unique": 5716,
      "chain": 5717,
      "Pre": 5718,
      "inj": 5719,
      "Dec": 5720,
      "fas": 5721,
      "ensible": 5722,
      "equival": 5723,
      "hour": 5724,
      "remed": 5725,
      "began": 5726,
      "endeavour": 5727,
      "organise": 5728,
      "finances": 5729,
      "Sovi": 5730,
      "procurement": 5731,
      "reported": 5732,
      "Alger": 5733,
      "Regard": 5734,
      "ova": 5735,
      "SA": 5736,
      "observed": 5737,
      "necessity": 5738,
      "dossi": 5739,
      "collection": 5740,
      "Again": 5741,
      "declare": 5742,
      "territories": 5743,
      "tang": 5744,
      "pal": 5745,
      "associations": 5746,
      "exerc": 5747,
      "beneficial": 5748,
      "marine": 5749,
      "stuffs": 5750,
      "forgot": 5751,
      "conven": 5752,
      "Americans": 5753,
      "abstained": 5754,
      "attend": 5755,
      "prevented": 5756,
      "appeared": 5757,
      "forests": 5758,
      "journalists": 5759,
      "C5": 5760,
      "notice": 5761,
      "presentation": 5762,
      "promoted": 5763,
      "killed": 5764,
      "iced": 5765,
      "demographic": 5766,
      "atell": 5767,
      "1990": 5768,
      "Nonetheless": 5769,
      "AID": 5770,
      "rum": 5771,
      "telecommunications": 5772,
      "pectives": 5773,
      "B4": 5774,
      "frequently": 5775,
      "arising": 5776,
      "undertake": 5777,
      "struggle": 5778,
      "Soviet": 5779,
      "contacts": 5780,
      "congratulations": 5781,
      "blame": 5782,
      "istical": 5783,
      "95": 5784,
      "spring": 5785,
      "transit": 5786,
      "crimin": 5787,
      "supplies": 5788,
      "OLAF": 5789,
      "strike": 5790,
      "couple": 5791,
      "IGC": 5792,
      "B5": 5793,
      "Liby": 5794,
      "clearer": 5795,
      "reserve": 5796,
      "apers": 5797,
      "emerging": 5798,
      "Year": 5799,
      "Lan": 5800,
      "Fisch": 5801,
      "nobody": 5802,
      "illance": 5803,
      "gies": 5804,
      "decre": 5805,
      "efficiently": 5806,
      "conditional": 5807,
      "Also": 5808,
      "athy": 5809,
      "Lab": 5810,
      "vehicle": 5811,
      "irregular": 5812,
      "moved": 5813,
      "ski": 5814,
      "AIDS": 5815,
      "nya": 5816,
      "semin": 5817,
      "plays": 5818,
      "mag": 5819,
      "rout": 5820,
      "sending": 5821,
      "informal": 5822,
      "sincerely": 5823,
      "coherence": 5824,
      "ingu": 5825,
      "Chechnya": 5826,
      "gust": 5827,
      "revenue": 5828,
      "Mu": 5829,
      "pursued": 5830,
      "Def": 5831,
      "harmonised": 5832,
      "1994": 5833,
      "divided": 5834,
      "Kar": 5835,
      "solved": 5836,
      "shortly": 5837,
      "Lond": 5838,
      "approximately": 5839,
      "London": 5840,
      "Conserv": 5841,
      "’,": 5842,
      "discre": 5843,
      "talked": 5844,
      "Edu": 5845,
      "iers": 5846,
      "timely": 5847,
      "choices": 5848,
      "conventions": 5849,
      "rog": 5850,
      "loans": 5851,
      "covering": 5852,
      "tre": 5853,
      "persist": 5854,
      "Centre": 5855,
      "surveillance": 5856,
      "closure": 5857,
      "inating": 5858,
      "privat": 5859,
      "exclusively": 5860,
      "erad": 5861,
      "simplify": 5862,
      "mod": 5863,
      "respecting": 5864,
      "distinction": 5865,
      "sites": 5866,
      "reveal": 5867,
      "channe": 5868,
      "cheap": 5869,
      "congratulating": 5870,
      "troops": 5871,
      "Petitions": 5872,
      "ham": 5873,
      "iring": 5874,
      "requis": 5875,
      "acted": 5876,
      "flee": 5877,
      "drafts": 5878,
      "rejection": 5879,
      "depri": 5880,
      "fourth": 5881,
      "alongside": 5882,
      "horiz": 5883,
      "defining": 5884,
      "division": 5885,
      "Great": 5886,
      "percentage": 5887,
      "stations": 5888,
      "noise": 5889,
      "exec": 5890,
      "micro": 5891,
      "Investment": 5892,
      "uel": 5893,
      "unions": 5894,
      "comput": 5895,
      "IF": 5896,
      "east": 5897,
      "ligent": 5898,
      "disagree": 5899,
      "enlarged": 5900,
      "controversi": 5901,
      "Labour": 5902,
      "newsp": 5903,
      "Their": 5904,
      "consistency": 5905,
      "oman": 5906,
      "guards": 5907,
      "directed": 5908,
      "Cohesion": 5909,
      "clarification": 5910,
      "Wall": 5911,
      "rising": 5912,
      "northern": 5913,
      "experiencing": 5914,
      "judgment": 5915,
      "pressive": 5916,
      "ding": 5917,
      "qualities": 5918,
      "Fron": 5919,
      "observation": 5920,
      "mach": 5921,
      "refuse": 5922,
      "Single": 5923,
      "Most": 5924,
      "signing": 5925,
      "consulted": 5926,
      "Finnish": 5927,
      "pressing": 5928,
      "Declar": 5929,
      "campaigns": 5930,
      "asser": 5931,
      "progressive": 5932,
      "controversial": 5933,
      "image": 5934,
      "mere": 5935,
      "disappointed": 5936,
      "defending": 5937,
      "keen": 5938,
      "strictly": 5939,
      "cape": 5940,
      "fem": 5941,
      "emission": 5942,
      "ifies": 5943,
      "postal": 5944,
      "occupation": 5945,
      "looks": 5946,
      "Serb": 5947,
      "cking": 5948,
      "Ash": 5949,
      "EEC": 5950,
      "helpful": 5951,
      "textile": 5952,
      "inhabit": 5953,
      "string": 5954,
      "substanti": 5955,
      "neighbourhood": 5956,
      "alternatives": 5957,
      "soil": 5958,
      "2012": 5959,
      "Palestine": 5960,
      "route": 5961,
      "load": 5962,
      "desirable": 5963,
      "crops": 5964,
      "begun": 5965,
      "ederation": 5966,
      "fronti": 5967,
      "Otherwise": 5968,
      "secur": 5969,
      "unanimity": 5970,
      "born": 5971,
      "TA": 5972,
      "items": 5973,
      "Moldova": 5974,
      "distingu": 5975,
      "Education": 5976,
      "lease": 5977,
      "parallel": 5978,
      "tangible": 5979,
      "perspectives": 5980,
      "enopho": 5981,
      "enshr": 5982,
      "arians": 5983,
      "woman": 5984,
      "reflection": 5985,
      "hazard": 5986,
      "answered": 5987,
      "missing": 5988,
      "Your": 5989,
      "48": 5990,
      "conservation": 5991,
      "owner": 5992,
      "ames": 5993,
      "migrants": 5994,
      "joined": 5995,
      "lacking": 5996,
      "ruling": 5997,
      "Service": 5998,
      "traditions": 5999,
      "quar": 6000,
      "invite": 6001,
      "hoped": 6002,
      "Declaration": 6003,
      "dream": 6004,
      "absur": 6005,
      "yourself": 6006,
      "coastal": 6007,
      "Tam": 6008,
      "iary": 6009,
      "unit": 6010,
      "permitted": 6011,
      "threatened": 6012,
      "railways": 6013,
      "obod": 6014,
      "intoler": 6015,
      "Muslim": 6016,
      "adequ": 6017,
      "Solid": 6018,
      ".'": 6019,
      "):": 6020,
      "outer": 6021,
      "counterfe": 6022,
      "forgotten": 6023,
      "plural": 6024,
      "contam": 6025,
      "joining": 6026,
      "raises": 6027,
      "Similar": 6028,
      "absurd": 6029,
      "foster": 6030,
      "compete": 6031,
      "Ms": 6032,
      "farms": 6033,
      "imposing": 6034,
      "acceler": 6035,
      "missions": 6036,
      "nut": 6037,
      "replaced": 6038,
      "notes": 6039,
      "confident": 6040,
      "Dub": 6041,
      "partial": 6042,
      "pursuant": 6043,
      "confusion": 6044,
      "acceptance": 6045,
      "assessments": 6046,
      "IC": 6047,
      "refused": 6048,
      "Two": 6049,
      "dish": 6050,
      "authorisation": 6051,
      "HU": 6052,
      "disappear": 6053,
      "categories": 6054,
      "resource": 6055,
      "enna": 6056,
      "dramatic": 6057,
      "highlights": 6058,
      "contributing": 6059,
      "Har": 6060,
      "residence": 6061,
      "organizations": 6062,
      "yer": 6063,
      "vocate": 6064,
      "phil": 6065,
      "personnel": 6066,
      "integrate": 6067,
      "failing": 6068,
      "estimated": 6069,
      "housing": 6070,
      "ience": 6071,
      "Information": 6072,
      "procedural": 6073,
      "rare": 6074,
      "Allow": 6075,
      "characteristics": 6076,
      "Regarding": 6077,
      "concession": 6078,
      "affirm": 6079,
      "showed": 6080,
      "cutting": 6081,
      "Malta": 6082,
      "site": 6083,
      "Dan": 6084,
      "expan": 6085,
      "systematic": 6086,
      "Reform": 6087,
      "integrity": 6088,
      "neut": 6089,
      "consequently": 6090,
      "scrutiny": 6091,
      "subsequently": 6092,
      "Statute": 6093,
      "impet": 6094,
      "sales": 6095,
      "Day": 6096,
      "slightly": 6097,
      "Writ": 6098,
      "ideal": 6099,
      "ix": 6100,
      "feas": 6101,
      "underlying": 6102,
      "usually": 6103,
      "murder": 6104,
      "impetus": 6105,
      "300": 6106,
      "izing": 6107,
      "violent": 6108,
      "Solidarity": 6109,
      "mem": 6110,
      "preventive": 6111,
      "motiv": 6112,
      "observers": 6113,
      "reconciliation": 6114,
      "ico": 6115,
      "stree": 6116,
      "lifer": 6117,
      "lege": 6118,
      "Defence": 6119,
      "wind": 6120,
      "sell": 6121,
      "achievements": 6122,
      "holds": 6123,
      "president": 6124,
      "Written": 6125,
      "EI": 6126,
      "managing": 6127,
      "losing": 6128,
      "notably": 6129,
      "exchanges": 6130,
      "expansion": 6131,
      "race": 6132,
      "pris": 6133,
      "norm": 6134,
      "functions": 6135,
      "horizon": 6136,
      "nan": 6137,
      "interim": 6138,
      "domin": 6139,
      "Tunisia": 6140,
      "Mex": 6141,
      "iable": 6142,
      "dele": 6143,
      "hosp": 6144,
      "resumed": 6145,
      "observe": 6146,
      "examination": 6147,
      "exempt": 6148,
      "37": 6149,
      "equivalent": 6150,
      "Dublin": 6151,
      "dispar": 6152,
      "seekers": 6153,
      "pin": 6154,
      "inks": 6155,
      "soever": 6156,
      "north": 6157,
      "neutral": 6158,
      "constra": 6159,
      "unilateral": 6160,
      "imported": 6161,
      "jurisdiction": 6162,
      "destroyed": 6163,
      "continuation": 6164,
      "sequent": 6165,
      "Tech": 6166,
      "Who": 6167,
      "approaches": 6168,
      "thousand": 6169,
      "diox": 6170,
      "banned": 6171,
      "supervisory": 6172,
      "genetically": 6173,
      "Please": 6174,
      "restrictive": 6175,
      "cultures": 6176,
      "iles": 6177,
      "advanced": 6178,
      "stone": 6179,
      "adverse": 6180,
      "Ta": 6181,
      "iannual": 6182,
      "handling": 6183,
      "balances": 6184,
      "Democratic": 6185,
      "copy": 6186,
      "surrounding": 6187,
      "outermost": 6188,
      "oning": 6189,
      "representing": 6190,
      "flows": 6191,
      "recycl": 6192,
      "reductions": 6193,
      "concentration": 6194,
      "elig": 6195,
      "providers": 6196,
      "ambitions": 6197,
      "02": 6198,
      "ranging": 6199,
      "Communist": 6200,
      "resistance": 6201,
      "sacrific": 6202,
      "comparison": 6203,
      "fires": 6204,
      "distributed": 6205,
      "System": 6206,
      "pone": 6207,
      "wing": 6208,
      "whatsoever": 6209,
      "ratify": 6210,
      "stick": 6211,
      "anks": 6212,
      "itably": 6213,
      "mant": 6214,
      "arbit": 6215,
      "justification": 6216,
      "Stock": 6217,
      "hab": 6218,
      "signs": 6219,
      "participating": 6220,
      "accordingly": 6221,
      "pilot": 6222,
      "freight": 6223,
      "nom": 6224,
      "istered": 6225,
      "subsequent": 6226,
      "humanity": 6227,
      "Indones": 6228,
      "scen": 6229,
      "advocate": 6230,
      "prompt": 6231,
      "profound": 6232,
      "Friday": 6233,
      "safeguarding": 6234,
      "Chairman": 6235,
      "bid": 6236,
      "devast": 6237,
      "postpone": 6238,
      "exceptions": 6239,
      "tolerance": 6240,
      "pens": 6241,
      "lea": 6242,
      "investors": 6243,
      "Objective": 6244,
      "chemicals": 6245,
      "envisaged": 6246,
      "chapter": 6247,
      "prelim": 6248,
      "book": 6249,
      "mistakes": 6250,
      "accountability": 6251,
      "Doha": 6252,
      "Monday": 6253,
      "regularly": 6254,
      "Ham": 6255,
      "lor": 6256,
      "abuses": 6257,
      "compromises": 6258,
      "registr": 6259,
      "fixed": 6260,
      "Iraqi": 6261,
      "consent": 6262,
      "revolution": 6263,
      "Crim": 6264,
      "custom": 6265,
      "fuels": 6266,
      "dol": 6267,
      "tem": 6268,
      "movements": 6269,
      "gained": 6270,
      "universities": 6271,
      "ALDE": 6272,
      "Mil": 6273,
      "Tim": 6274,
      "web": 6275,
      "Nig": 6276,
      "antly": 6277,
      "mandatory": 6278,
      "tric": 6279,
      "osoph": 6280,
      "preliminary": 6281,
      "wan": 6282,
      "Lo": 6283,
      "conviction": 6284,
      "Wed": 6285,
      "prime": 6286,
      "sentence": 6287,
      "inhabitants": 6288,
      "ration": 6289,
      "wages": 6290,
      "ctic": 6291,
      "aughter": 6292,
      "liked": 6293,
      "utical": 6294,
      "visual": 6295,
      "August": 6296,
      "HO": 6297,
      "petr": 6298,
      "eventually": 6299,
      "delegations": 6300,
      "fifth": 6301,
      "infringement": 6302,
      "ases": 6303,
      "regimes": 6304,
      "perpetr": 6305,
      "Wednes": 6306,
      "gests": 6307,
      "infrastructures": 6308,
      "philosoph": 6309,
      "heads": 6310,
      "disputes": 6311,
      "Lebanon": 6312,
      "Certain": 6313,
      "dden": 6314,
      "install": 6315,
      "blind": 6316,
      "ato": 6317,
      "gov": 6318,
      "suggests": 6319,
      "attach": 6320,
      "dangers": 6321,
      "incorporate": 6322,
      "fails": 6323,
      "drive": 6324,
      "liferation": 6325,
      "itored": 6326,
      "unification": 6327,
      "monitored": 6328,
      "04": 6329,
      "det": 6330,
      "precaution": 6331,
      "marking": 6332,
      "Similarly": 6333,
      "investigations": 6334,
      "Criminal": 6335,
      "era": 6336,
      "phone": 6337,
      "withdrawal": 6338,
      "Wednesday": 6339,
      "Ab": 6340,
      "gross": 6341,
      "stages": 6342,
      "Through": 6343,
      "fears": 6344,
      "tom": 6345,
      "experiences": 6346,
      "xenopho": 6347,
      "inside": 6348,
      "die": 6349,
      "divers": 6350,
      "visited": 6351,
      "listening": 6352,
      "containing": 6353,
      "Services": 6354,
      "ured": 6355,
      "umn": 6356,
      "train": 6357,
      "attached": 6358,
      "conve": 6359,
      "pursuing": 6360,
      "incentive": 6361,
      "acknowledged": 6362,
      "mountain": 6363,
      "Red": 6364,
      "wholehear": 6365,
      "actors": 6366,
      "engine": 6367,
      "iat": 6368,
      "abroad": 6369,
      "predict": 6370,
      "proven": 6371,
      "ignored": 6372,
      "Nordic": 6373,
      "ox": 6374,
      "assets": 6375,
      "criminals": 6376,
      "reporting": 6377,
      "older": 6378,
      "beit": 6379,
      "mann": 6380,
      "stakeholders": 6381,
      "ality": 6382,
      "accounting": 6383,
      "borne": 6384,
      "arming": 6385,
      "annivers": 6386,
      "defe": 6387,
      "convince": 6388,
      "zy": 6389,
      "cooper": 6390,
      "accepting": 6391,
      "casting": 6392,
      "Sar": 6393,
      "claimed": 6394,
      "invited": 6395,
      "statute": 6396,
      "intelligent": 6397,
      "albeit": 6398,
      "proportionate": 6399,
      "expertise": 6400,
      "ull": 6401,
      "cussions": 6402,
      "Syria": 6403,
      "yle": 6404,
      "resolving": 6405,
      "distance": 6406,
      "transl": 6407,
      "brut": 6408,
      "Hence": 6409,
      "uries": 6410,
      "models": 6411,
      "Libya": 6412,
      "modernisation": 6413,
      "recital": 6414,
      "cla": 6415,
      "Liberals": 6416,
      "biof": 6417,
      "falling": 6418,
      "catast": 6419,
      "anniversary": 6420,
      "ventions": 6421,
      "ley": 6422,
      "ney": 6423,
      "decline": 6424,
      "stringent": 6425,
      "pharma": 6426,
      "ashion": 6427,
      "meantime": 6428,
      "registration": 6429,
      "sudden": 6430,
      "recognises": 6431,
      "accurate": 6432,
      "outlined": 6433,
      "concludes": 6434,
      "UE": 6435,
      "finish": 6436,
      "öm": 6437,
      "prop": 6438,
      "plat": 6439,
      "furthermore": 6440,
      "55": 6441,
      "EIB": 6442,
      "Solana": 6443,
      "gradual": 6444,
      "36": 6445,
      "kets": 6446,
      "foundation": 6447,
      "Patten": 6448,
      "autonomy": 6449,
      "tin": 6450,
      "ström": 6451,
      "backing": 6452,
      "arrive": 6453,
      "organic": 6454,
      "visible": 6455,
      "eg": 6456,
      "mium": 6457,
      "offices": 6458,
      "contrast": 6459,
      "Bu": 6460,
      "visas": 6461,
      "consolidation": 6462,
      "decentral": 6463,
      "fashion": 6464,
      "rew": 6465,
      "prerequis": 6466,
      "neglect": 6467,
      "Mic": 6468,
      "examining": 6469,
      "tonight": 6470,
      "Ashton": 6471,
      "Fif": 6472,
      "zen": 6473,
      "ceutical": 6474,
      "names": 6475,
      "variety": 6476,
      "intenance": 6477,
      "IP": 6478,
      "Cong": 6479,
      "bloc": 6480,
      "colon": 6481,
      "erion": 6482,
      "pretext": 6483,
      "evil": 6484,
      "programming": 6485,
      "vit": 6486,
      "postpon": 6487,
      "Eur": 6488,
      "heu": 6489,
      "pressed": 6490,
      "paragraphs": 6491,
      "evaluate": 6492,
      "))": 6493,
      "safeguards": 6494,
      "criterion": 6495,
      "false": 6496,
      "immunity": 6497,
      "Decision": 6498,
      "audit": 6499,
      "qui": 6500,
      "denied": 6501,
      "female": 6502,
      "pestic": 6503,
      "Could": 6504,
      "helps": 6505,
      "IA": 6506,
      "learned": 6507,
      "refugee": 6508,
      "Bon": 6509,
      "maintenance": 6510,
      "haust": 6511,
      "liers": 6512,
      "Youth": 6513,
      "badly": 6514,
      "fifteen": 6515,
      "OSCE": 6516,
      "iss": 6517,
      "entering": 6518,
      "released": 6519,
      "sympathy": 6520,
      "dossier": 6521,
      "Millennium": 6522,
      "da": 6523,
      "util": 6524,
      "focusing": 6525,
      "dictatorship": 6526,
      "substantially": 6527,
      "Abo": 6528,
      "exhaust": 6529,
      "trous": 6530,
      "pipe": 6531,
      "formed": 6532,
      "aspir": 6533,
      "essence": 6534,
      "partnerships": 6535,
      "endorsed": 6536,
      "voters": 6537,
      "indication": 6538,
      "recipro": 6539,
      "executive": 6540,
      "whel": 6541,
      "died": 6542,
      "hazardous": 6543,
      "features": 6544,
      "sett": 6545,
      "argue": 6546,
      "trace": 6547,
      "warrant": 6548,
      "pharmaceutical": 6549,
      "Wal": 6550,
      "sched": 6551,
      "ulz": 6552,
      "clauses": 6553,
      "ageing": 6554,
      "prag": 6555,
      "consultations": 6556,
      "Bush": 6557,
      "sink": 6558,
      "ceiling": 6559,
      "ulf": 6560,
      "overwhel": 6561,
      "Schulz": 6562,
      "storage": 6563,
      "dens": 6564,
      "consistently": 6565,
      "holm": 6566,
      "virtually": 6567,
      "renewed": 6568,
      "dismant": 6569,
      "productivity": 6570,
      "corresponding": 6571,
      "GMOs": 6572,
      "band": 6573,
      "assurance": 6574,
      "feature": 6575,
      "avoided": 6576,
      "vigil": 6577,
      "atmo": 6578,
      "Swit": 6579,
      "sincere": 6580,
      "aint": 6581,
      "inquiry": 6582,
      "ensured": 6583,
      "observations": 6584,
      "Scotland": 6585,
      "adequately": 6586,
      "emerged": 6587,
      "smoo": 6588,
      "veget": 6589,
      "grass": 6590,
      "fault": 6591,
      "Me": 6592,
      "Above": 6593,
      "satell": 6594,
      "rob": 6595,
      "ressive": 6596,
      "hopefully": 6597,
      "hne": 6598,
      "amentally": 6599,
      "upd": 6600,
      "damaging": 6601,
      "Naturally": 6602,
      "hospital": 6603,
      "Annex": 6604,
      "corner": 6605,
      "privacy": 6606,
      "apparently": 6607,
      "leaves": 6608,
      "bill": 6609,
      "zerland": 6610,
      "Switzerland": 6611,
      "mail": 6612,
      "disastrous": 6613,
      "game": 6614,
      "fate": 6615,
      "authorised": 6616,
      "scientists": 6617,
      "wall": 6618,
      "devoted": 6619,
      "completion": 6620,
      "enables": 6621,
      "collapse": 6622,
      "1992": 6623,
      "Within": 6624,
      "explanations": 6625,
      "testing": 6626,
      "football": 6627,
      "excuse": 6628,
      "uels": 6629,
      "Polit": 6630,
      "inspection": 6631,
      "38": 6632,
      "initially": 6633,
      "select": 6634,
      "pel": 6635,
      "cycle": 6636,
      "definitive": 6637,
      "Fischler": 6638,
      "NS": 6639,
      "ligence": 6640,
      "sections": 6641,
      "advantaged": 6642,
      "neo": 6643,
      "everywhere": 6644,
      "statistical": 6645,
      "ques": 6646,
      "deficits": 6647,
      "Slovenia": 6648,
      "pays": 6649,
      "discrimin": 6650,
      "eu": 6651,
      "isen": 6652,
      "resort": 6653,
      "stry": 6654,
      "airport": 6655,
      "retire": 6656,
      "tackled": 6657,
      "democratically": 6658,
      "detention": 6659,
      "Santer": 6660,
      "lists": 6661,
      "alia": 6662,
      "simplified": 6663,
      "fulfilled": 6664,
      "GF": 6665,
      "wid": 6666,
      "licate": 6667,
      "Congo": 6668,
      "shipping": 6669,
      "imperative": 6670,
      "sums": 6671,
      "generate": 6672,
      "lex": 6673,
      "struck": 6674,
      "reper": 6675,
      "ah": 6676,
      "psy": 6677,
      "inspect": 6678,
      "diver": 6679,
      "govina": 6680,
      "heugen": 6681,
      "fought": 6682,
      "infe": 6683,
      "rigorous": 6684,
      "reserves": 6685,
      "Bla": 6686,
      "Verheugen": 6687,
      "tox": 6688,
      "Liberties": 6689,
      "precautionary": 6690,
      "Whilst": 6691,
      "arrived": 6692,
      "C4": 6693,
      "Herze": 6694,
      "repression": 6695,
      "grave": 6696,
      "34": 6697,
      "uster": 6698,
      "Air": 6699,
      "dro": 6700,
      "audio": 6701,
      "dollar": 6702,
      "mines": 6703,
      "attractive": 6704,
      "meets": 6705,
      "vocational": 6706,
      "Herzegovina": 6707,
      "sports": 6708,
      "rever": 6709,
      "lock": 6710,
      "ictions": 6711,
      "comprehensible": 6712,
      "itology": 6713,
      "western": 6714,
      "accused": 6715,
      "ownership": 6716,
      "shift": 6717,
      "presents": 6718,
      "adapted": 6719,
      "lingu": 6720,
      "irregularities": 6721,
      "32": 6722,
      "abort": 6723,
      "cific": 6724,
      "volume": 6725,
      "responses": 6726,
      "enabled": 6727,
      "prescri": 6728,
      "cracies": 6729,
      "explicitly": 6730,
      "enshrined": 6731,
      "desired": 6732,
      "flights": 6733,
      "ker": 6734,
      "fundamentally": 6735,
      "laying": 6736,
      "handed": 6737,
      "recommended": 6738,
      "pere": 6739,
      "planet": 6740,
      "sale": 6741,
      "disadvantaged": 6742,
      "scre": 6743,
      "socially": 6744,
      "marginal": 6745,
      "icated": 6746,
      "lifelong": 6747,
      "autumn": 6748,
      "computer": 6749,
      "dog": 6750,
      "cred": 6751,
      "ulous": 6752,
      "Would": 6753,
      "story": 6754,
      "anx": 6755,
      "removal": 6756,
      "Globalisation": 6757,
      "Er": 6758,
      "attain": 6759,
      "uled": 6760,
      "compli": 6761,
      "GUE": 6762,
      "Stockholm": 6763,
      "middle": 6764,
      "admitted": 6765,
      "exposed": 6766,
      "Cypri": 6767,
      "repercussions": 6768,
      "ari": 6769,
      "advis": 6770,
      "exploit": 6771,
      "exemption": 6772,
      "soldiers": 6773,
      "Tampere": 6774,
      "ationally": 6775,
      "197": 6776,
      "investigate": 6777,
      "label": 6778,
      "Mexico": 6779,
      "LT": 6780,
      "heral": 6781,
      "termin": 6782,
      "SK": 6783,
      "inequalities": 6784,
      "notion": 6785,
      "forestry": 6786,
      "ED": 6787,
      "scar": 6788,
      "euros": 6789,
      "closing": 6790,
      "deny": 6791,
      "narrow": 6792,
      "wherever": 6793,
      "participants": 6794,
      "vy": 6795,
      "arbitr": 6796,
      "mend": 6797,
      "ounce": 6798,
      "perip": 6799,
      "logic": 6800,
      "surprise": 6801,
      "Dis": 6802,
      "kil": 6803,
      "alleged": 6804,
      "tempt": 6805,
      "component": 6806,
      "initiated": 6807,
      "innocent": 6808,
      "Brok": 6809,
      "passing": 6810,
      "sees": 6811,
      "lymp": 6812,
      "prud": 6813,
      "livered": 6814,
      "Iranian": 6815,
      "Bö": 6816,
      "cient": 6817,
      "convey": 6818,
      "transferred": 6819,
      "homes": 6820,
      "Olymp": 6821,
      "mad": 6822,
      "onto": 6823,
      "delivered": 6824,
      "incredi": 6825,
      "Special": 6826,
      "Everyone": 6827,
      "plaud": 6828,
      "adding": 6829,
      "detriment": 6830,
      "fallen": 6831,
      "stricter": 6832,
      "quarters": 6833,
      "Tai": 6834,
      "pace": 6835,
      "zo": 6836,
      "comparable": 6837,
      "inspections": 6838,
      "print": 6839,
      "father": 6840,
      "twice": 6841,
      "openly": 6842,
      "zero": 6843,
      "unde": 6844,
      "consolidate": 6845,
      "án": 6846,
      "alarming": 6847,
      "asion": 6848,
      "bert": 6849,
      "Colom": 6850,
      "errors": 6851,
      "democratisation": 6852,
      "recru": 6853,
      "tape": 6854,
      "foodstuffs": 6855,
      "potentially": 6856,
      "speculation": 6857,
      "preparatory": 6858,
      "cultiv": 6859,
      "recycling": 6860,
      "Dim": 6861,
      "eration": 6862,
      "monopoly": 6863,
      "inevitably": 6864,
      "internationally": 6865,
      "objections": 6866,
      "assessing": 6867,
      "driven": 6868,
      "discipline": 6869,
      "65": 6870,
      "fing": 6871,
      "seat": 6872,
      "praise": 6873,
      "concessions": 6874,
      "horizontal": 6875,
      "applaud": 6876,
      "multiannual": 6877,
      "overwhelming": 6878,
      "33": 6879,
      "bench": 6880,
      "minds": 6881,
      "assessed": 6882,
      "patient": 6883,
      "mouth": 6884,
      "commerce": 6885,
      "Galile": 6886,
      "ura": 6887,
      "enterprise": 6888,
      "silence": 6889,
      "gri": 6890,
      "deploy": 6891,
      "donors": 6892,
      "Algeria": 6893,
      "1993": 6894,
      "NGL": 6895,
      "Romanian": 6896,
      "Bang": 6897,
      "title": 6898,
      "modest": 6899,
      "harmonise": 6900,
      "posts": 6901,
      "interpret": 6902,
      "hunger": 6903,
      "islands": 6904,
      "interference": 6905,
      "assured": 6906,
      "orientation": 6907,
      "routes": 6908,
      "whol": 6909,
      "transposition": 6910,
      "facility": 6911,
      "presidential": 6912,
      "tics": 6913,
      "DG": 6914,
      "vary": 6915,
      "guil": 6916,
      "05": 6917,
      "practically": 6918,
      "grace": 6919,
      "smoking": 6920,
      "biofuels": 6921,
      "Galileo": 6922,
      "serves": 6923,
      "suspic": 6924,
      "draftsman": 6925,
      "aucas": 6926,
      "appalling": 6927,
      "proliferation": 6928,
      "systematically": 6929,
      "desper": 6930,
      "principal": 6931,
      "USD": 6932,
      "obstacle": 6933,
      "embargo": 6934,
      "wholeheartedly": 6935,
      "manif": 6936,
      "researchers": 6937,
      "Taiwan": 6938,
      "los": 6939,
      "aca": 6940,
      "makers": 6941,
      "Among": 6942,
      "findings": 6943,
      "constituency": 6944,
      "ork": 6945,
      "originally": 6946,
      "constraints": 6947,
      "inappropriate": 6948,
      "ites": 6949,
      "backs": 6950,
      "persecution": 6951,
      "pillars": 6952,
      "Fourthly": 6953,
      "imperial": 6954,
      "pas": 6955,
      "ert": 6956,
      "deciding": 6957,
      "survival": 6958,
      "ón": 6959,
      "accommod": 6960,
      "disabilities": 6961,
      "civilians": 6962,
      "appointing": 6963,
      "bat": 6964,
      "nity": 6965,
      "stating": 6966,
      "humane": 6967,
      "telling": 6968,
      "recorded": 6969,
      "Latvia": 6970,
      "tremend": 6971,
      "linguistic": 6972,
      "deem": 6973,
      "Institute": 6974,
      "bottom": 6975,
      "remained": 6976,
      "irrespective": 6977,
      "wished": 6978,
      "sess": 6979,
      "characterised": 6980,
      "ALE": 6981,
      "offences": 6982,
      "Vienna": 6983,
      "Pos": 6984,
      "Six": 6985,
      "ame": 6986,
      "references": 6987,
      "producer": 6988,
      "appreciation": 6989,
      "travelling": 6990,
      "ero": 6991,
      "broadly": 6992,
      "criticisms": 6993,
      "stimulate": 6994,
      "Helsink": 6995,
      "Helsinki": 6996,
      "organization": 6997,
      "demanded": 6998,
      "promising": 6999,
      "Viet": 7000,
      "Federal": 7001,
      "insp": 7002,
      "stopped": 7003,
      "proportional": 7004,
      "floods": 7005,
      "Kurdish": 7006,
      "Hamas": 7007,
      "Black": 7008,
      "minent": 7009,
      "Vietnam": 7010,
      "detain": 7011,
      "simpl": 7012,
      "iaries": 7013,
      "criticised": 7014,
      "deadlines": 7015,
      "Timor": 7016,
      "Law": 7017,
      "cancell": 7018,
      "aught": 7019,
      "subjected": 7020,
      "fragment": 7021,
      "isations": 7022,
      "construct": 7023,
      "empty": 7024,
      "grade": 7025,
      "attract": 7026,
      "retirement": 7027,
      "guilty": 7028,
      "lesson": 7029,
      "sensit": 7030,
      "roll": 7031,
      "articles": 7032,
      "parad": 7033,
      "mature": 7034,
      "ashing": 7035,
      "thoroughly": 7036,
      "earthqu": 7037,
      "prejud": 7038,
      "composition": 7039,
      "comitology": 7040,
      "bases": 7041,
      "automatically": 7042,
      "worried": 7043,
      "dissemin": 7044,
      "complied": 7045,
      "reminded": 7046,
      "adaptation": 7047,
      "adjustment": 7048,
      "incidents": 7049,
      "Estonia": 7050,
      "frust": 7051,
      "remit": 7052,
      "mainstream": 7053,
      "frag": 7054,
      "Baron": 7055,
      "protectionism": 7056,
      "contributes": 7057,
      "corporate": 7058,
      "Roth": 7059,
      "mort": 7060,
      "sures": 7061,
      "shop": 7062,
      "solving": 7063,
      "thirdly": 7064,
      "tariat": 7065,
      "Verts": 7066,
      "HIV": 7067,
      "ili": 7068,
      "coordinating": 7069,
      "ocide": 7070,
      "ultimate": 7071,
      "channels": 7072,
      "gir": 7073,
      "root": 7074,
      "tuna": 7075,
      "creative": 7076,
      "ideological": 7077,
      "exac": 7078,
      "Guine": 7079,
      "pts": 7080,
      "erb": 7081,
      "prosecut": 7082,
      "registered": 7083,
      "obtaining": 7084,
      "Bus": 7085,
      "aci": 7086,
      "transfers": 7087,
      "reserved": 7088,
      "resign": 7089,
      "shed": 7090,
      "formally": 7091,
      "Armen": 7092,
      "camps": 7093,
      "isolation": 7094,
      "cease": 7095,
      "occupied": 7096,
      "embry": 7097,
      "precedented": 7098,
      "exacerb": 7099,
      "unprecedented": 7100,
      "located": 7101,
      "relief": 7102,
      "Rel": 7103,
      "everyday": 7104,
      "reviewed": 7105,
      "scheduled": 7106,
      "decade": 7107,
      "satellite": 7108,
      "39": 7109,
      "ASE": 7110,
      "FI": 7111,
      "IL": 7112,
      "topics": 7113,
      "stresses": 7114,
      "Code": 7115,
      "wake": 7116,
      "400": 7117,
      "arrangement": 7118,
      "His": 7119,
      "tical": 7120,
      "victory": 7121,
      "aire": 7122,
      "Christians": 7123,
      "odo": 7124,
      "icing": 7125,
      "morator": 7126,
      "regulating": 7127,
      "acced": 7128,
      "phr": 7129,
      "sectoral": 7130,
      "avoiding": 7131,
      "tens": 7132,
      "liter": 7133,
      "foods": 7134,
      "facilitating": 7135,
      "Asian": 7136,
      "heavily": 7137,
      "discriminatory": 7138,
      "Sadd": 7139,
      "genocide": 7140,
      "conscience": 7141,
      "punishment": 7142,
      "Ukrain": 7143,
      "xenophobia": 7144,
      "delicate": 7145,
      "generous": 7146,
      "faces": 7147,
      "underest": 7148,
      "Fort": 7149,
      "audiovisual": 7150,
      "incomes": 7151,
      "arises": 7152,
      "council": 7153,
      "interpreted": 7154,
      "Saddam": 7155,
      "abling": 7156,
      "topical": 7157,
      "G20": 7158,
      "squ": 7159,
      "estimates": 7160,
      "aro": 7161,
      "cture": 7162,
      "withdrawn": 7163,
      "realised": 7164,
      "clarified": 7165,
      "El": 7166,
      "beneficiaries": 7167,
      "pick": 7168,
      "ancy": 7169,
      "addresses": 7170,
      "toxic": 7171,
      "AN": 7172,
      "Mos": 7173,
      "hum": 7174,
      "emphasises": 7175,
      "indicates": 7176,
      "publish": 7177,
      "21st": 7178,
      "rect": 7179,
      "refusal": 7180,
      "casts": 7181,
      "Techno": 7182,
      "ek": 7183,
      "ok": 7184,
      "provo": 7185,
      "analyse": 7186,
      "remarkable": 7187,
      "Baroness": 7188,
      "Federation": 7189,
      "swe": 7190,
      "Caucas": 7191,
      "blow": 7192,
      "gases": 7193,
      "arrested": 7194,
      "pesticides": 7195,
      "Flo": 7196,
      "Hague": 7197,
      "hil": 7198,
      "gather": 7199,
      "contradiction": 7200,
      "CFSP": 7201,
      "ifiable": 7202,
      "banana": 7203,
      "equiv": 7204,
      "insul": 7205,
      "irty": 7206,
      "medicinal": 7207,
      "apolog": 7208,
      "pensable": 7209,
      "udes": 7210,
      "returned": 7211,
      ")]": 7212,
      "Frontex": 7213,
      "quarter": 7214,
      "artific": 7215,
      "demonstration": 7216,
      "gaining": 7217,
      "atmosphere": 7218,
      "stan": 7219,
      "normally": 7220,
      "moratorium": 7221,
      "recover": 7222,
      "towns": 7223,
      "racy": 7224,
      "ola": 7225,
      "elson": 7226,
      "Madrid": 7227,
      "Should": 7228,
      "illness": 7229,
      "anywhere": 7230,
      "absor": 7231,
      "split": 7232,
      "Eurostat": 7233,
      "exclude": 7234,
      "divide": 7235,
      "persuade": 7236,
      "thinks": 7237,
      "match": 7238,
      "Democrat": 7239,
      "III": 7240,
      "hur": 7241,
      "pointing": 7242,
      "governed": 7243,
      "responding": 7244,
      "Monten": 7245,
      "indispensable": 7246,
      "reverse": 7247,
      "mix": 7248,
      "differently": 7249,
      "abolish": 7250,
      "trends": 7251,
      "49": 7252,
      "radi": 7253,
      "irresponsible": 7254,
      "diverse": 7255,
      "threatening": 7256,
      "structured": 7257,
      "recession": 7258,
      "datab": 7259,
      "46": 7260,
      "gi": 7261,
      "lag": 7262,
      "investing": 7263,
      "subs": 7264,
      "lihood": 7265,
      "lax": 7266,
      "dual": 7267,
      "emphasize": 7268,
      "integral": 7269,
      "quantity": 7270,
      "accompany": 7271,
      "consists": 7272,
      "cells": 7273,
      "sustained": 7274,
      "instability": 7275,
      "43": 7276,
      "Apart": 7277,
      "fere": 7278,
      "premium": 7279,
      "invent": 7280,
      "owners": 7281,
      "missible": 7282,
      "ensures": 7283,
      "yield": 7284,
      "undering": 7285,
      "surprising": 7286,
      "shock": 7287,
      "served": 7288,
      "exploited": 7289,
      "livestock": 7290,
      "illegally": 7291,
      "doors": 7292,
      "Kinno": 7293,
      "interventions": 7294,
      "disparities": 7295,
      "Kinnock": 7296,
      "ige": 7297,
      "identification": 7298,
      "ECD": 7299,
      "Neighbour": 7300,
      "propag": 7301,
      "disadvantage": 7302,
      "enses": 7303,
      "strikes": 7304,
      "monopolies": 7305,
      "distur": 7306,
      "removing": 7307,
      "describe": 7308,
      "Haiti": 7309,
      "prerequisite": 7310,
      "dear": 7311,
      "rier": 7312,
      "workforce": 7313,
      "lowest": 7314,
      "attempting": 7315,
      "isolated": 7316,
      "itig": 7317,
      "reinforced": 7318,
      "witnessed": 7319,
      "IMF": 7320,
      "Monti": 7321,
      "specul": 7322,
      "affair": 7323,
      "tact": 7324,
      "techni": 7325,
      "Congress": 7326,
      "Du": 7327,
      "HA": 7328,
      "hat": 7329,
      "Democracy": 7330,
      "believed": 7331,
      "York": 7332,
      "toms": 7333,
      "edge": 7334,
      "owski": 7335,
      "limiting": 7336,
      "burdens": 7337,
      "disgrace": 7338,
      "messages": 7339,
      "footing": 7340,
      "generated": 7341,
      "assembly": 7342,
      "agno": 7343,
      "licences": 7344,
      "mano": 7345,
      "relationships": 7346,
      "ambiguous": 7347,
      "availability": 7348,
      "deteri": 7349,
      "ays": 7350,
      "publicly": 7351,
      "wars": 7352,
      "Arctic": 7353,
      "totalitarian": 7354,
      "dioxide": 7355,
      "unlike": 7356,
      "strange": 7357,
      "organized": 7358,
      "graphy": 7359,
      "abolished": 7360,
      "wonderful": 7361,
      "donor": 7362,
      "concepts": 7363,
      "Dar": 7364,
      "cros": 7365,
      "caught": 7366,
      "enjoyed": 7367,
      "Caucasus": 7368,
      "Sm": 7369,
      "gorously": 7370,
      "unequiv": 7371,
      "Paris": 7372,
      "punished": 7373,
      "euv": 7374,
      "42": 7375,
      "SIS": 7376,
      "moves": 7377,
      "advances": 7378,
      "inevitable": 7379,
      "enthusiasm": 7380,
      "whenever": 7381,
      "criticise": 7382,
      "manufacturing": 7383,
      "junction": 7384,
      "cattle": 7385,
      "liqu": 7386,
      "orer": 7387,
      "extrem": 7388,
      "manoeuv": 7389,
      "Cur": 7390,
      "reb": 7391,
      "fort": 7392,
      "satisfy": 7393,
      "egro": 7394,
      "Montenegro": 7395,
      "Rap": 7396,
      "inequality": 7397,
      "recognising": 7398,
      "strive": 7399,
      "missed": 7400,
      "convincing": 7401,
      "epide": 7402,
      "ky": 7403,
      "poorer": 7404,
      "guided": 7405,
      "vising": 7406,
      "confirms": 7407,
      "feeding": 7408,
      "Resolution": 7409,
      "safer": 7410,
      "150": 7411,
      "patents": 7412,
      "fleets": 7413,
      "ki": 7414,
      "mir": 7415,
      "reproductive": 7416,
      "idential": 7417,
      "aiming": 7418,
      "securing": 7419,
      "inations": 7420,
      "emerge": 7421,
      "Nigeria": 7422,
      "Each": 7423,
      "von": 7424,
      "airy": 7425,
      "Cl": 7426,
      "civilisation": 7427,
      "Against": 7428,
      "vens": 7429,
      "blue": 7430,
      "steel": 7431,
      "aspirations": 7432,
      "Sal": 7433,
      "flight": 7434,
      "ugg": 7435,
      "reput": 7436,
      "democracies": 7437,
      "Quite": 7438,
      "condemnation": 7439,
      "sun": 7440,
      "genetic": 7441,
      "Indonesia": 7442,
      "Gar": 7443,
      "selection": 7444,
      "urch": 7445,
      "promotes": 7446,
      "feels": 7447,
      "integrating": 7448,
      "Ferre": 7449,
      "Bol": 7450,
      "anger": 7451,
      "ancies": 7452,
      "expenses": 7453,
      "Net": 7454,
      "lla": 7455,
      "earmarked": 7456,
      "frankly": 7457,
      "maybe": 7458,
      "earn": 7459,
      "combination": 7460,
      "psycho": 7461,
      "problematic": 7462,
      "mense": 7463,
      "logically": 7464,
      "idance": 7465,
      "focuses": 7466,
      "drinking": 7467,
      "44": 7468,
      "warming": 7469,
      "transnational": 7470,
      "translation": 7471,
      "invested": 7472,
      "priorit": 7473,
      "feasible": 7474,
      "immense": 7475,
      "workplace": 7476,
      "lays": 7477,
      "tremendous": 7478,
      "Neighbourhood": 7479,
      "Until": 7480,
      "confidential": 7481,
      "elimination": 7482,
      "abortion": 7483,
      "finger": 7484,
      "conform": 7485,
      "preference": 7486,
      "ponents": 7487,
      "Sta": 7488,
      "specified": 7489,
      "thetic": 7490,
      "incur": 7491,
      "decommission": 7492,
      "encouragement": 7493,
      "quantities": 7494,
      "asmus": 7495,
      "enem": 7496,
      "bun": 7497,
      "lip": 7498,
      "publication": 7499,
      "handled": 7500,
      "survive": 7501,
      "Cot": 7502,
      "aring": 7503,
      "parliamentarians": 7504,
      "remote": 7505,
      "slaughter": 7506,
      "pragmatic": 7507,
      "requiring": 7508,
      "COD": 7509,
      "veto": 7510,
      "Thanks": 7511,
      "displaced": 7512,
      "Peace": 7513,
      "announcement": 7514,
      "Prize": 7515,
      "philosophy": 7516,
      "Ice": 7517,
      "Val": 7518,
      "vague": 7519,
      "formula": 7520,
      "Tom": 7521,
      "dairy": 7522,
      "compr": 7523,
      "85": 7524,
      "selling": 7525,
      "gratitude": 7526,
      "multinationals": 7527,
      "utter": 7528,
      "Pap": 7529,
      "units": 7530,
      "terinary": 7531,
      "licence": 7532,
      "perce": 7533,
      "justment": 7534,
      "broken": 7535,
      "indirectly": 7536,
      "Ecofin": 7537,
      "gments": 7538,
      "sein": 7539,
      "tabling": 7540,
      "anas": 7541,
      "llor": 7542,
      "uphold": 7543,
      "Ang": 7544,
      "combine": 7545,
      "OECD": 7546,
      "seed": 7547,
      "adhe": 7548,
      "2015": 7549,
      "backed": 7550,
      "delayed": 7551,
      "concluding": 7552,
      "peripheral": 7553,
      "Guinea": 7554,
      "annex": 7555,
      "biological": 7556,
      "cards": 7557,
      "wood": 7558,
      "expressly": 7559,
      "suspension": 7560,
      "abandoned": 7561,
      "Neither": 7562,
      "accountable": 7563,
      "privatisation": 7564,
      "remedy": 7565,
      "Di": 7566,
      "unified": 7567,
      "club": 7568,
      "evolution": 7569,
      "energies": 7570,
      "Chance": 7571,
      "encourages": 7572,
      "preferred": 7573,
      "player": 7574,
      "Yesterday": 7575,
      ")).": 7576,
      "vill": 7577,
      "Cambod": 7578,
      "noticed": 7579,
      "syn": 7580,
      "miss": 7581,
      "exert": 7582,
      "Iceland": 7583,
      "determining": 7584,
      "write": 7585,
      "postponed": 7586,
      "Olympic": 7587,
      "swit": 7588,
      "berg": 7589,
      "signals": 7590,
      "grown": 7591,
      "Director": 7592,
      "pity": 7593,
      "conjunction": 7594,
      "bold": 7595,
      "positively": 7596,
      "manag": 7597,
      "diagno": 7598,
      "recognize": 7599,
      "runs": 7600,
      "hetor": 7601,
      "allevi": 7602,
      "weaknesses": 7603,
      "Rather": 7604,
      "tein": 7605,
      "understandable": 7606,
      "broadcasting": 7607,
      "attini": 7608,
      "secondary": 7609,
      "enhancing": 7610,
      "Hus": 7611,
      "Kong": 7612,
      "rhetor": 7613,
      "yn": 7614,
      "yers": 7615,
      "input": 7616,
      "online": 7617,
      "tel": 7618,
      "controlling": 7619,
      "Frattini": 7620,
      "teachers": 7621,
      "faster": 7622,
      "ube": 7623,
      "accepts": 7624,
      "brutal": 7625,
      "TAC": 7626,
      "enforced": 7627,
      "Concern": 7628,
      "dedicated": 7629,
      "execution": 7630,
      "Hong": 7631,
      "za": 7632,
      "box": 7633,
      "Articles": 7634,
      "administrations": 7635,
      "deplo": 7636,
      "Chancellor": 7637,
      "zones": 7638,
      "imbalances": 7639,
      "cry": 7640,
      "aqu": 7641,
      "Conciliation": 7642,
      "caut": 7643,
      "listed": 7644,
      "simplifying": 7645,
      "complexity": 7646,
      "Milose": 7647,
      "plic": 7648,
      "novation": 7649,
      "rape": 7650,
      "halt": 7651,
      "pipeline": 7652,
      "itudes": 7653,
      "judiciary": 7654,
      "cautious": 7655,
      "rov": 7656,
      "agents": 7657,
      "holiday": 7658,
      "doctors": 7659,
      "uous": 7660,
      "alter": 7661,
      "confin": 7662,
      "shortage": 7663,
      "Freedoms": 7664,
      "Eri": 7665,
      "symbolic": 7666,
      "rage": 7667,
      "evol": 7668,
      "banning": 7669,
      "smugg": 7670,
      "renewal": 7671,
      "Adjustment": 7672,
      "Blair": 7673,
      "ET": 7674,
      "EGF": 7675,
      "establishes": 7676,
      "violated": 7677,
      "Industri": 7678,
      "Certainly": 7679,
      "Som": 7680,
      "uct": 7681,
      "ingred": 7682,
      "ama": 7683,
      "cury": 7684,
      "launching": 7685,
      "radioactive": 7686,
      "Milosevic": 7687,
      "Process": 7688,
      "await": 7689,
      "pluralism": 7690,
      "nutr": 7691,
      "Relations": 7692,
      "devote": 7693,
      "aret": 7694,
      "uration": 7695,
      "organising": 7696,
      "Recent": 7697,
      "charged": 7698,
      "acquired": 7699,
      "concentrated": 7700,
      "derogation": 7701,
      "ano": 7702,
      "reluct": 7703,
      "minors": 7704,
      "archite": 7705,
      "hesit": 7706,
      "professionals": 7707,
      "preservation": 7708,
      "adjustments": 7709,
      "recip": 7710,
      "67": 7711,
      "Del": 7712,
      "nit": 7713,
      "cod": 7714,
      "pret": 7715,
      "lessly": 7716,
      "rejecting": 7717,
      "Beij": 7718,
      "Beijing": 7719,
      "CNS": 7720,
      "uri": 7721,
      "urged": 7722,
      "conventional": 7723,
      "Clim": 7724,
      "Gra": 7725,
      "rol": 7726,
      "ultane": 7727,
      "initiate": 7728,
      "breed": 7729,
      "han": 7730,
      "pran": 7731,
      "complaint": 7732,
      "DR": 7733,
      "mus": 7734,
      "resolute": 7735,
      "spectrum": 7736,
      "Colombia": 7737,
      "liquid": 7738,
      "weigh": 7739,
      "interoper": 7740,
      "harmonization": 7741,
      "Shar": 7742,
      "tension": 7743,
      "intelligence": 7744,
      "stabilisation": 7745,
      "tably": 7746,
      "ario": 7747,
      "disappointment": 7748,
      "knowing": 7749,
      "Goals": 7750,
      "traceability": 7751,
      "residents": 7752,
      "bananas": 7753,
      "demonstrations": 7754,
      "coni": 7755,
      "tensions": 7756,
      "favoured": 7757,
      "breaking": 7758,
      "Board": 7759,
      "Rad": 7760,
      "scra": 7761,
      "defended": 7762,
      "analyses": 7763,
      "copyright": 7764,
      "Far": 7765,
      "calm": 7766,
      "subsidy": 7767,
      "formulated": 7768,
      "fragile": 7769,
      "reloc": 7770,
      "supran": 7771,
      "transmission": 7772,
      "Child": 7773,
      "sessions": 7774,
      "deliberately": 7775,
      "fulfilling": 7776,
      "entrepreneurs": 7777,
      "Darfur": 7778,
      "cereal": 7779,
      "worker": 7780,
      "underpin": 7781,
      "Working": 7782,
      "eligible": 7783,
      "Cus": 7784,
      "wishing": 7785,
      "platform": 7786,
      "hide": 7787,
      "luck": 7788,
      "packaging": 7789,
      "merit": 7790,
      "wave": 7791,
      "xual": 7792,
      "station": 7793,
      "osexual": 7794,
      "igen": 7795,
      "Barn": 7796,
      "Hussein": 7797,
      "Climate": 7798,
      "lem": 7799,
      "white": 7800,
      "resc": 7801,
      "welve": 7802,
      "communicate": 7803,
      "threaten": 7804,
      "medicine": 7805,
      "components": 7806,
      "cloning": 7807,
      "university": 7808,
      "Danube": 7809,
      "echo": 7810,
      "align": 7811,
      "deregulation": 7812,
      "implies": 7813,
      "Balkan": 7814,
      "Guant": 7815,
      "girls": 7816,
      "user": 7817,
      "officially": 7818,
      "simultane": 7819,
      "substantive": 7820,
      "Anyone": 7821,
      "sadly": 7822,
      "armament": 7823,
      "Seven": 7824,
      "Washing": 7825,
      "refra": 7826,
      "voices": 7827,
      "explanatory": 7828,
      "supranational": 7829,
      "Washington": 7830,
      "wild": 7831,
      "ministerial": 7832,
      "Eth": 7833,
      "Tri": 7834,
      "enko": 7835,
      "approving": 7836,
      "faire": 7837,
      "invitation": 7838,
      "conceal": 7839,
      "academ": 7840,
      "Sever": 7841,
      "toys": 7842,
      "ression": 7843,
      "finished": 7844,
      "bridge": 7845,
      "PA": 7846,
      "sme": 7847,
      "atom": 7848,
      "circulation": 7849,
      "ridic": 7850,
      "preserving": 7851,
      "privileged": 7852,
      "Mand": 7853,
      "sheep": 7854,
      "bears": 7855,
      "separation": 7856,
      "entails": 7857,
      "chief": 7858,
      "instruct": 7859,
      "unsatisfactory": 7860,
      "shoc": 7861,
      "grand": 7862,
      "Forum": 7863,
      "existed": 7864,
      "consolidated": 7865,
      "rigid": 7866,
      "alleg": 7867,
      "momentum": 7868,
      "continuous": 7869,
      "champ": 7870,
      "cofinancing": 7871,
      "Communities": 7872,
      "advocates": 7873,
      "dete": 7874,
      "summar": 7875,
      "mobilisation": 7876,
      "books": 7877,
      "intolerable": 7878,
      "ares": 7879,
      "enrich": 7880,
      "surplus": 7881,
      "suppliers": 7882,
      "belonging": 7883,
      "retail": 7884,
      "accompl": 7885,
      "blocked": 7886,
      "misleading": 7887,
      "engagement": 7888,
      "arisen": 7889,
      "itherto": 7890,
      "Swobod": 7891,
      "manifest": 7892,
      "Swoboda": 7893,
      "Aid": 7894,
      "restra": 7895,
      "socialist": 7896,
      "41": 7897,
      "cile": 7898,
      "trouble": 7899,
      "responded": 7900,
      "pensioners": 7901,
      "eliminating": 7902,
      "forming": 7903,
      "optimistic": 7904,
      "purchase": 7905,
      "customers": 7906,
      "UC": 7907,
      "lawyers": 7908,
      "telephone": 7909,
      "salaries": 7910,
      "deprived": 7911,
      "Michel": 7912,
      "sensitivity": 7913,
      "Industrial": 7914,
      "47": 7915,
      "operates": 7916,
      "summ": 7917,
      "149": 7918,
      "intense": 7919,
      "Person": 7920,
      "reactions": 7921,
      "escal": 7922,
      "ador": 7923,
      "auth": 7924,
      "Initi": 7925,
      "definitions": 7926,
      "Equality": 7927,
      "seats": 7928,
      "judges": 7929,
      "derogations": 7930,
      "Paragraph": 7931,
      "demonstrating": 7932,
      "uz": 7933,
      "ACH": 7934,
      "gaps": 7935,
      "REACH": 7936,
      "Perspective": 7937,
      "Moscow": 7938,
      "dates": 7939,
      "insecurity": 7940,
      "harass": 7941,
      "eradic": 7942,
      "profitable": 7943,
      "hoping": 7944,
      "ars": 7945,
      "airline": 7946,
      "continuity": 7947,
      "journey": 7948,
      "undermining": 7949,
      "revealed": 7950,
      "Ukrainian": 7951,
      "Barnier": 7952,
      "tware": 7953,
      "kestein": 7954,
      "Regul": 7955,
      "counterfeiting": 7956,
      "Pack": 7957,
      "Te": 7958,
      "guidance": 7959,
      "issuing": 7960,
      "fishery": 7961,
      "hydro": 7962,
      "Bolkestein": 7963,
      "porno": 7964,
      "detrimental": 7965,
      "exemptions": 7966,
      "colonial": 7967,
      "pling": 7968,
      "crew": 7969,
      "intermedi": 7970,
      "tested": 7971,
      "diplomacy": 7972,
      "Martin": 7973,
      "inhe": 7974,
      "laundering": 7975,
      "crisy": 7976,
      "famous": 7977,
      "igenous": 7978,
      "escape": 7979,
      "cruel": 7980,
      "harsh": 7981,
      "tariffs": 7982,
      "swiftly": 7983,
      "arbitrary": 7984,
      "knew": 7985,
      "macroeconomic": 7986,
      "acio": 7987,
      "Ev": 7988,
      "Equ": 7989,
      "FA": 7990,
      "spon": 7991,
      "reassure": 7992,
      "attended": 7993,
      "seemed": 7994,
      "Regions": 7995,
      "indications": 7996,
      "mercury": 7997,
      "houses": 7998,
      "Round": 7999,
      "foresee": 8000,
      "worsen": 8001,
      "carriers": 8002,
      "pending": 8003,
      "thoughts": 8004,
      "depending": 8005,
      "capacities": 8006,
      "worthwhile": 8007,
      "delivery": 8008,
      "courageous": 8009,
      "scarce": 8010,
      "prostitution": 8011,
      "reforming": 8012,
      "identifying": 8013,
      "coalition": 8014,
      "memor": 8015,
      "underlined": 8016,
      "offence": 8017,
      "Christmas": 8018,
      "Tues": 8019,
      "electorate": 8020,
      "repair": 8021,
      "hypocrisy": 8022,
      "GN": 8023,
      "expresses": 8024,
      "distortions": 8025,
      "authors": 8026,
      "shap": 8027,
      "render": 8028,
      "Area": 8029,
      "breaches": 8030,
      "domain": 8031,
      "McC": 8032,
      "uc": 8033,
      "esty": 8034,
      "disappointing": 8035,
      "fix": 8036,
      "annes": 8037,
      "profile": 8038,
      "propaganda": 8039,
      "garet": 8040,
      "lus": 8041,
      "dominant": 8042,
      "Tuesday": 8043,
      "finds": 8044,
      "Concerning": 8045,
      "beaut": 8046,
      "infringements": 8047,
      "software": 8048,
      "aug": 8049,
      "God": 8050,
      "theory": 8051,
      "kel": 8052,
      "discovered": 8053,
      "reformed": 8054,
      "senior": 8055,
      "Administr": 8056,
      "learnt": 8057,
      "Bet": 8058,
      "illusion": 8059,
      "indigenous": 8060,
      "akis": 8061,
      "weekend": 8062,
      "tourist": 8063,
      "redundancies": 8064,
      "pig": 8065,
      "gold": 8066,
      "refusing": 8067,
      "newspaper": 8068,
      "frontiers": 8069,
      "subscri": 8070,
      "Gender": 8071,
      "drew": 8072,
      "yards": 8073,
      "objection": 8074,
      "wanting": 8075,
      "summary": 8076,
      "financially": 8077,
      "career": 8078,
      "tendency": 8079,
      "west": 8080,
      "inclusive": 8081,
      "nationality": 8082,
      "textiles": 8083,
      "appropriately": 8084,
      "Dav": 8085,
      "viewed": 8086,
      "petitions": 8087,
      "merits": 8088,
      "automatic": 8089,
      "92": 8090,
      "sooner": 8091,
      "pursuit": 8092,
      "suddenly": 8093,
      "judgments": 8094,
      "earthquake": 8095,
      "agger": 8096,
      "attitudes": 8097,
      "Palacio": 8098,
      "Organization": 8099,
      "advocated": 8100,
      "awaiting": 8101,
      "scenario": 8102,
      "settled": 8103,
      "tos": 8104,
      "transportation": 8105,
      "Small": 8106,
      "mitig": 8107,
      "owe": 8108,
      "spot": 8109,
      "mixed": 8110,
      "gabe": 8111,
      "complementary": 8112,
      "autonomous": 8113,
      "phrase": 8114,
      "lend": 8115,
      "tu": 8116,
      "condemning": 8117,
      "acquire": 8118,
      "frequent": 8119,
      "reconcile": 8120,
      "soft": 8121,
      "Mugabe": 8122,
      "streets": 8123,
      "CFP": 8124,
      "devastating": 8125,
      "kilome": 8126,
      "censure": 8127,
      "reim": 8128,
      "restriction": 8129,
      "Poet": 8130,
      "oriented": 8131,
      "lengthy": 8132,
      "vigilant": 8133,
      "preg": 8134,
      "wis": 8135,
      "geared": 8136,
      "realities": 8137,
      "Cher": 8138,
      "Islands": 8139,
      "ECHO": 8140,
      "bankrupt": 8141,
      "incidence": 8142,
      "Merco": 8143,
      "Poettering": 8144,
      "Next": 8145,
      "entities": 8146,
      "ils": 8147,
      "meal": 8148,
      "weapon": 8149,
      "College": 8150,
      "contamination": 8151,
      "wholly": 8152,
      "56": 8153,
      "Mercosur": 8154,
      "dare": 8155,
      "roph": 8156,
      "shut": 8157,
      "permits": 8158,
      "emph": 8159,
      "cker": 8160,
      "destabil": 8161,
      "Albanian": 8162,
      "conscious": 8163,
      "Sak": 8164,
      "degra": 8165,
      "coins": 8166,
      "redundant": 8167,
      "billions": 8168,
      "compare": 8169,
      "mutually": 8170,
      "recruit": 8171,
      "DC": 8172,
      "eken": 8173,
      "theme": 8174,
      "opponents": 8175,
      "speaks": 8176,
      "newly": 8177,
      "contradictory": 8178,
      "Laeken": 8179,
      "undermined": 8180,
      "Serbian": 8181,
      "deterioration": 8182,
      "reimbur": 8183,
      "Much": 8184,
      "mobilise": 8185,
      "touched": 8186,
      "Directorate": 8187,
      "certific": 8188,
      "distinguish": 8189,
      "twelve": 8190,
      "parame": 8191,
      "successes": 8192,
      "officers": 8193,
      "organs": 8194,
      "Cuban": 8195,
      "inspectors": 8196,
      "Ko": 8197,
      "ita": 8198,
      "iful": 8199,
      "cold": 8200,
      "confront": 8201,
      "intr": 8202,
      "centuries": 8203,
      "bigger": 8204,
      "incin": 8205,
      "Euratom": 8206,
      "Fran": 8207,
      "papers": 8208,
      "allies": 8209,
      "disability": 8210,
      "update": 8211,
      "biotechnology": 8212,
      "meaningful": 8213,
      "constituents": 8214,
      "Has": 8215,
      "inland": 8216,
      "ione": 8217,
      "costly": 8218,
      "massac": 8219,
      "killing": 8220,
      "Basque": 8221,
      "cooperative": 8222,
      "istribut": 8223,
      "compensate": 8224,
      "homosexual": 8225,
      "Card": 8226,
      "Chile": 8227,
      "lining": 8228,
      "seriousness": 8229,
      "motive": 8230,
      "excessively": 8231,
      "belongs": 8232,
      "certification": 8233,
      "alliance": 8234,
      "accum": 8235,
      "osis": 8236,
      "Surely": 8237,
      "omé": 8238,
      "Coton": 8239,
      "ani": 8240,
      "expecting": 8241,
      "adapting": 8242,
      "rated": 8243,
      "score": 8244,
      "dimin": 8245,
      "paradox": 8246,
      "ILO": 8247,
      "fold": 8248,
      "1991": 8249,
      "returning": 8250,
      "istry": 8251,
      "sta": 8252,
      "Yugoslav": 8253,
      "robust": 8254,
      "Southern": 8255,
      "absent": 8256,
      "patri": 8257,
      "classification": 8258,
      "Communication": 8259,
      "fruitful": 8260,
      "Cotonou": 8261,
      "disproportionate": 8262,
      "thirds": 8263,
      "switch": 8264,
      "incompatible": 8265,
      "ara": 8266,
      "preferences": 8267,
      "buying": 8268,
      "proportionality": 8269,
      "hitherto": 8270,
      "iencies": 8271,
      "page": 8272,
      "incomprehensible": 8273,
      "acute": 8274,
      "agreeing": 8275,
      "Together": 8276,
      "eat": 8277,
      "love": 8278,
      "adjour": 8279,
      "rescue": 8280,
      "suspend": 8281,
      "reward": 8282,
      "aterally": 8283,
      "Conservative": 8284,
      "harov": 8285,
      "audi": 8286,
      "allowances": 8287,
      "Erika": 8288,
      "mentions": 8289,
      "cigaret": 8290,
      "cheaper": 8291,
      "slowly": 8292,
      "interoperability": 8293,
      "attribut": 8294,
      "modes": 8295,
      "continually": 8296,
      "Maur": 8297,
      "entrepreneur": 8298,
      "prejudice": 8299,
      "invo": 8300,
      "ark": 8301,
      "uted": 8302,
      "142": 8303,
      "Confederal": 8304,
      "Norway": 8305,
      "deployment": 8306,
      "collected": 8307,
      "Mean": 8308,
      "rian": 8309,
      "feelings": 8310,
      "restricting": 8311,
      "vitally": 8312,
      "decommissioning": 8313,
      "Cherno": 8314,
      "supporters": 8315,
      "compass": 8316,
      "mentioning": 8317,
      "memory": 8318,
      "Several": 8319,
      "Chernoby": 8320,
      "Cast": 8321,
      "tone": 8322,
      "va": 8323,
      "warn": 8324,
      "charter": 8325,
      "Accordingly": 8326,
      "bunal": 8327,
      "Putin": 8328,
      "Vene": 8329,
      "posure": 8330,
      "assent": 8331,
      "grav": 8332,
      "sentences": 8333,
      "mothers": 8334,
      "apologise": 8335,
      "techniques": 8336,
      "Chernobyl": 8337,
      "dez": 8338,
      "differing": 8339,
      "rhetoric": 8340,
      "oted": 8341,
      "seve": 8342,
      "navig": 8343,
      "argued": 8344,
      "departments": 8345,
      "68": 8346,
      "icip": 8347,
      "partially": 8348,
      "discover": 8349,
      "surances": 8350,
      "painful": 8351,
      "slo": 8352,
      "excise": 8353,
      "hot": 8354,
      "liberty": 8355,
      "recommends": 8356,
      "prisons": 8357,
      "habilit": 8358,
      "Customs": 8359,
      "Sakharov": 8360,
      "SL": 8361,
      "Whe": 8362,
      "scour": 8363,
      "Finance": 8364,
      "Fortun": 8365,
      "manoeuvre": 8366,
      "rey": 8367,
      "akes": 8368,
      "competitors": 8369,
      "tolerate": 8370,
      "deliberations": 8371,
      "Scott": 8372,
      "newspapers": 8373,
      "Bes": 8374,
      "Cat": 8375,
      "Jer": 8376,
      "ala": 8377,
      "bean": 8378,
      "suspect": 8379,
      "mira": 8380,
      "clothing": 8381,
      "dimensions": 8382,
      "fasc": 8383,
      "reception": 8384,
      "trig": 8385,
      "interfere": 8386,
      "judged": 8387,
      "recourse": 8388,
      "disregard": 8389,
      "bonds": 8390,
      "Questions": 8391,
      "awarded": 8392,
      "Political": 8393,
      "Jean": 8394,
      "pic": 8395,
      "yard": 8396,
      "itives": 8397,
      "proactive": 8398,
      "emit": 8399,
      "assumed": 8400,
      "teaching": 8401,
      "magn": 8402,
      "ingredients": 8403,
      "57": 8404,
      "fee": 8405,
      "maternity": 8406,
      "scrap": 8407,
      "Fortunately": 8408,
      "nur": 8409,
      "incapable": 8410,
      "decess": 8411,
      "unjust": 8412,
      "predecess": 8413,
      "liberalization": 8414,
      "crossing": 8415,
      "lived": 8416,
      "trap": 8417,
      "Turning": 8418,
      "eurozone": 8419,
      "founding": 8420,
      "Canc": 8421,
      "eper": 8422,
      "rehabilit": 8423,
      "illi": 8424,
      "possess": 8425,
      "serving": 8426,
      "legislator": 8427,
      "organisms": 8428,
      "weaken": 8429,
      "ideology": 8430,
      "Equal": 8431,
      "tender": 8432,
      "hearings": 8433,
      "scandalous": 8434,
      "C6": 8435,
      "Cas": 8436,
      "unclear": 8437,
      "cooperating": 8438,
      "workable": 8439,
      "differenti": 8440,
      "destination": 8441,
      "Eng": 8442,
      "drastic": 8443,
      "ruled": 8444,
      "gs": 8445,
      "conferences": 8446,
      "lia": 8447,
      "produces": 8448,
      "receives": 8449,
      "minimal": 8450,
      "Whether": 8451,
      "Jar": 8452,
      "foss": 8453,
      "blocking": 8454,
      "Aust": 8455,
      "bare": 8456,
      "limitations": 8457,
      "reinforcing": 8458,
      "600": 8459,
      "Ban": 8460,
      "shel": 8461,
      "recognized": 8462,
      "referendums": 8463,
      "translated": 8464,
      "severely": 8465,
      "emotion": 8466,
      "opens": 8467,
      "outline": 8468,
      "vian": 8469,
      "instances": 8470,
      "atories": 8471,
      "typical": 8472,
      "quantitative": 8473,
      "reconcil": 8474,
      "artificial": 8475,
      "Indian": 8476,
      "relevance": 8477,
      "mainstreaming": 8478,
      "66": 8479,
      "foreseen": 8480,
      "anybody": 8481,
      "contents": 8482,
      "connections": 8483,
      "ethics": 8484,
      "murdered": 8485,
      "cab": 8486,
      "reunification": 8487,
      "qualitative": 8488,
      "Found": 8489,
      "UEN": 8490,
      "reaffirm": 8491,
      "redistribut": 8492,
      "debts": 8493,
      "processed": 8494,
      "participated": 8495,
      "1989": 8496,
      "municip": 8497,
      "ni": 8498,
      "viability": 8499,
      "ika": 8500,
      "smooth": 8501,
      "cin": 8502,
      "adhere": 8503,
      "trained": 8504,
      "retained": 8505,
      "assert": 8506,
      "fairer": 8507,
      "pornography": 8508,
      "TEN": 8509,
      "duplic": 8510,
      "Naz": 8511,
      "bone": 8512,
      "adays": 8513,
      "intim": 8514,
      "disarmament": 8515,
      "stood": 8516,
      "revise": 8517,
      "installations": 8518,
      "Seventh": 8519,
      "Venez": 8520,
      "51": 8521,
      "Three": 8522,
      "simpler": 8523,
      "Meanwhile": 8524,
      "Azer": 8525,
      "Hol": 8526,
      "concer": 8527,
      "iron": 8528,
      "countryside": 8529,
      "handle": 8530,
      "MEDA": 8531,
      "lacks": 8532,
      "lifting": 8533,
      "iop": 8534,
      "reyer": 8535,
      "ata": 8536,
      "forecasts": 8537,
      "facto": 8538,
      "technically": 8539,
      "lobally": 8540,
      "Fac": 8541,
      "ught": 8542,
      "underlines": 8543,
      "professions": 8544,
      "supplied": 8545,
      "entrust": 8546,
      "impunity": 8547,
      "liberties": 8548,
      "insisted": 8549,
      "highlighting": 8550,
      "film": 8551,
      "silent": 8552,
      "deemed": 8553,
      "pho": 8554,
      "sends": 8555,
      "capabilities": 8556,
      "Sahar": 8557,
      "Good": 8558,
      "Jew": 8559,
      "ny": 8560,
      "roles": 8561,
      "shoulder": 8562,
      "methodo": 8563,
      "conducting": 8564,
      "destroying": 8565,
      "pushing": 8566,
      "catastroph": 8567,
      ".,": 8568,
      "Title": 8569,
      "encompass": 8570,
      "imprison": 8571,
      "selt": 8572,
      "mining": 8573,
      "entirety": 8574,
      "Leon": 8575,
      "boundaries": 8576,
      "Pra": 8577,
      "pressures": 8578,
      "excellence": 8579,
      "labor": 8580,
      "piracy": 8581,
      "Personally": 8582,
      "confine": 8583,
      "advisory": 8584,
      "measured": 8585,
      "Cambodia": 8586,
      "hus": 8587,
      "requesting": 8588,
      "attempted": 8589,
      "equipped": 8590,
      "dismantling": 8591,
      "Posselt": 8592,
      "shif": 8593,
      "hoc": 8594,
      "activists": 8595,
      "Maritime": 8596,
      "moderate": 8597,
      "Bulgarian": 8598,
      "Lank": 8599,
      "Sri": 8600,
      "iled": 8601,
      "guiding": 8602,
      "mistaken": 8603,
      "spreading": 8604,
      "reputation": 8605,
      "psychological": 8606,
      "fossil": 8607,
      "Austral": 8608,
      "EF": 8609,
      "olive": 8610,
      "wal": 8611,
      "lez": 8612,
      "precondition": 8613,
      "informing": 8614,
      "dependency": 8615,
      "injured": 8616,
      "likewise": 8617,
      "carious": 8618,
      "harmonising": 8619,
      "survey": 8620,
      "nical": 8621,
      "bran": 8622,
      "Support": 8623,
      "aggressive": 8624,
      "radiation": 8625,
      "Gulf": 8626,
      "linking": 8627,
      "remun": 8628,
      "agu": 8629,
      "indif": 8630,
      "crates": 8631,
      "gues": 8632,
      "appreciated": 8633,
      "compatibility": 8634,
      "Conservatives": 8635,
      "frontier": 8636,
      "lective": 8637,
      "protests": 8638,
      "transformation": 8639,
      "Joh": 8640,
      "diversification": 8641,
      "Sarko": 8642,
      "usterity": 8643,
      "EDF": 8644,
      "refrain": 8645,
      "Venezue": 8646,
      "G8": 8647,
      "PN": 8648,
      "bird": 8649,
      "checked": 8650,
      "baij": 8651,
      "hatred": 8652,
      "Azerbaij": 8653,
      "pit": 8654,
      "aculture": 8655,
      "Partic": 8656,
      "capt": 8657,
      "reactors": 8658,
      "decrease": 8659,
      "quiet": 8660,
      "Cap": 8661,
      "Innovation": 8662,
      "cles": 8663,
      "legislators": 8664,
      "1980": 8665,
      "iki": 8666,
      "opposing": 8667,
      "Ethiop": 8668,
      "Blo": 8669,
      "courses": 8670,
      "earning": 8671,
      "breast": 8672,
      "incidentally": 8673,
      "prohibition": 8674,
      "suspicion": 8675,
      "inherent": 8676,
      "Sarkozy": 8677,
      "ulling": 8678,
      "exposure": 8679,
      "welcoming": 8680,
      "distortion": 8681,
      "separately": 8682,
      "prohibited": 8683,
      "Jarz": 8684,
      "MA": 8685,
      "Wats": 8686,
      "letters": 8687,
      "accusations": 8688,
      "Jarzemb": 8689,
      "Watson": 8690,
      "01": 8691,
      "lift": 8692,
      "aded": 8693,
      "threatens": 8694,
      "Erasmus": 8695,
      "Ra": 8696,
      "kid": 8697,
      "orn": 8698,
      "chose": 8699,
      "disagreement": 8700,
      "season": 8701,
      "passion": 8702,
      "deplore": 8703,
      "ridiculous": 8704,
      "Johannes": 8705,
      "austerity": 8706,
      "sick": 8707,
      "asts": 8708,
      "cosme": 8709,
      "marri": 8710,
      "Phil": 8711,
      "haul": 8712,
      "premature": 8713,
      "questionable": 8714,
      "visits": 8715,
      "emphasising": 8716,
      "Media": 8717,
      "precedence": 8718,
      "racist": 8719,
      "Ref": 8720,
      "precarious": 8721,
      "redress": 8722,
      "cash": 8723,
      "edule": 8724,
      "confronted": 8725,
      "England": 8726,
      "Jarzembowski": 8727,
      "globally": 8728,
      "suit": 8729,
      "unite": 8730,
      "extradition": 8731,
      "owing": 8732,
      "transposed": 8733,
      "discrepan": 8734,
      "ineffective": 8735,
      "alities": 8736,
      "leges": 8737,
      "tract": 8738,
      "ferred": 8739,
      "imped": 8740,
      "attaches": 8741,
      "Natura": 8742,
      "chapters": 8743,
      "elit": 8744,
      "codif": 8745,
      "ferential": 8746,
      "independently": 8747,
      "striking": 8748,
      "allocate": 8749,
      "Foundation": 8750,
      "gall": 8751,
      "altogether": 8752,
      "rote": 8753,
      "mostly": 8754,
      "gratory": 8755,
      "innovations": 8756,
      "Everything": 8757,
      "claiming": 8758,
      "exempl": 8759,
      "Current": 8760,
      "hr": 8761,
      "thrust": 8762,
      "fell": 8763,
      "presum": 8764,
      "mart": 8765,
      "globalised": 8766,
      "capitalist": 8767,
      "motivated": 8768,
      "deple": 8769,
      "uncertain": 8770,
      "deterior": 8771,
      "prerog": 8772,
      "somewhere": 8773,
      "industrialised": 8774,
      "discretion": 8775,
      "duration": 8776,
      "impressive": 8777,
      "hect": 8778,
      "alled": 8779,
      "scene": 8780,
      "convenience": 8781,
      "exemplary": 8782,
      "Scient": 8783,
      "replacing": 8784,
      "outrage": 8785,
      "additives": 8786,
      "identical": 8787,
      "itoring": 8788,
      "deepening": 8789,
      "formulate": 8790,
      "Galic": 8791,
      "ASEAN": 8792,
      "fly": 8793,
      "tables": 8794,
      "wrote": 8795,
      "än": 8796,
      "inability": 8797,
      "counting": 8798,
      "lawful": 8799,
      "airspace": 8800,
      "Israelis": 8801,
      "nice": 8802,
      "preme": 8803,
      "pattern": 8804,
      "Gothen": 8805,
      "TV": 8806,
      "tank": 8807,
      "ún": 8808,
      "asset": 8809,
      "prosecution": 8810,
      "unrealistic": 8811,
      "nets": 8812,
      "introduces": 8813,
      "secured": 8814,
      "sighted": 8815,
      "anticipated": 8816,
      "aste": 8817,
      "suic": 8818,
      "ounced": 8819,
      "Carib": 8820,
      "schedule": 8821,
      "venture": 8822,
      "spar": 8823,
      "ander": 8824,
      "disappeared": 8825,
      "Prof": 8826,
      "Wallström": 8827,
      "confined": 8828,
      "Gothenburg": 8829,
      "inspir": 8830,
      "andem": 8831,
      "affordable": 8832,
      "parameters": 8833,
      "250": 8834,
      "Lomé": 8835,
      "reciprocity": 8836,
      "inspired": 8837,
      "Sahara": 8838,
      "Caribbean": 8839,
      "depos": 8840,
      "migratory": 8841,
      "panel": 8842,
      "thrown": 8843,
      "website": 8844,
      "restoring": 8845,
      "internally": 8846,
      "Luk": 8847,
      "departure": 8848,
      "intimid": 8849,
      "entity": 8850,
      "antibio": 8851,
      "delivering": 8852,
      "exercised": 8853,
      "alon": 8854,
      "impartial": 8855,
      "preferential": 8856,
      "protein": 8857,
      "Monitoring": 8858,
      "Slovenian": 8859,
      "egg": 8860,
      "Councils": 8861,
      "Cypriot": 8862,
      "reck": 8863,
      "disadvantages": 8864,
      "ller": 8865,
      "prevents": 8866,
      "exercising": 8867,
      "ju": 8868,
      "anen": 8869,
      "imbalance": 8870,
      "urity": 8871,
      "safeguarded": 8872,
      "Reding": 8873,
      "sentenced": 8874,
      "taxpayer": 8875,
      "database": 8876,
      "aquaculture": 8877,
      "repressive": 8878,
      "deeper": 8879,
      "pron": 8880,
      "anyway": 8881,
      "dominated": 8882,
      "teams": 8883,
      "imperialist": 8884,
      "ilation": 8885,
      "boy": 8886,
      "strongest": 8887,
      "breaks": 8888,
      "speedy": 8889,
      "perpetrators": 8890,
      "cultivation": 8891,
      "Pan": 8892,
      "assurances": 8893,
      "reasonably": 8894,
      "obligatory": 8895,
      "aus": 8896,
      "reconsider": 8897,
      "toll": 8898,
      "imer": 8899,
      "unresolved": 8900,
      "plenty": 8901,
      "currencies": 8902,
      "conversion": 8903,
      "aliban": 8904,
      "expanding": 8905,
      "usalem": 8906,
      "Jerusalem": 8907,
      "Dal": 8908,
      "Taliban": 8909,
      "boats": 8910,
      "gains": 8911,
      "records": 8912,
      "jeopardise": 8913,
      "Business": 8914,
      "Azerbaijan": 8915,
      "Bend": 8916,
      "bered": 8917,
      "sceptic": 8918,
      "promptly": 8919,
      "accompanying": 8920,
      "Eurojust": 8921,
      "paramount": 8922,
      "finite": 8923,
      "astically": 8924,
      "chances": 8925,
      "exceptionally": 8926,
      "93": 8927,
      "Nobod": 8928,
      "Ste": 8929,
      "loud": 8930,
      "salary": 8931,
      "complying": 8932,
      "Nobody": 8933,
      "ON": 8934,
      "fan": 8935,
      "atro": 8936,
      "witnessing": 8937,
      "PNR": 8938,
      "FO": 8939,
      "signatures": 8940,
      "confused": 8941,
      "maxim": 8942,
      "submitting": 8943,
      "purchasing": 8944,
      "dic": 8945,
      "aten": 8946,
      "stic": 8947,
      "emen": 8948,
      "draws": 8949,
      "emergence": 8950,
      "harassment": 8951,
      "rain": 8952,
      "unction": 8953,
      "aston": 8954,
      "divisions": 8955,
      "screening": 8956,
      "Johannesburg": 8957,
      "coup": 8958,
      "pushed": 8959,
      "ilingual": 8960,
      "GSP": 8961,
      "iver": 8962,
      "vessel": 8963,
      "akh": 8964,
      "communist": 8965,
      "catches": 8966,
      "remem": 8967,
      "abide": 8968,
      "duly": 8969,
      "investigated": 8970,
      "Approval": 8971,
      "hygi": 8972,
      "secretariat": 8973,
      "optimism": 8974,
      "academic": 8975,
      "Made": 8976,
      "encoun": 8977,
      "exagger": 8978,
      "endeavours": 8979,
      "vaccination": 8980,
      "street": 8981,
      "entrepreneurship": 8982,
      "PHA": 8983,
      "ey": 8984,
      "regain": 8985,
      "benefiting": 8986,
      "splend": 8987,
      "compliment": 8988,
      "fies": 8989,
      "resume": 8990,
      "auer": 8991,
      "upheld": 8992,
      "benefited": 8993,
      "creativity": 8994,
      "veterinary": 8995,
      "drag": 8996,
      "Environmental": 8997,
      "occurs": 8998,
      "assumption": 8999,
      "CR": 9000,
      "hid": 9001,
      "relocation": 9002,
      "trials": 9003,
      "successive": 9004,
      "sanction": 9005,
      "standardisation": 9006,
      "restored": 9007,
      "evaluated": 9008,
      "privilege": 9009,
      "stipulates": 9010,
      "Somalia": 9011,
      "PHARE": 9012,
      "58": 9013,
      "Oomen": 9014,
      "zing": 9015,
      "és": 9016,
      "inery": 9017,
      "coexistence": 9018,
      "angle": 9019,
      "eliminated": 9020,
      "replacement": 9021,
      "exceeded": 9022,
      "scourge": 9023,
      "120": 9024,
      "Sport": 9025,
      "alive": 9026,
      "essor": 9027,
      "timber": 9028,
      "bett": 9029,
      "advise": 9030,
      "assisting": 9031,
      "Very": 9032,
      "contractual": 9033,
      "trialogue": 9034,
      "Dr": 9035,
      "ena": 9036,
      "stal": 9037,
      "decides": 9038,
      "fairness": 9039,
      "Nothing": 9040,
      "maintains": 9041,
      "livelihood": 9042,
      "contracting": 9043,
      "Corbett": 9044,
      "Pacific": 9045,
      "adjourned": 9046,
      "Rü": 9047,
      "flying": 9048,
      "ordin": 9049,
      "specialist": 9050,
      "deliberate": 9051,
      "78": 9052,
      "applause": 9053,
      "wasted": 9054,
      "arrival": 9055,
      "John": 9056,
      "skilled": 9057,
      "wisdom": 9058,
      "08": 9059,
      "tres": 9060,
      "clim": 9061,
      "permission": 9062,
      "envisage": 9063,
      "bans": 9064,
      "reaf": 9065,
      "shore": 9066,
      "dub": 9067,
      "minded": 9068,
      "deficiencies": 9069,
      "Nuclear": 9070,
      "aer": 9071,
      "dark": 9072,
      "ogen": 9073,
      "director": 9074,
      "strengthens": 9075,
      "barbar": 9076,
      "incorporating": 9077,
      "judgement": 9078,
      "emphatically": 9079,
      "Besides": 9080,
      "unt": 9081,
      "agh": 9082,
      "servants": 9083,
      "presidencies": 9084,
      "alike": 9085,
      "anxious": 9086,
      "splendid": 9087,
      "Ear": 9088,
      "Sund": 9089,
      "style": 9090,
      "understands": 9091,
      "List": 9092,
      "Water": 9093,
      "inser": 9094,
      "outbreak": 9095,
      "wheel": 9096,
      "polluter": 9097,
      "rigour": 9098,
      "ána": 9099,
      "anian": 9100,
      "amaz": 9101,
      "circle": 9102,
      "charging": 9103,
      "prosperous": 9104,
      "Ferrero": 9105,
      "managers": 9106,
      "Mat": 9107,
      "incorrect": 9108,
      "afterwards": 9109,
      "frameworks": 9110,
      "Produ": 9111,
      "passive": 9112,
      "pleasant": 9113,
      "rehabilitation": 9114,
      ");": 9115,
      "Vitor": 9116,
      "injustice": 9117,
      "rot": 9118,
      "stad": 9119,
      "pricing": 9120,
      "responsibly": 9121,
      "nationalism": 9122,
      "suggesting": 9123,
      "acknowledges": 9124,
      "71": 9125,
      "ofar": 9126,
      "ilaterally": 9127,
      "Unless": 9128,
      "pride": 9129,
[...]
